#version: 0.2 - Trained by `huggingface/tokenizers`
a a
h h
b b
g g
c c
f f
d d
e e
aa aa
hh hh
bb bb
gg gg
aaaa aaaa
hhhh hhhh
e d
c d
e f
g f
c b
cc cc
ff ff
e dd
a b
ee ee
c dd
bb b
ff f
g h
aaaaaaaa aaaaaaaa
hhhhhhhh hhhhhhhh
dd dd
e ff
c bb
hh h
gg g
gg f
cc d
ee d
ee f
dd d
c f
g ff
c bbbb
c e
d f
cc b
a bb
gggg gggg
aa b
g e
d b
c bbb
bbbb bbbb
gg gf
g hh
g hhhh
aaaaaaaaaaaaaaaa aaaaaaaaaaaaaaaa
hhhhhhhhhhhhhhhh hhhhhhhhhhhhhhhh
e ffff
gg h
aa ab
e fff
cc cd
aa a
e b
g d
edd d
cdd d
gg ff
ee ed
cc dd
ee dd
ee ff
g hhh
g b
cc bb
ee ef
c ed
bbbb b
cb cb
g ffff
g fff
a h
cccc cccc
cd cd
gf gf
gh gh
c ef
d e
cc cb
ed f
h f
ee e
c a
ab ab
ef ef
aa bb
cc cdd
gggg f
cd f
ed ed
g hhhhhhhh
gg hhhh
ee edd
aaaa b
a bbb
ffff f
ggg ff
bbbb bb
cd b
eeee eeee
gg hh
g ef
cc bbb
f b
gg gh
g c
aa abb
d ed
ah ah
gf d
cbbbb b
ee fff
e cb
aaaaaaaa aaaa
edd dd
gg fff
dddd d
hhhh h
hhhhhhhhhhhhhhhhhhhhhhhhhhhhhhhh hhhhhhhhhhhhhhhhhhhhhhhhhhhhhhhh
aaaaaaaaaaaaaaaaaaaaaaaaaaaaaaaa aaaaaaaaaaaaaaaaaaaaaaaaaaaaaaaa
e gf
a bbbb
ee ddd
f d
cccc d
e cd
cb d
gg hhh
cc ddd
ee eff
ef d
g ed
ffff ffff
cdd dd
cc cbb
e c
hhhh hh
dddd dddd
cc c
eeee f
h e
cc bbbb
d a
cccc b
ghhhh h
aaaa ab
gh f
aa bbb
eeee d
g a
h b
gggg gf
ee ffff
c ab
h d
e a
ce b
cd ef
gg hhhhhhhh
cc cbbbb
ed b
g df
gg ffff
c ee
cd e
hhhh hhh
ed e
f a
gggg h
ef e
h c
gggg ff
g cf
effff f
ghhhh hh
aaaa aab
dd f
ggg hh
c edd
ee dddd
bbbbbbbb bbbbbbbb
ggg fff
cc dddd
d cb
gggggggg gggggggg
ef gf
cd ed
cf b
aaa bbb
cc e
gg e
gb gb
gh gf
eed f
d cd
c ff
cc f
d ef
g hhhhhhhhhhhhhhhh
d ff
d bb
cbbbb bb
cc cbbb
gggg ggf
gf e
ef ed
aaaa bb
aa bbbb
cb ab
cb cd
ccd f
g ee
aaaa a
dd b
c eff
aaaa aaab
ggg hhh
ab a
gf ed
ghhhh hhh
edd ddd
cccc dd
ggg ffff
gffff f
cc cddd
ee efff
ge ge
db db
cdd ddd
edd f
c eed
ee effff
cccc cd
bbbb bbb
ed ef
aaaaaaaa b
cc bbbbb
cd ff
df df
cf cf
eeee ff
gggg gff
ce ce
cccc bb
cd cb
ee eddd
eeee dd
aaaa abb
h gh
cc ef
ggg hhhhhhhh
edd dddd
cd cdd
gf ef
a bbbbb
ggf d
ed cb
g eff
dd e
ccd b
f e
gghhhh h
bbbbbbbb b
c eef
ed cd
d ee
cbbbb bbb
aaaa aa
aaaa aaa
gh gggg
df d
hhhhhhhhhhhhhhhh hhhhhhhh
cdd f
e cbb
d c
eeee ed
gggggggg gggg
ffff ff
gg ed
cdd dddd
ca ca
gf gggg
ccb cb
cf d
gh ggf
Ġ f
eeee ef
ghh f
gg d
effff ff
cccc cb
gf gff
cccc ccd
g eef
ghh gf
hh f
hf hf
edd e
ggg hhhh
Ġ b
c aab
aaaaaaaaaaaaaaaa aaaaaaaa
cbb cd
cbb ab
gggg gggf
ef ggf
cdd b
e cc
e bb
cb aab
eb eb
e ce
g db
eed ed
g dd
ga ga
gghhhh hh
aaaa aabb
ge b
h gf
eff ed
eef ef
hhhhhhhhhhhhhhhhhhhhhhhhhhhhhhhhhhhhhhhhhhhhhhhhhhhhhhhhhhhhhhhh hhhhhhhhhhhhhhhhhhhhhhhhhhhhhhhhhhhhhhhhhhhhhhhhhhhhhhhhhhhhhhhh
cb ccd
hb hb
gggg fff
gd gd
ee b
g edd
gggg hh
cbb d
cc ed
cccc cdd
eff d
aaa bbbb
aaaaaaaaaaaaaaaaaaaaaaaaaaaaaaaaaaaaaaaaaaaaaaaaaaaaaaaaaaaaaaaa aaaaaaaaaaaaaaaaaaaaaaaaaaaaaaaaaaaaaaaaaaaaaaaaaaaaaaaaaaaaaaaa
bbbbbbbb bb
gb f
eff gf
e cdd
ahah ahah
eef d
aaaa bbb
cccccccc cccccccc
gg ef
gffff ff
db d
aaaaaaaa aab
ee fffff
cb a
eed b
cc bbbbbb
ced f
cc ce
cccc bbb
cd bb
ghhhhhhhh hh
gg fffff
ggf ed
e ccd
cb cbb
e cf
ggf gf
c aa
edd ef
e ge
edd cd
dd ef
ggh f
ff d
gff ef
cdd ed
aaaaaaaa ab
cbbbb bbbb
ah b
gghhhh hhh
ccd ef
c abb
e ggf
g hhhhhhhhhhhhhhhhhhhhhhhhhhhhhhhh
ccb d
dd ed
fb fb
g eed
a bbbbbb
cccc ddd
ccd ed
aaaa aaabb
cd ee
edd b
ghhhhhhhh h
Ġ d
cd eed
gggg ggff
aaaaaaaaaaaaaaaa aaaaaaaaaaaa
gc gc
cc cbcb
gggg ggh
gggg gh
eeee fff
ah a
cd ccb
ggf ef
ab d
cc bbbbbbbb
eef ed
gggg hhh
cd cbb
eff ef
gggggggg f
fa fa
ggf e
abab abab
c gb
gff d
da da
ggg hhhhh
a bbbbbbbb
eeee eed
aa bbbbb
cb cccc
ab abb
edd ed
ghhh f
cd eff
hc hc
he he
cd cccc
ge gf
cccdd dd
eeee ddd
gg hhhhhhhhhhhhhhhh
gg ghgh
ee cb
abbbb bbb
dddd dd
bb d
gfgf gf
cb db
cc cbbbbb
ffff fff
eef gf
ccd e
aaaa abbb
cb cdd
eeedd dd
c aaab
eeee edd
hd hd
ee gf
ea ea
eeeeeeee eeeeeeee
eed ef
dddddddd dddddddd
ghhhhhhhhhhhhhhhh hhhhhhhh
cb abb
ccd cd
eed e
ghhh gf
ggh gf
a d
gh gff
ghhhhhhhh hhhh
hhh f
ed bb
eeee eef
cc ddddd
ee ddddd
gh g
hh gf
hf h
ef eff
cbcb cbcb
effff fff
cccc ccb
cb c
cc cef
aaaaaaaa aaaab
ghgh ghgh
cb dd
eb d
gggg hhhhhhhh
e h
ff ed
g efef
d cbb
ff gf
a c
cb aaab
cb ccb
gggg gfff
e gff
ccbbbb bbb
eeee eff
ce fff
e ccb
cccd f
cb cbbb
gggg ggg
ddd f
cd ccd
ef eed
cccc cccd
cd edd
cccc cbb
cc ee
gg ee
eded eded
gggf gf
aaaaaaaa bb
e gd
cb aa
ggh gh
g ahah
ccb ab
d eed
e gh
gf dd
ghhhhhhhh hhh
ed edd
aaaaaaaa aaab
eeed f
aaa bbbbb
a ca
cb cbbbb
cdd ef
cd c
cb cc
gff gf
ffffffff ffffffff
dd bb
e gg
cdcd b
cbb abb
ed ff
aaaaaaaaaaaaaaaaaaaaaaaaaaaaaaaa aaaaaaaaaaaaaaaa
gggg ffff
cc cf
gggg ghh
h ahah
gffff fff
cc ced
gf h
ggh ggf
ccd ff
df e
ggg fffff
df ef
eff e
cf c
dd ff
f h
cd eef
ed eef
gggg gggff
gggf d
aaaa bbbb
abab ab
a cb
ggg hhhhhh
aaaa aabbb
ggg e
aab d
c aaa
b ab
eeffff ff
cbbbb bbbbb
efef ef
ed cbb
cc eff
cbbb d
eeee dddd
cdd e
cccc ccdd
ee cd
cccc dddd
gggg gg
gff e
cccc bbbb
cc ff
fb f
bbbbbbbbbbbbbbbb bbbbbbbbbbbbbbbb
gggg hhhh
gh ge
eedd f
ed ccd
eef e
dd cd
c eeed
db ab
cccd b
c eee
c fff
ccb cd
edd df
gcf d
cccbbbb bb
gff ed
h ggf
cdcd cdcd
aaaaaaaa abb
ghgh gh
Ġ bb
ced b
edf d
ghhhhhhhh hhhhhh
ggffff ff
gggg gggh
eeee eeed
bbbbbbbb bbb
eeef ef
effff ffff
aaaaaaaaaaaa aab
ccb ccd
cc eed
ce cd
eeee ffff
dd cb
cbb cdd
aa d
ghh ggf
edd cdd
efff ef
ee efffff
gf eef
gggf ed
e cfb
ghgh f
ccdd f
aa bbbbbb
gggg gffff
d bbb
cccc cccdd
gf ee
eeee e
eff gff
c eddd
g edf
Ġ ff
edd ff
eb db
cdd cb
ge fff
c abab
ggg ed
gggf ef
gghhhhhhhh h
gh gg
gf ggf
cbb cb
ge gd
cccc cbbb
d eff
e hh
ggg hhhhhhh
ggg ef
cccc cddd
cbb aab
eeedd ddd
aaaa aaabbb
bb ab
eef ggf
ghh gff
eed cd
c gbgb
ce cf
cdd cd
gghhhhhhhh hh
ced ed
gggg ghhh
cbb a
hhhhhhhhhhhhhhhhhhhhhhhhhhhhhhhh hhhhhhhh
gggg ggfff
c eeff
h g
ccb aab
eeee eeef
cccc cbbbb
cc ab
c eedd
aaaaaaaa aabb
gh gd
ce gf
ff e
cbbb cd
gef d
eded ed
ddd b
ef dd
eeee ee
aaab ab
d cdd
aaaa abbbb
efff ed
ghhhh f
gfgf gfgf
edd eff
ef ee
ef gff
eb ab
gggggggggggggggg gggggggggggggggg
cdcd cd
ccd eed
hhh gf
eddd ed
cccdd ddd
eef eed
e ghh
eeee eedd
gghh gf
df gf
cd fff
bbb d
cb aabb
cf gf
eb f
eff ggf
g eee
edd ddddd
ghhhhhhhh hhhhh
eeed ed
eeee eeff
eeee efff
cbcb cb
cdb d
ccbb ab
ccd cdd
c gc
ggg hhhhhhhhhhhhhhhh
e ced
cccd ef
ghhhh gf
gh ggff
gh ff
b d
aabbbb bbb
cf e
efff d
cdd bb
gg eef
cccc cccb
aa c
ccd eff
g eeef
eedddd dd
ed eff
gggggggg ff
bbbbbbbb bbbb
cf df
ed cdd
cb df
h a
ee cbb
gggf e
eeee eddd
cd cccd
cc eef
ggg d
gggg gghh
cb ce
edd eed
Ġ dd
cccc ccbb
cd bbb
cb ccdd
cc a
dddd ddd
aab ab
aaa bbbbbb
ggf dd
ca bbb
ggff ef
cd cbbb
cb aaaab
f gf
gggg hhhhh
cbbbb bbbbbb
gfff gf
c aaaab
ccdddd dd
fff d
gh ghhh
cb cf
cbb ccd
eddd ef
ffffffff ff
Ġ h
eeff gf
eed eef
g hhhhhhhhhhhhhhhhhhhhhhhhhhhhhhhhhhhhhhhhhhhhhhhhhhhhhhhhhhhhhhhh
gggggggg h
cc edd
ef eef
cef d
gdf d
abb d
gc gd
eeff ed
gggggggg ggf
cccc bbbbb
eeffff fff
aaaaaaaaaaaa ab
cb aaa
cbbb ab
ded b
h ff
gffff ffff
h ahahahah
cdd ff
e g
h gg
ghhhh hf
cccc cc
cccbbbb bbb
ggggf gf
gd bb
aaaaaaaa aa
cdd cbb
gb gcf
ggf eef
gh ghh
ccb cbb
hhhhhhhhhhhhhhhhhhhhhhhhhhhhhhhh hhhhhhhhhhhhhhhh
gff eff
c eeee
gbf cedd
ef df
gggggggg gf
cd cddd
aaaaaaaa a
gggffff ff
ggh gggg
eed ff
ccd ee
aaaaaaaa bbb
dd cbb
gg edd
cb cccb
eeef d
gghhhhhhhh hhhh
eedd ef
ggf ee
ccd bb
ge bb
eef eff
gg db
f hh
eed bb
c gd
ged b
e cbbb
ccb cdd
ce ced
ccdd b
g ahahahah
ccdd ed
eed edd
hhhhhhhh hh
eeee effff
abbb ab
g eeff
gghhhhhhhh hhh
eeee eeedd
aaaa bbbbb
ef edd
cdd edd
eb fb
efef efef
ed ee
gggh f
cb cccd
gg eb
ccd ccb
cdb db
gh gggf
aaaaaaaa aaabb
cab a
ccd cbb
h ghf
db aab
ghh ge
h ge
d ccb
ghhh ggf
aaaa aabbbb
gff ggf
cd ce
ccd cb
hhhh f
gghh f
ge gef
e gggf
cd ccbb
dd eff
efff gf
gg eff
b a
ghh g
abb ab
ggffff fff
cccd ed
eed eff
ghhhhhhhh hhhhhhh
ccd edd
aaaaaaaaaaaaaaaaaaaaaaaaaaaaaaaaaaaaaaaaaaaaaaaaaaaaaaaaaaaaaaaa aaaaaaaaaaaaaaaaaaaaaaaaaaaaaaaa
cb f
db a
abab a
ggff d
gg hhhhhhhhhhhhhhhhhhhhhhhh
cd eeed
cbbbb bbbbbbbb
aaab d
g aha
ggff gf
aaaaaaaaaaaaaaaa b
c eeef
e ceb
gfd bb
dd ee
cb ccbb
eeff d
cf hh
cdd ddddd
gggg gggfff
edd eef
c aabb
ggh gff
cccccccc d
cbb ccb
c gf
h gd
df b
cd cc
gg ecb
cd efff
eed cb
h ahb
cdf gf
gggg fffff
gbgb f
ee ggf
cd eedd
eeee ded
h ghgh
ee ffffffff
gggg gghhh
cccccccc b
gggh gf
cbb aaab
aaa d
cbcb d
dd cdd
eeeffff ff
Ġ bbb
hc hd
cbbb cb
edf ef
ggff ed
g eedd
e cdb
eff eef
bb a
hhhhhhhh h
ccb abb
cccc ccddd
ccbb d
ddd ef
ggf gff
e bbb
gaga ga
eff edd
cc aab
ed eed
cbb cbb
gb fb
hhhhhhhhhhhhhhhhhhhhhhhhhhhhhhhh hhhhhhhhhhhhhhhhhhhhhhhh
aaaaaaaaaaaa bb
eb a
aaaaaaaa aaa
gcf b
gggg hhhhhh
ef gggf
gh ggh
aaaaaaaaaaaa aaab
cccdd dddd
cccd cd
ab aaab
ccd eef
g ce
ggf edd
da ca
ghh ff
ggf eff
eeedd dddd
cdd eef
cbb dd
df ed
hf he
ab aab
ghhhhh gf
hbhb hb
db cb
ghhh gff
cc bbbbbbbbb
edf df
e cccd
gggg ghhhh
gh fd
gghhh gf
aaaaaaaa abbb
ddd ed
eed ccd
c aaaa
eed cbb
aa bbbbbbbb
gcfd eedf
eeed ef
eeee fffff
gg dd
cccb d
aaaaaaa bbbb
gfff ef
cb abbb
hh g
gggg ggffff
gggf gff
hhhhhhhh hhhh
h gff
gggg g
ggg ee
eeef ed
efef d
ccdd ef
gh gggh
eeff ef
ccb a
aa cf
cdf d
ge cb
eeed b
cccc ccbbb
ee bb
ghhhhhhhhhhhhhhhh hh
fff ef
gg ffffffff
dddddddd dd
gh gfd
Ġ hh
e hhh
eef gff
aaaaa bbbbb
gghhh f
cccc cdddd
eff eff
ce ggf
gh ged
ff ef
e ggh
eedd b
gahah a
cdd df
eeef gf
fff ed
ccd ccd
cb aaabb
effff fffff
cef ed
ggf ggf
ce ffff
edddddd dd
cbbbb bbbbbbb
dd bbb
cccbbbb bbbb
gh ggggf
gh gggggggg
cdd eed
de gf
edd edd
cdd db
ghh gd
hhhh hf
e gef
ccb cbbb
gggg gfgf
eeeeeeee f
cddd ed
ggghhhhhhhh hh
cef gf
gb gc
gggg ggghh
gh gfff
eedddd ddd
ccbb cd
ge gfgf
ce ceb
abb cb
ccb aaab
hf gf
a bbbbbbbbb
cdd eff
eedd ed
ab abbb
cdd ccd
gggh ggf
g eddd
cccccccc cccc
eb aab
fff gf
cbb df
edd bb
hhhhhhhh hhh
cd ced
edd ee
edd ccd
eee gf
e cddd
ce c
ggghhhhhhhh h
ec ab
dddddddddddddddd dddddddddddddddd
eff dd
e ghhh
gghhhhhhhh hhhhhh
eeee eefff
hhhhhhhh hhhhh
cbb abbb
e cdf
ccb dd
eff eed
eef ee
e cdcd
ghh gggg
da ea
gg eed
ccb cbcb
ca d
cccb ab
cbbbb ab
c aaabb
cccc bbbbbb
e ggg
eeee eeddd
cccccccccccccccc cccccccccccccccc
hahah b
cb cef
c aaaaab
ecb ab
eff ee
ccdddd ddd
hhhhhhhhhhhhhhhhhhhhhhhhhhhhhhhhhhhhhhhhhhhhhhhhhhhhhhhhhhhhhhhhhhhhhhhhhhhhhhhhhhhhhhhhhhhhhhhhhhhhhhhhhhhhhhhhhhhhhhhhhhhhhhhh hhhhhhhhhhhhhhhhhhhhhhhhhhhhhhhhhhhhhhhhhhhhhhhhhhhhhhhhhhhhhhhh
cdd ee
ggh ghgh
ef efff
ccbb abb
gghhhhhhhh hhhhh
cb aaaaab
hhhh gf
aaaaaaaa aabbb
aaaaaaaaaaaaaaaa aab
cccc df
cbbb ccd
eeee edddd
ggggf d
ggh ggff
e gfgf
eeddd f
aaaa abab
g ddd
gd ge
ced bb
bbbbbbbb bbbbb
gggggggg gggf
cd ccdd
cfcf cfcf
db eb
eef eef
gff dd
hf hgh
gff ee
eed eed
c eeedd
ed bbb
gggg hhhhhhh
cbbb cbb
ecb d
hd he
ccc ee
eeee eeeff
gggggggg gff
ef b
caca ca
eef dd
cd eee
f c
cdd cdd
ggggf ed
gggg gggffff
aaa bbbbbbb
ghhh gh
cd eddd
eff gggf
eed ee
Ġ aaaaaaaaaaaaaaaaaaaaaaaaaaaaaaaaaaaaaaaaaaaaaaaaaaaaaaaaaaaaaaaaaaaaaaaaaaaaaaaaaaaaaaaaaaaaaaaaaaaaaaaaaaaaaaaaaaaaaaaaaaaaaaaa
cbbb abb
cf h
cb de
d ce
Ġ fff
d edd
gf gggf
cb cddd
eeee ddddd
gff eef
cccd e
f cf
ccb cccc
cd eeff
d cc
cb ca
gdf df
cb cdf
ccb ccdd
gggff ef
d fff
aabb ab
gffff fffff
fa ea
cbbb cdd
ghh fd
cbb ce
cdddddd dd
d ccd
dbdb db
hhhhhhhh hhhhhh
e cccc
gg edf
e ccbb
aba ca
ggh gggf
ghh gh
g eeee
cbbb aab
c edddd
cccd ff
d eef
gf gfff
ggff ggf
gghh ggf
abb aab
dddddddd ddd
hh ge
db aa
ccb ccb
ggh gg
gc gb
gf eff
gff eed
hh gd
cee b
cf ef
e ccdd
cccc cccbb
gggg ghhhhh
aaaaaaaaaaaaaaaaaaaaaaaaaaaaaaaa aaaaaaaaaaaaaaaaaaaaaaaa
gggggggg fff
eef edd
gb fd
gggggggg ggggf
ghhhhhhhhhhhhhhhh hhhh
cccdd f
de cd
df ggf
cccc ded
cddd ef
aaaa bbbbbb
eedd cd
cfb gbgb
gf edd
eed cdd
ccb cc
gggg hhhhhhhhhhhhhhhh
ddd ff
aaaaaaaa bbbb
aabb aab
dddddddd dddd
g eeed
ge ffff
ee ccd
ggh ff
a cf
cddd cd
Ġ ef
ge h
ghh gggf
dd ccd
cbb ccbb
eddd ff
efff eff
cc abb
gggg gfffff
eeeeeeeeeeeeeeee eeeeeeeeeeeeeeee
Ġ gf
aaaaaaaaaaaaaaaa aaaab
eeeef ef
Ġ ddd
aaaaaaaaaaaa abb
cc eee
cccb ccd
gfd ef
gc gcf
hh gff
cc eeed
aa cd
efd bb
ggg ffffffff
cccc ddddd
gg ecd
ggh ghf
e cece
e ggff
cb ddd
ggggf ef
cc efff
ggf gggf
a cd
ggh ghhh
aaaaaaaaaaaa aabb
gfff ed
ab f
a bbbbbbbbbbbbbbbb
ccc eff
ec gb
Ġ hhh
aba bbbbb
ge he
gh gghh
da db
aaab aaab
Ġ ed
aaaaaa bbbbb
gh gef
eeee df
ggghhhhhhhh hhh
ghhhhhhhhhhhhhhhhhhhhhhhhhhhhhhhh hhhhhhhhhhhhhhhh
eef gggf
e gggg
ce cdb
g cd
ee cdd
cccd cdd
edd cbb
cd cbbbb
gff gff
ghhhh ggf
aaa c
abab abb
cc bbbbbbbbbb
cc egf
edddd f
cdb ab
cccc cbbbbb
edd ccb
cb aaaa
aab aab
cbb aabb
cbd a
cb cbbbbb
ce cdd
eb aa
g ahb
ghh ggff
ghhhhhhhhhhhhhhhh hhh
gggg gghhhh
eeeeeeee d
e gfff
bb abb
aaa bbbbbbbb
cfb gb
cab abb
cfb fb
dd eed
e gfd
dd eef
db aaab
Ġ hhhhhhhhhhhhhhhhhhhhhhhhhhhhhhhhhhhhhhhhhhhhhhhhhhhhhhhhhhhhhhhhhhhhhhhhhhhhhhhhhhhhhhhhhhhhhhhhhhhhhhhhhhhhhhhhhhhhhhhhhhhhhhhh
edddddd ddd
ghhhhhh f
edb ab
fa fb
ccd cccd
gf b
cdd ccb
ef h
ggg hhhhhhhhhhhhhhhhhhhhhhhh
ee gff
dd ccb
cccc de
db f
ef ggff
gh e
cbbb cbbb
gh ghhhh
eeff gff
hc hb
ggghh gf
aaab abb
cb aabbb
cbb cf
gggf ggf
a f
cdf ed
gggg ggghhh
cdd bbb
c eefff
bb cd
ge gdf
gfff gff
effff ffffffff
gbfcedd ecfb
cbb aaaab
eddd edd
gd gdf
ee ccb
gef df
ce gg
ec aab
eeeffff fff
gd ff
eef efef
ccbb aab
d cf
gggggggg ggff
cdcd cdd
cccc cccbbbb
ghhhhhhhhhhhhhhhh h
e cbbbb
dfdf d
Ġ bbbb
ge gff
ghh ghh
ggg eef
e cef
eeee de
gfff ggf
efff eed
fa gaga
cc aaab
ged ef
ccb aa
gggffff fff
cc eb
ghhhhhh gf
a bbbbbbbbbb
eeedd f
ghhh ge
e hf
gggf eef
effff ffffff
ghhh ff
edd cccd
Ġ hhhhhhhhhhhhhhhhhhhhhhhhhhhhhhhhhhhhhhhhhhhhhhhhhhhhhhhhhhhhhhhh
ceed b
eed edf
aaaaaaaa aaabbb
gg b
ca bbbb
cbb cbbb
ef eeef
dddd f
gghhhhhhhh hhhhhhh
ccc ff
h egf
ggghhhhhhhh hhhh
ccbbb d
ghhhhhhhhhhhhhhhh hhhhh
gggff ed
c aaaaaab
ffff fffff
cf ggf
eeee efef
ggh ghh
dfdf df
dd edd
eefff ed
eeee fd
aaab aab
cbd ff
cccb cd
cddd cdd
c eeddd
aa ce
gg hhhhhhhhhhhhhhhhhhhhhhhhhhhhhhhh
cccc ccdddd
gghh gff
aaaaaaaaaaaa a
eed eeed
eff gfff
df hh
cb aaaaaab
ccd fff
eddd cd
ef eedd
eeee eded
cb e
eef df
gfgf gff
cccc cdcd
cf ed
aaaab ab
d cbbb
dcb ab
effff ed
gggf gggf
ccc eed
aaaaaaaaaaaaaaaaaaaaaaaaaaaaaaaa aaaaaaaaaaaaaaaaaaaaaaaaaaaa
ccb db
ggf eed
gffff gf
eddd eff
h aha
abbb abb
gggggggg hh
ggh gggh
aaaaaaaaaaaaaaaa ab
gggg ffffff
edf b
ceb eb
efff eef
c gh
gahah aha
eeef eff
ccb aabb
cccdd ed
cc eedd
ggfff gf
ghhhhhhhhhhhhhhhh hhhhhh
cc efd
eeed edd
Ġ ab
eddd eed
ghh ged
aaaaa bbbbbb
cdb cb
g ddf
cbbbb d
ef hh
cbcb db
ceb fb
ef gg
gggff gf
cdcd f
cccd eff
fa ga
ghh gg
ccb cccb
cd ecb
gfff d
cccd eed
ccdd ff
ded bb
ggg eff
abbbbbbbb bbb
eeee ffffff
cb cccbb
cc fd
aaaaaaa bbbbb
cccc bbbbbbb
abab aba
g eddf
da eaea
cccbbbb bbbbb
eddd eef
eddd e
effff gf
cfcf cf
ccd bbb
ghh gghh
cbbbb bbbbbbbbbbbbbbbb
bbbbbbbb bbbbbb
cbbb dd
gggf ee
ec ff
c h
cd cccb
e gege
ghhh ghhh
gf db
ghhhhhhhhhhhhhhhh hhhhhhh
cd ccbbb
ccbb cdd
aaaaaaaa abbbb
b aab
cccc cccddd
df h
ef de
eeef ggf
cc aa
ceb db
Ġ hhhhhhhhhhhhhhhh
a ce
ggff eff
aaaaaaaaaaaa bbb
ghh gfff
b f
cc eeff
eeef eed
cc bbbbbbbbbbbbbbbb
gge bb
aaaaaaaaaaaaaaaaaaaaaaaaaaaaaaaaaaaaaaaaaaaaaaaaaaaaaaaaaaaaaaaa aaaaaaaaaaaaaaaa
gggg gfd
edd cddd
cb cccccccc
ce cdcd
gggg ge
cf hhh
a caca
ccd eeed
cb ccccb
ccccd ef
hahah ahb
cccc ccbbbb
cedd ecfb
cb ced
ghgh ghf
eeee eeffff
dd fff
ccbbbbbbbb bbb
g bb
hfhf h
ghh ggh
a db
eedd ff
cd cdddd
cbb cef
ghh gfd
ec ee
eeddd ed
gggggggggggggggg gggggggg
eeee eedddd
aaaab d
hh ff
ggff e
effff ef
gghhh ggf
ea fafa
cdddddd ddd
gggf edd
efff e
edf gf
eeeff ed
g ced
cdd cbbb
gghhhh gf
gc gdf
cbb cccb
ecd ff
ccd cddd
efff edd
cccc cbcb
eefff ef
cbbbb abb
ghh ghhh
gggg ghhhhhh
ge cd
cff d
ccd eedd
ccdd bb
g cb
ggh ggggf
gg dbb
cdf ggf
aaaaaaaaaaaa aaabb
gggg ghgggg
cc dddddddd
edddd ed
gh ghhhhh
ab abbbb
ghhhh gff
cb ccbbb
eeee eeeffff
c eedf
cdef ed
gg hhhhhhhhhhhhhhhhhhhhhhhhhhhhhhhhhhhhhhhhhhhhhhhhhhhhhhhhhhhhhhhh
ddd bb
abbb aab
cbb aaabb
eeed eef
fd bb
cdddd f
hh ggf
cd cccdd
ce bb
eeeff gf
cbbb ccb
cccb aab
ccd ccbb
cb aaaabb
cd edb
eedd eff
cd eeee
eedd cdd
cb ccccd
aaaaaaaaaaaaaaaa aaaaaab
cd bbbb
hehe he
ccc eef
ggh gggggggg
gggg ed
ccdd edd
cd eeef
hc gd
eeff ggf
gggff d
ccd cdcd
de bb
ecd ef
cccc cccbbb
gggf eff
eed eded
ced ff
ggggh ggf
gh ggfff
aaaaaaaaaaaaaaaa aaab
aaaaaaaaaaaa aa
cd cccccccc
aaaaaaaaaaaaaaaa aaaaaaab
cbb cddd
gef e
gd e
efff gff
gg eee
ce a
cbb abbbb
hhhhhhhh hhhhhhh
eeee efffff
cb abbbb
ggg edd
ccb cbbbb
c aaaaa
cf cfb
efff ggf
cc fff
ghhhhhhhhhhhhhhhhhhhhhhhhhhhhhhhh hhhhhhhhhhhhhhhhhhhhhhhh
eeff eef
dd cbbb
h ghhh
gffff ffffffff
c ffff
ccb aaaab
aab f
cb dbdb
eeee eee
ggggggf gf
cccc f
ccb cccd
g eedf
aab abb
Ġ hhhh
edd eeed
gffff ef
cbb ccdd
hahah a
cb ccddd
edededed edededed
hhh ff
cbb aa
cddd bb
ef db
gb hb
ccb ccbb
cbb de
ccc edd
ccd efff
cdd cccd
ddd e
aabbb ab
ggggh gf
c ge
ggff gff
cece cece
cd cf
d ab
cdddd ed
hhh ggf
cccc db
Ġ aaaaaaaaaaaaaaaaaaaaaaaaaaaaaaaa
gggg ggfffff
gggf dd
eeff edd
cc edf
gghhhh f
ggghh f
ccd cbbb
ee dddddddd
hhhhh gf
cc aaa
de ggf
df ee
gggg ghhhhhhh
eeed ff
gg eeef
cccccccc dd
cbb c
gg ec
ced edd
gg eeff
gd gc
gffff ffffff
cedd b
eed eeff
ed cbbb
g eeeff
g ddb
gf ge
cb cbbbbbb
eded edd
cbb cccd
Ġ e
ecb aab
db abb
ccddd b
ghh gggh
aaaaaaaaaaaaaaaa aaaaab
efff ee
cbb cccc
ccdd eef
dff d
ccdd e
cccbb ab
gh gggff
he hd
ccc ab
cd efd
cef e
gggg ghgh
eeee eeefff
g ceb
gee b
efff dd
eed fd
df dd
aaaaaaaa aabbbb
ffffffffffffffff ffffffffffffffff
bbbbbbbbbbbbbbbbbbbbbbbbbbbbbbbb bbbbbbbbbbbbbbbbbbbbbbbbbbbbbbbb
cd ccccd
gff edd
eefff d
eeddd ef
ea da
aaaaaaaaaaaaaaaaaaaaaaaaaaaaaaaaaaaaaaaaaaaaaaaaaaaaaaaaaaaaaaaaaaaaaaaaaaaaaaaaaaaaaaaaaaaaaaaaaaaaaaaaaaaaaaaaaaaaaaaaaaaaaaaa aaaaaaaaaaaaaaaaaaaaaaaaaaaaaaaaaaaaaaaaaaaaaaaaaaaaaaaaaaaaaaaa
cd ffff
eed cbbb
cf dd
cbbbb bbbbbbbbb
ccddd f
ged e
c eeeed
aaa cf
eed cccd
cccc ef
ggghhhhhhhh hhhhhh
gg de
gcfdeedf cgb
eef ggff
cedd f
aaabb ab
cab d
ced fd
gg df
cccc cddddd
gggggggg gfff
eeed e
ec edd
ghh ggggf
ghhhhh ggf
efef eff
eeee eeeddd
eedd e
hahahahah ahb
g hhhhhhhhhhhhhhhhhhhhhhhhhhhhhhhhhhhhhhhhhhhhhhhhhhhhhhhhhhhhhhhhhhhhhhhhhhhhhhhhhhhhhhhhhhhhhhhhhhhhhhhhhhhhhhhhhhhhhhhhhhhhhhhh
eeff eff
eed eddd
ccbbb ab
gbgb gcf
eb dd
gggg gghhhhh
cccc cbbbbbb
edf e
bbb ab
cc efe
eef eeef
gdgd gd
efgf ed
aaaaaaaaaaaaaaaa bb
ddb ab
hhh gff
cb cccdd
bbbbbbbb bbbbbbb
edddd ef
eeedd ddddd
eeee ffffffff
cdb aab
ggh ggh
ggghhhhhhhh hhhhh
gh gee
ccbb ccd
gh ggghh
eeffff fffff
eef efff
aaaa bbbbbbb
abb abb
cdd eeed
ccdd eff
gggggf ed
cf ge
Ġ ffff
gg ede
aaaa d
cc efed
gef eff
g cef
ee c
ceff d
gggf gfgf
aaab a
gggg hf
ccbb a
gggggggg ffff
eeef e
eeee eddddd
ghhh gd
ccdd ccd
eed bbb
cd effff
cddd ccd
ced e
aa f
ce hh
cb aaaaaaab
gh d
gahah b
gh gghhh
c gcgc
ca c
ghhhhhhh gf
cbbbb aab
aaabb aab
df de
h ggff
efd ff
ggf gfgf
ee eb
ggh ge
eeedd ef
eeff e
gahah ahb
cbb cdf
dbdb d
bbbb ab
cccdd b
ded ff
gff gggf
gh ggg
bb f
db cd
gggg ef
cbab d
cbcb cbb
gd ed
gege gf
ahahahah ahahahah
cbbb aaab
ee gggf
cccc c
eee cd
cf a
ce cfb
aaaaaaaa bbbbb
edd fff
eef eedd
ghh gef
cbbbbb ab
cded bb
eeeef ed
cc edb
aaaaaa bbbbbb
gdf b
gghhhhhhhhhhhhhhhh hh
cbb f
ggggf gff
gc hb
cc ecd
cccd cccd
gggggggg gggh
gd ef
cbb aaaaab
cc eddd
Ġ dddd
h df
cccdd ddddd
eb aaab
aa bbbbbbbbb
gggg e
eeed eff
cf de
cbbbb cd
Ġ aab
gggggggg hhh
eefff gf
cdd ccdd
ccb abbb
egf ed
gh ghhhhhh
cdd eddd
ga fb
fbfb fb
dd fd
gh fff
ghh fe
cbd ef
ee cbbb
gggg ghhhhhhhh
gggggggg gggff
ggff eef
gfff e
aaaaaaaaaaaaaaaa aaaaaaaab
ged bb
hf d
hhhhhh f
ee cccd
cb cee
dbb d
ccbbbbbbbb bbbb
cbbb ccbb
ebeb eb
cccdd ef
hc gdf
ghhhhhhh f
eedd eed
ca cb
gh ggggh
ccdd cd
Ġ a
aaaaaaaaaaaa aaa
cbb aaa
eeff eed
cdd fff
ccb ce
gege ge
c aaaabb
b aa
ccf gf
edf dfdf
cb ded
c aaaaaaab
ccb cbd
ghhh ggff
hhh ge
edd efff
hh fd
cef ggf
eeee dddddd
cccbbbb bbbbbb
cbb ccbbb
gggff ggf
eeeffff ffff
eff ggff
eeedd ed
aaaaaaaaaaaaaaaaaaaaaaaa aaab
ef effff
ghh gghhh
cb cde
gh gggggf
fb gb
gggg ggghhhh
ghhh g
gggh gff
cd ccccb
ce cedd
aabb aaab
ghhh gggf
eedf cgb
cddd e
ddf gf
cccccccc bb
ggghhh gf
gggg gffffff
cbb cc
gggggggg ggh
gfed ef
cb aaabbb
aba bbbbbb
gg egf
eeed bb
ccd ccdd
gf gef
aabb d
eed fff
gggggggg ggggggf
cbd bb
h ghh
ghhh fd
c eeeef
aab a
ccd cccc
abababab ab
eee ggf
ghhhhhhhhhhhhhhhhhhhhhhhh hhh
cb cded
eff eeef
dcd ff
gggg ged
cccd ccb
ccd cdb
ca db
ed ccb
hd hchc
cbbb a
cccd bb
c ghh
ghgf ef
gggggggg gggggf
ghhhh ge
cdf e
db cf
c g
cd eeedd
c gg
cccd edd
eed ccb
eed ccdd
hdhd he
effff d
cccd ee
edb d
cbb ddd
ceb d
eedd eef
aab aaab
ge hf
Ġ df
edf ed
Ġ fd
eddd cdd
ccbb aaab
Ġ ggf
Ġ bbbbb
cdcdd dddd
gfd bbb
g eefff
eddd ee
cccb cdd
eeeeeeee ff
ggggf e
c aabbb
abbbbbbbb bbbb
gh fb
ecd ed
ggff gggf
aabb abb
gh gge
eeed cd
db aaaab
Ġ aaaaaaaaaaaaaaaaaaaaaaaaaaaaaaaaaaaaaaaaaaaaaaaaaaaaaaaaaaaaaaaa
aa df
ged ff
cc ecb
gghhhh hf
gahahahah aha
cbbbb bbbbbbbbbb
gh gdb
cd eb
cccb cbb
ccd eeff
ccb aaa
bb df
dddd b
ggggff ef
efff efff
effff fffffff
ggfff ed
ggff ee
ded edd
aaaaaaaaaaaa aabbb
ce ge
gf ggh
fbfb f
ggfff ef
edb aab
eeef gff
ghf h
gghhh gff
Ġ hhhhh
eeeed ef
gggf gfff
eb e
gf hf
cf gg
cbbb df
dc aab
edf de
ccddd ed
eff eeff
ccdd cbb
dbb ab
ff b
gggghhhhhhhh hh
cb aaaaa
cb cff
aaaaaaaaaaaa abbb
cdddd b
ccb cddd
ggghhh f
cdd eeff
edd eedd
def ed
cccc bbbbbbbb
eeeeeeee ed
aaaaaaa bbbbbb
ghhhhhhhhhhhhhhhhhhhhhhhh hhhhh
cccd ccd
edde cfb
eb ea
ddd eff
ggg ecb
edd dddddddd
gh ghhhhhhhh
ef ge
gfd ff
ghh gfe
cccc ccbbbbb
eeef eef
ccdd cdd
h gggf
fff e
c gcf
c eeeff
ced ee
cccc dddddd
gc ab
gggff eff
e hhhh
ggg eed
ggh gghh
aaaaab d
db aaa
c ggf
c hh
eeef efef
ccd eee
cbbb cbbbb
ghhh gghh
ccdd eed
egf gff
gghhhhhhhhhhhhhhhh hhhh
cb ef
gggg gef
aaaab aaab
bbbb d
cdef gf
geb ab
gfff gggf
gghhhhh gf
fa gagaga
eeee fffffff
gg eddd
ccb aaabb
hd gd
cc efgf
ggff eed
ccccd cd
eeeff ef
gg hhhhhhhhhhhhhhhhhhhhhhhhhhhhhhhhhhhhhhhh
aaabbb ab
cccd eef
bbb cd
ecd e
cb cdb
cf ee
cdd ccbb
bb aab
cccb abb
cc ca
ccd eddd
aaaa abbbbbbb
edd db
cfcf d
abbbb ab
gggg ffffffff
hc hbhb
ded ef
aaaaaaaa aaabbbb
gh ggggff
ccd fd
bbbbbbbbbbbbbbbb b
ec aa
ed fff
aaaaaab ab
cdd eedd
cb aaaaabb
gggggggg ggfff
ghhhhh gff
eeff gggf
ccbbbb ab
gggghhhhhhhh h
edd ccbb
gg efff
eeed eed
ghhh ghh
ggggggg fffff
Ġ hhhhhhhhhhhhhhhhhhhhhhhh
df gff
cccb cbbb
g eded
cddd ff
ce ghh
ga gb
abb cbb
gggg ggghgh
ced ef
ccccb d
gfd cd
ggff dd
gggggggg ggggh
cccccccc ccd
ggh ghhhh
dbdb dbdb
e ab
ggggf ggf
cccc ed
ccbbb cd
edd cb
gggg gghhhhhh
ggg hhhhhhhhhhhhhhhhhhhhhhhhhhhhhhhh
ce gff
ge gdgd
ggggf gfgf
df eff
gfff eff
ce cbb
e ghhhh
eeff dd
eeef ee
cccccccc ddd
efd ef
ce ccb
gef gf
edd ccdd
abbbbbbbb bbbbb
efef e
cdff d
ce h
df ge
eeff ee
eeeeeeee dd
ccbb dd
gg edb
gggf eed
gbf cf
aba caca
eeed ccd
ggffff fffff
cccbb d
ce fffff
cbd cd
cef ef
cccc cdef
g eeeef
df hhh
eb cb
ceff ed
ggh gfff
dada da
gggggggg ggggff
ggghh ggf
eeeff d
cbb cbbbb
gff efff
edd bbb
ddd ee
ec aaab
ecd cdd
ccbb abbb
dfdf dfdf
cbcb cbbbb
ghf gf
ghhhhhh ggf
ggh ggfff
edf ggf
cfb f
dcb aab
gh gffff
db dd
gggg fffffff
cbcd ff
ggghhhhhhhh hhhhhhh
ddd cd
ec eff
cbb abab
aaa cd
gg edef
ggg dd
abb aaab
Ġ hhhhhh
eeee edddddd
eeed eeed
aaabb aaab
gggfff gf
edd cdcd
cce ggf
aaaaaaaaaaaaaaaa aabb
cbbbbb d
aaaaaaaa abbbbb
cbb aabbb
h ef
cc eeee
ce cb
cccd cdcd
eff gfgf
db df
aaaaaaaaaaaaaaaaaaaaaaaa ab
ceb f
gggggf ef
ce gggf
e ghf
cbcb cbbb
hf b
gc gbgb
gffff fffffff
hfhf hf
eeee effffff
ghhhh ff
gggg ghgf
gghhhh ggf
eedd ccd
ghhhhhhhhhhhhhhhhhhhhhhhh h
edd eeff
g eeddd
ed edf
ga f
edd cccc
ccbb ccb
ecb a
edd edf
ghhhhhhhhhhhhhhhhhhhhhhhh hhhhhhh
gghhhhhhhhhhhhhhhh h
ccdf gf
cbbb cccb
hhh gd
gfff gfff
ggg hhhhhhhhhhhhhhhhhhhhhhhhhhhhhhhhhhhhhhhhhhhhhhhhhhhhhhhhhhhhhhhh
ghgh ggf
aaaab aab
eeeef gf
ggggf eef
fff dd
cbb ced
ccbbb ccd
cb cccbbb
efef df
eeedd b
cbbbb cdd
efgf ef
gggg ghggf
cd egf
cbbb ccdd
ff dd
eded b
gghhhhhhhhhhhhhhhh hhh
eddd eddd
ghhh gfd
ghhh ghhhh
ec eef
gggff e
gffff ed
aaaaaaaaaaaaaaaa abb
cccbb abb
cddd eff
cccc cdf
ccb df
aaaab abb
ce gh
ee gd
gcf cf
cab aab
gcf deed
gggg hhhhhhhhhhhhhhhhhhhhhhhh
cd gf
ccbb ccbb
cbbb abbb
aaa bbbbbbbbb
cdb a
eeef edd
eeed cdd
ge cbb
eedd edd
aaaaaaaaaaaaaaaaaaaaaaaaaaaa aaab
d gf
cbbbb ccd
ccdd ee
ded e
cddd cddd
gef de
aab dd
cccc e
egf h
ddd eef
eddd ccd
ccddd ef
ebeb db
ggh gfd
ccb aaaaab
ggfff ggf
gege gege
ggggf gggf
ggff edd
bb cf
eeef dd
cef dd
de cbb
cd a
bbb dd
ff gff
Ġ hhhhhhhh
ecb abb
eedd ee
cdb cbcb
hhhhhh gf
g edddd
f ef
ghhh gfff
c aaaaaa
cccc cbbbbbbb
ccccd cdd
h gfd
cgbgb gbgb
eed efff
c ababab
cc aaaab
de cb
ccb cdf
da d
cc ede
eff efff
ghhhhhhhhhhhhhhhhhhhhhhhh hh
eee gff
hhh fd
cccccccc cdd
ga fa
cccc cded
cccc cdddddd
c aaaaaaaab
ccbbb abb
gh ggghhh
cef gff
cf gd
cc eeef
cd eeddd
aaaaaaaaaaaaaaaaaaaaaaaa aab
Ġ gff
ed cccd
ccc eee
cddd eef
aaabb d
eeed eded
ghhh ged
ed eddd
ghghghgh ghgh
bb dd
effff fd
cbcbcbcb cbcbcbcb
eeeeeeee ef
effff gff
cf cgb
cb aabbbb
cdddd ef
c hb
ccccb ab
he h
ghh ghf
ghh ghhhh
fb eb
cbb aaaaaab
abab abbb
gghhhh hgh
ggff ggff
aaaaaaaaaaaa bbbb
cb cdef
dee b
ffff gf
gghhhhhhhhhhhhhhhh hhhhh
ce gfd
hfh ghgh
gggg gghhhhhhh
cddd edd
Ġ de
eed eedd
ff ggf
cdf ef
gggg ggghhhhh
gggggggg gffff
cc eded
edddd b
c aaabbb
ccbbbbbbbb bbbbb
e gge
ghhhhhhhh f
g cc
cb aaaaaaaab
eef gfff
cbb cccbb
ced eded
cccccccc bbb
ggfff gff
efff gggf
gggh ggff
gc hchc
hahahahah a
edf eff
eee cdd
abbb aaab
ffffffff fff
efffff gf
gggggggggggggggg gggggggggggg
aabbb aab
gggg d
Ġ cd
hdhd hd
cdf b
ccccd ff
e ghgf
cbbb cccd
ee ghh
cbcb ccd
cbb dff
df db
he hf
eedf df
ed eeed
cccb db
cbbb aabb
cddd cccd
eeee eefffff
cccb aaab
ee ce
aaaa bbbbbbbb
ghhhhhhhh gf
aaaaaaaaaaaaaaaa aaaabb
eff eddd
aaa ce
gh geef
ccbb cbb
dd cccd
effff ggf
ccce fff
eed fb
gggggggggggggggggggggggggggggggg gggggggggggggggggggggggggggggggg
cd cbab
hhhhhhhhhhhhhhhh hh
ccb ddd
gggff gff
efed ef
ghhh gghhh
cbbbbb abb
ffff d
ecdd ceb
eee ccd
cccccccc cccd
ghhh ggh
ca bbbbb
ceef d
f hhh
g dde
ea db
h ged
cddd eed
cddd cbb
Ġ eff
aa bbbbbbbbbb
cedd ddd
caa d
ccb cccbb
ghhh gg
gggh gggf
cccb cccb
ffff ef
ddb d
cb cab
Ġ aaab
eeef gggf
e ccf
dd ccbb
dddd ef
aaaab a
eed ede
ed eeff
cdd fd
gcf df
abb a
gd gf
cddb ab
egf ef
db aabb
ccc aab
ecb cd
cbbb ce
cdcdd f
ccb ccccd
ccdd cccd
cccbbbb bbbbbbb
hfhf hgh
eddd eeed
cde ggf
ee cc
cdf gff
ggghh gff
cdd cbbbb
c gdf
gahahahah a
eff eedd
gghhhhhhhhhhhhhhhh hhhhhh
cbcb cbd
ccd ccbbb
cb cdddd
abbb a
eeef efff
gggg gghhhhhhhh
hh d
db ce
eef eeff
eee cbb
de cf
ggf gfff
dbb a
gh gdd
eb aaa
dddddddddddddddddddddddddddddddd dddddddddddddddddddddddddddddddd
df gg
ggh ghhhhh
cef ee
gggh gggh
efffff ef
ccc eeed
ce cedf
c aaaaabb
ede ggf
edd cbbb
gghh gggf
ecb aaab
cc eeedd
aaaaaaaa aabbbbb
gc hbhb
Ġ ee
ced bbb
cf hhhh
cbb aaaabb
Ġ aaaaaaaaaaaaaaaa
edf dd
dcb a
gggggf gff
ggh gggff
dddddddd ddddd
gh gfgf
ggh ghgggg
ghhh gggg
gd bbb
eedd bb
gghh ge
Ġ hhhhhhh
gggghhhhhhhh hhh
ggggf eff
ed ccdd
cbb ded
abbb abbb
gffff d
h cf
edd eddd
bbbbbbbbbbbbbbbb bb
gahahahah ahb
cccccccccccccccc cccccccc
ccb cbbbbb
cccc cef
cdb aa
gff ge
gggghh gf
aaaaaaaaaaaaaaaaaaaaaaaaaaaa ab
cd eeeed
e cfd
eeed ee
eed ccbb
gb a
e cce
gd gcgc
gghh ggff
cdb dbdb
ccb cef
eeff gfff
eeef eeef
ee bbb
df ded
eeb ab
aaaaaaaab ab
eedd cccd
aab df
eef efd
ghhh gggh
cccb dd
ccbbb cdd
eefff eff
aaaaaaaaaaaaaaaaaaaaaaaaaaaaaaaa aaaaaaaaaaaa
efe bb
hd hc
ccdd cb
gfgf gfgfgf
hahah aha
aaaaaaaaaaaaaaaaaaaaaaaaaaaaaaaaaaaaaaaaaaaaaaaaaaaaaaaaaaaaaaaa aaaaaaaaaaaaaaaaaaaaaaaaaaaaaaaaaaaaaaaaaaaaaaaa
geff d
cd cbbbbb
efef ed
h gef
db c
ggfff d
ccccb ccd
aaaaaaab ab
hh gef
cccc cccdddd
ggggff ed
abab aca
cdcd ef
ce cfd
ecbb d
hh fe
ceb ebeb
gh ghhhhhhh
abababab abab
ghhhhhhhh hgf
eed cddd
cccb ccdd
eef eeed
ce cddd
gfgf gfff
aaaaab abb
fbf cf
cccc ddf
cbb cbcb
geef d
cccc ccc
ggghgh f
eeee edf
eeee eeded
ghh ggghh
hhhh ggf
aaaaaaaaaaaaaaaaaaaaaaaa aaaab
gh ggggggf
ccbb cb
aaaaa d
eded ef
cc edcb
edd cccdd
cd cccbb
ee gg
efff eedd
cf gfd
gfgf ggf
cc aabb
cbbb ccbbb
eded ff
cbbb cddd
efff eeff
gghhhhhhhhhhhhhhhh hhhhhhh
e ggggf
Ġ abb
cccc cccbcb
ced fe
ffff ed
eee cb
h gfe
geff gf
ee ge
cbbbb cb
ccbb aabb
cdd cddd
ceed bb
cee gf
eff ggggf
eddf gf
aa e
eeee eefef
ghh fff
eddd eeff
ebb d
cccc bbbbbbbbb
eb abb
hahb hb
cee dddd
ccdb d
aaaaaaaaaaaaaaaa aaaa
cccd cbb
ccb ccbbb
dff ed
cf gff
cbbb cbcb
cef db
eeee efed
cdb eb
ggf eeff
eff gggff
efff eeef
Ġ bbbbbb
cccc ce
cbbbb aaab
ghh gfef
eded e
ggh gggggf
gfffff ef
eeeff gff
eeef df
abab aaab
ghhh ghgh
eff ddd
gef dd
eedddd ddddd
ggggff gf
g ca
gfff eef
gghh ff
gdb ab
ee cf
ccb ccddd
ccd cccdd
gg eedd
cb ed
cab abbb
fa eb
cd ccddd
cd eefff
ggf de
ef hhh
ccb aabbb
ggh ggggh
gggg ghf
cc effff
cbb abbbbb
edddddd ddddd
gggffff fffff
cdcb aab
ghh gee
dd c
edf efef
aaaaaaaa bbbbbb
Ġ hhhhhhhhhhhhhhhhhhhhhhhhhhhhhhhh
dc aa
cd edddd
cdff ed
fff ee
dd bbbb
ce hhh
ghh gfed
gggff gggf
aaaaaaaaaaaaaaaa aaabb
cbbb cef
ghhhhhhhhhhhhhhhhhhhhhhhh hhhh
ef eeed
ccdb db
eeedd dddddd
bbbbbbbbbbbbbbbb bbb
g edde
dd efff
df gggf
cccb a
eeddd ff
efe ge
cb cce
eed eeef
ce ggg
efffff ed
gggggggg gggfff
cccd cddd
cdd efff
cfd eedf
ggggf ee
cb eb
gggg ggffffff
gh gedd
eef effff
caab d
gghhhhhh gf
gh gghhhh
gggggggg hhhh
ce cfcf
ggh ghggf
aaaaaaaaaaaa aaabbb
hhhhhhhhhhhhhhhh hhhh
eeeef eff
ced eed
cbbb cdf
ggghhh ggf
h gggh
gggg ghhhhhhhhh
ddb aab
edb a
gggghhhhhhhh hhhh
cb cbbbbbbb
cdd eee
ddd eed
gh geb
Ġ eef
cd ccbbbb
Ġ fe
ef ded
ee ccbb
ecd bb
Ġ ded
ccb cf
eb cf
gggggggg fffff
cee bb
dff gf
fff eff
cccc cbcd
cccc ccbbbbbb
dde cfb
ggf db
ccccdd ed
e ged
ggh gd
ccbbb aab
cbcb ab
ca da
ege gf
ggh ggghh
e cccdd
hh ged
d bbbb
e hhf
ccb de
cccc ccddddd
ggggf edd
cdd dddddddd
aaaaaaaaaaaaaaaaaaaaaaaaaaaaaaaaaaaaaaaaaaaaaaaaaaaaaaaaaaaaaaaaaaaaaaaaaaaaaaaaaaaaaaaaaaaaaaaaaaaaaaaaaaaaaaaaaaaaaaaaaaaaaaaa aaaaaaaaaaaaaaaaaaaaaaaaaaaaaaaaaaaaaaaaaaaaaaaaaaaaaaaaaaaaaaaaaaaaaaaaaaaaaaaaaaaaaaaaaaaaaaaaaaaaaaaaaaaaaaaaaaaaaaaaaaaaaaaa
h gge
gggg gfffffff
aabb aabb
ccb c
ghh gggff
cb ccbbbb
h gb
Ġ db
geff egd
ccdf ed
ggf ge
eee bb
gggggggg gghh
aaaaaab d
effff eff
cbbbbbb ab
eeeed edd
ccccd eff
eeeedddd ddd
gc hbhbhb
h ghhhh
f ed
h gggg
fff ggf
ccd eeef
eeee eeedddd
gd ee
cb ceff
gg eddf
cfc gbgb
hahahahah b
ccb cccdd
eeeffff fffff
aaaa c
ef gfff
bbb df
e cccb
e ccbbb
aabbb abb
cbbab abb
eed edddd
ge c
ghhhhhh gff
gffff gff
ccdd eeff
cd ecd
ccdddd ddddd
ccd cbbbb
eded eef
eeffff ed
aaaaa bbbbbbbb
eddd eedd
de ced
cccccccc dddd
ecb df
aaaabb ab
ggg edf
cb aaaaaabb
cdcd cddd
eeffff gf
aaab aaaab
ggg eee
edd eeef
eeee eeddddd
ghgf ed
efef gf
g dddd
abbb d
cff ed
Ġ fffff
dd ce
eddd fff
gg dcb
ggf df
gcef b
aaaa aabbbbbbb
ca dada
efe gfgf
eeeed eef
gbf ced
cb dddd
gh ghhhhhhhhhh
gggf ggff
cd cddddd
gfff ggff
ggf ddd
gggff eef
abbbb abb
edd fd
eb aaaab
gghh gghh
aaaaab aab
ga gaha
a cab
edf ded
ghh ggfff
aaaaaaaaaaaaaaaa aaaaabb
ccb cccccccc
gggff eed
cb ddf
eff eeed
gggggggg gggggff
edededed ed
cb abbbbb
cdf hh
ee ggff
ccccb cbcb
cd cef
hhhhhhh f
Ġhhhhhhhhhhhhhhhhhhhhhhhhhhhhhhhhhhhhhhhhhhhhhhhhhhhhhhhhhhhhhhhhhhhhhhhhhhhhhhhhhhhhhhhhhhhhhhhhhhhhhhhhhhhhhhhhhhhhhhhhhhhhhhhh hhhhhhhhhhhhhhhhhhhhhhhhhhhhhhhhhhhhhhhhhhhhhhhhhhhhhhhhhhhhhhhhhhhhhhhhhhhhhhhhhhhhhhhhhhhhhhhhhhhhhhhhhhhhhhhhhhhhhhhhhhhhhhhhhhhhhhhhhhhhhhhhhhhhhhhhhhhhhhhhhhhhhhhhhhhhhhhhhhhhhhhhhhhhhhhh
ef ddd
aaaaaaaaaaaaaaaa bbb
ccdd eeed
gff ggff
cdcd cdcdd
gff df
cb dbd
cbb db
cb aaaaaa
ghhh ggggf
cf hf
gd eb
f hf
ggg eeef
Ġ cdd
dd edf
de cdb
fff eef
ccbb cbbb
ccdd bbb
gg efd
ggghhhh gf
ggggggg hhhhhh
cccc ccbcb
eeee ddf
cd edf
cbbbb bbbbbbbbbbb
gg hhhhhhhhhhhhhhhhhhhhhhhhhhhhhhhhhhhhhhhhhhhhhhhh
ggggff d
gg ddf
gghhhh gff
ef egf
cccccccc ccccd
eefff eed
ccccdddd ddd
gggggggg ggffff
ghhhh fd
cddd bbb
cde bb
ccbbbbbbbb bbbbbb
gggg gge
ce ccd
ggf eeef
eddd cccd
aaaaaaaaaab ab
eeeeeeee ddd
ge bbb
cccdd dddddd
gg dcd
e bbbb
cc aaabb
eedb ab
ghhhh ggff
de cdd
ec aaa
eddddd f
dd eee
he hdhd
aaaaaaa bbbbbbb
eddd bb
Ġ ccd
gcf dee
e gggff
ggh gghhh
eeff eeff
ec eed
ced eef
eeed cbb
gh ggffff
gggg ee
cccdd ff
ggh g
cdf gggf
eeee gf
eeeeeeee fff
gfffff gf
gggggggg ghh
ea eb
ccd cccb
edf dfd
cbbb aaaab
eddd efff
eefff eef
edd eee
ghhhh gggf
aaa bbbbbbbbbb
cf dfd
ddd bbb
g cdb
cddd ee
ghhh gfe
gef b
cd cbcd
ccb abbbb
ccdd ccdd
df gfd
ghhhh gd
cbd ee
gggggggggggggggg f
ef ecb
ccc eedd
cccccccccccccccccccccccccccccccc cccccccccccccccccccccccccccccccc
ccb ccccb
eb c
cb cdcd
ggf b
eeef eedd
ce gd
ccbb aaaab
ef eeff
ff ee
e ccdf
Ġ eed
Ġ edd
ge fffff
ggggf dd
cdddd cd
dcd bb
eddddd ed
eeeef efef
gggg ghhhhhhhhhh
cf ded
cbbbbb aab
hhhhhhhhhhhhhhhh hhh
ccb aaaaaab
cde cbb
gfff ee
ccc abb
ccbbbb d
eb cd
gb fbf
cedd ecf
gghhhhh ggf
ggh gfe
gc edd
a cbb
aaabb abb
eeee db
cef edd
bbbbb ab
gghhh ggff
eed cbbbb
a df
abab ababb
cccbbbb bbbbbbbb
ebd ccdb
gdb d
cdf ge
dd cc
a cbd
gef egf
cb ccdddd
g eeedd
eeee edef
cf dfdf
cdd eded
h fff
eeddd eef
edb aaab
gb d
ge ggf
Ġaaaaaaaaaaaaaaaaaaaaaaaaaaaaaaaaaaaaaaaaaaaaaaaaaaaaaaaaaaaaaaaaaaaaaaaaaaaaaaaaaaaaaaaaaaaaaaaaaaaaaaaaaaaaaaaaaaaaaaaaaaaaaaaa aaaaaaaaaaaaaaaaaaaaaaaaaaaaaaaaaaaaaaaaaaaaaaaaaaaaaaaaaaaaaaaaaaaaaaaaaaaaaaaaaaaaaaaaaaaaaaaaaaaaaaaaaaaaaaaaaaaaaaaaaaaaaaaaaaaaaaaaaaaaaaaaaaaaaaaaaaaaaaaaaaaaaaaaaaaaaaaaaaaaaaaaaaaaaaaa
ghhh fe
de c
eefff gff
ccd cc
aaaaab aaab
ced ecd
de ce
cece ce
g eeeed
eed eeedd
dddd ed
db ccb
cbbb cccbb
gfed ff
abbbbbbbb bbbbbb
gggg gd
cdb cbd
ccbb cccb
gghhh ff
dd ccdd
he gd
aaaa cf
eeff ggff
efe gff
cff gf
h ah
gfgff ef
aaaaaaaaaaaaaaaa aaaaaabb
cb ceed
hhhhhhhhhhhhhhhh hhhhh
cbbbb abbb
ghhhh ghhh
aaabbb aab
ghhhhhhhh hf
cdcdd ed
ggf ggff
cdf ee
Ġ dcd
ggh fd
cbbb ddd
ghhhhhhhhhhhhhhhhhhhhhhhh hhhhhh
e ca
eeed eddd
h gfff
hhhhhhhhhhhhhhhh hhhhhh
cddd ccb
hhhhhhh gf
eedddd f
hchc hd
eff gffff
edf ee
ggh ggggff
ggggh ghgh
c eeffff
cdf dd
dcb abb
cccbbb d
ghggf gf
eeee ede
Ġhhhhhhhhhhhhhhhhhhhhhhhhhhhhhhhhhhhhhhhhhhhhhhhhhhhhhhhhhhhhhhhhhhhhhhhhhhhhhhhhhhhhhhhhhhhhhhhhhhhhhhhhhhhhhhhhhhhhhhhhhhhhhhhhhhhhhhhhhhhhhhhhhhhhhhhhhhhhhhhhhhhhhhhhhhhhhhhhhhhhhhhhhhhhhhhhhhhhhhhhhhhhhhhhhhhhhhhhhhhhhhhhhhhhhhhhhhhhhhhhhhhhhhhhhhhhhhhhhhhhhhhhhhhhhhhhhhhhhhhhhhhhhhhhhhhhhhhhhhhhhhhhhhhhhhhhhhhhhhhh hhhhhhhhhhhhh
hh fb
cb cbbbbbbbb
de gff
cdd cc
abab abbbb
ggggh gff
ghh ggg
a cc
ffffffff ffff
efd eef
ghhhhh ge
eeef ggff
ghhhhhhh ggf
cedf df
g cbb
cdd bbbb
cb ccccdd
cccc ced
ge gfff
hc gc
ghhhh gfd
dd eeff
cccc cbd
caca caca
dc aaab
cab f
ccd eeedd
ee ggg
eeed cccd
cdf gfd
aab cd
gdgd gdf
eeee dddddddd
db cbb
eed eee
gef ed
ghf hf
edd ccbbb
cdcd ed
eeefff ef
ce ghhh
db aaaaab
gh ggef
ghh fb
ccb aaaabb
cdd cccdd
cddd ccdd
gb ab
gghhhh hhf
cccb cccd
bb aaab
ddd fff
eeefff ed
eef ggggf
cbb ccccd
ccd ce
dd cbbbb
eed cccdd
ggh ged
e ggd
ccd efd
aaaaaaaaaaaaaaaa aa
gggggggg hhhhh
ccbbbb abb
dd eeed
cccc cbbbbbbbb
ggfff gggf
hgh ggf
ccbcb db
cb ccf
cccb cbbbb
ebeb d
cb ccdb
ghh ghhhhh
gfgf gggf
cef ecb
Ġ gggf
efff gfff
eeddd eff
aaaaaaaaaaaaaaaaaaaaaaaaaaaa aab
hh b
ccd ced
gege gd
cdbb ab
hhhh gff
cb cccccd
eeeddd ed
gfgf d
edddd eef
eeddd b
eeed eeff
h ggh
cccc cccbbbbb
ec abb
a dd
cbaab d
eedd cddd
ghh gggggf
cccbb aab
eedd ccb
e gdf
ef ggggf
gggh ggggf
gffff eff
cbbb cc
eef gg
aaaaaaaa abbbbbb
ccbb aaabb
cbb cdef
ggggggf ed
cdb dcd
eeee efd
effffffff fffff
f df
cdd cccb
ggg hhhhhhhhhhhhhhhhhhhhhhhhhhhhhhhhhhhhhhhh
fd ef
gggggggf gf
Ġaaaaaaaaaaaaaaaaaaaaaaaaaaaaaaaaaaaaaaaaaaaaaaaaaaaaaaaaaaaaaaaaaaaaaaaaaaaaaaaaaaaaaaaaaaaaaaaaaaaaaaaaaaaaaaaaaaaaaaaaaaaaaaaaaaaaaaaaaaaaaaaaaaaaaaaaaaaaaaaaaaaaaaaaaaaaaaaaaaaaaaaaaaaaaaaaaaaaaaaaaaaaaaaaaaaaaaaaaaaaaaaaaaaaaaaaaaaaaaaaaaaaaaaaaaaaaaaaaaaaaaaaaaaaaaaaaaaaaaaaaaaaaaaaaaaaaaaaaaaaaaaaaaaaaaaaaaaaaaaa aaaaaaaaaaaaa
cab aca
ggf efff
cbbb de
gggff ee
cb aaaabbb
cee eddd
eeeeff ed
cgbgb hb
ghgf e
cd cbd
cbb aaabbb
cdb aaab
eeeeeeee eef
gef ded
edd cdddd
bbb aab
eff db
eeeeff gf
da caca
gh gc
eee gggf
eeeef eed
ge geff
ccbb cccd
aabb aa
abbbbb ab
Ġ def
ecd ee
fff gff
egf dd
aaaaaaaaaaaaaaaaaaaaaaaaaaaaaaaaaaaaaaaaaaaaaaaaaaaaaaaaaaaaaaaaaaaaaaaaaaaaaaaaaaaaaaaaaaaaaaaaaaaaaaaaaaaaaaaaaaaaaaaaaaaaaaaa aaaaaaaaaaaaaaaaaaaaaaaaaaaaaaaa
aaaaaaaaaaaaaaaa aaaaaa
eb dbdb
eeeeeeee eed
efef eed
Ġ aaaab
cddddd ed
g ah
ccd effff
cbcbcbcb cbcb
eedd eeed
aaa f
gggfff ef
cbb def
ccd ccccd
cef gggf
eedf ef
hfhf hfh
e aa
ccbb ccdd
gf gd
df ecb
cd bbbbb
aaaaaaaa aaabbbbb
eeee efffffff
ggg eb
abab aab
ddd edd
cccc cde
hhhhhhhhhhhhhhhh hhhhhhh
ccd efed
gfe bb
c aaaaaaa
ghh d
gggh ghhh
gggggggggggg gggf
eed cc
eeff eeef
gg efe
hh gghh
Ġ hhhhhhhhhhhhhhhhhhhhhhhhhhhhhhhhhhhhhhhh
aabbbb ab
ghh gffff
effff eef
ggffff gf
hehe hf
eeedd df
ddd cdd
ccb dcd
ccccbb ab
eeddd edd
cbbbb cbb
gfgf h
abbbbbbbb bbbbbbb
ddf ed
ghhhhhhhhhhhhhhhhhhhhhhhhhhhhhhhh hhh
ee ccdd
ca cf
cab aaaab
e cddb
ccb f
eb dbd
gggfff ed
aaaaaaaaaaaaaaaa aaaaaaabb
cccd eeed
eeeff eef
ghgh fh
cdcdb d
ggg db
ggff eedd
a cbcb
gff eeef
aaaabb aab
eeeef ggf
ef gfd
cdef ggf
ccddd cdd
e he
dd cf
cccd fff
gghhh gggf
ghhhhhhhhhhhhhhhhhhhhhhhhhhhhhhhh hhhhhhhh
gg efef
efff efef
gg eeed
ccc eeff
ff h
ccdddd f
cccdd eef
cdf h
eeeff ggf
ccd bbbb
aabbb aaab
ea d
bbbbbbbbbbbbbbbb bbbb
hhh g
gffff ggf
cbb cded
ccd cdddd
ghh gghhhh
aaaaaaaaaaaa abbbb
gggggggg ghhh
cccc cdb
eff gggg
cbb cde
cbb cee
cd eded
ggg eeff
dd eb
ceb fbfb
ghhhh ghf
dcb aaab
ggh gge
ded bbb
ded eef
df eef
cbbb cf
bb ce
gggggf ggf
ege gd
cdd fe
eeed fd
ecb cf
ccccd eed
aba bbbbbbbb
ccbb ce
cccb ccb
gggggggg gh
ghh ggghhh
ff eef
aa cff
eeeeeeeeeeeeeeee eeeeeeee
gff eedd
aaa df
efff ggff
gef eef
aaaaaaaaaaaa aabbbb
aca dada
cccd bbb
gh b
cbb aaaa
eff eee
cdd eeef
cb aaaaaaaaab
ge ccd
eeee b
cccb ccbb
cdd ccbbb
effff eed
gffff fd
aabb aaaab
eb df
ggghhhhhhhhhhhhhhhh hh
cbbb cbbbbb
ea fa
cdddddd ddddd
gghh gfff
e geb
aa bbbbbbbbbbb
ggg egf
ge cdf
c ghf
hc h
ec aaaab
hhhhhhhhhhhhhhhhhhhhhhhh hhh
eed cdf
gd cd
ccb aaaa
gef ee
gggg gee
ggffff ef
gg efgf
dbb abb
cdd eeedd
cbb aaaaabb
eb fbfb
ggggf gfff
cccdd edd
eded eddd
ddb a
gaga fb
ghh ggggh
ccccd cdcd
aa cef
eeffff ef
eefff ggf
eefff edd
cccccccc ccdd
ccf hh
c aaaaaaaa
dd cddd
cbb ef
efff eeed
cccd eedd
cba d
gg ddd
ccdddd ed
efff eddd
g ab
eeee efgf
gh gged
aaab abbb
ce ggff
ccbb df
cccbb cd
a da
eeeeeeeeeeeeeeeeeeeeeeeeeeeeeeee eeeeeeeeeeeeeeeeeeeeeeeeeeeeeeee
cece ced
ccbb abbbb
gggghhhhhhhh hhhhhh
cbb aaaaaaab
gggggff ef
efff effff
ded ee
eeee edcd
cbbb aaabb
ccd ecb
ccbb cddd
gggff ggff
cbbbb bbbbbbbbbbbb
gedd ef
e cfcf
ggh ghhhhhh
cbb cccdd
gf de
eff df
e ggfd
gggghhhhhhhh hhhhh
eef eddd
cc effd
gggf ggggf
ccdf ggf
cb cccbbbb
ecf df
edddd eff
ghf ef
gfgff gf
def ggf
efe gd
edddd ff
cdcdcdcd cdcdcdcd
edd eeedd
cbcd bb
cc abbb
cccccccc cccdd
ecd eff
efd ee
gb ga
h gee
ccdd eddd
hhhh ge
cbbb abbbb
ccb cded
cdcd bb
ce bbb
edddd cdd
cced bb
ggggggggf gf
ggggh gh
efe gege
ec eddd
eb da
cdb dd
cbbbb a
cbb cdcb
gggf eeff
ggg efff
edf egf
cba bbbbbb
e gghh
dd cdf
gff eeff
edddd cd
ghhhh ged
cf db
cbb aba
hhhhhhhhhhhhhhhhhhhhhhhh hhhhh
aaab f
Ġ aaaaaaaaaaaaaaaaaaaaaaaaaaaaaaaaaaaaaaaaaaaaaaaa
ggff gfff
cedf ef
ghh gdb
gef ggf
ghhhhhhhh ggf
gdf eefd
ccbbbbb ab
ge g
cb ccccbb
ghh gggggggg
edddd edd
ghhhhh ff
bbbb abb
ggh ghghghgh
gggff edd
cb aaaaaaaa
ccd eeee
ggggggg hhhhhhh
cc eefff
eedd eedd
abbb aabb
fffff gf
gggh ff
eeeed eded
Ġ aaaaaaaaaaaaaaaaaaaaaaaaaaaaaaaaaaaaaaaaaaaaaaaaaaaaaaaaaaaaaaaaaaaaaaaaaaaaaaaaaaaaaaaaaaaaaaaa
aaaaaaaaaaaaaaaa aaaaa
db cbcb
cccbb cdd
eed eefff
ge gefef
cbb cbbbbb
ccbb ccbbb
ghhhhhhhh hhf
eeedd ff
ccddd bb
eeeed ff
gff gfff
eddddd ef
gghhhhhhh gf
cccc bbbbbbbbbb
cccbbb ab
gfgf ed
hhhhhhhhhhhhhhhhhhhhhhhhhhhhhhhhhhhhhhhhhhhhhhhhhhhhhhhhhhhhhhhhhhhhhhhhhhhhhhhhhhhhhhhhhhhhhhhhhhhhhhhhhhhhhhhhhhhhhhhhhhhhhhhh hhhhhhhhhhhhhhhhhhhhhhhhhhhhhhhhhhhhhhhhhhhhhhhhhhhhhhhhhhhhhhhhhhhhhhhhhhhhhhhhhhhhhhhhhhhhhhhhhhhhhhhhhhhhhhhhhhhhhhhhhhhhhhhh
cc ec
hhhh ff
cd eeeff
cd ede
hhhhhhhhhhhhhhhh h
ggh gfef
fb d
cb cbbab
ggh ggg
e cdddd
f cedd
ddf ggf
ggggggf ef
ce gge
cbbbb cbbb
gggff dd
ggff efff
ccd ccccb
cb ccc
eb ed
e ccc
gh gggfff
ghgggg hh
eef ddd
ee cdf
bbbb aab
ghh ghgh
edededededededed edededededededed
cccc ccbbbbbbb
bbbbbbbbbbbbbbbb bbbbb
cbbbb aabb
ghhh ghhhhh
abbbb aab
aaaaaab abb
ge hd
cb aaaaaaaaaaaaaaaaaaaaaaaaaaaaaaaa
gg edcd
ab df
cbd bbb
dddd ddddd
ggh fff
gggh gggg
efgf dd
ccdd ccb
gc aab
ecb aaaab
cccd efff
cccb aabb
cgb hb
cc eeddd
gged ff
cd efef
ccdd cbbb
gg ffffffffff
efed bb
aaaaaaaaaaaaaaaa aaa
de gggf
ghhhh gfff
ccd edb
gggggggggggg fff
cbb ccccb
df egf
gb gd
ced edf
hf hehe
cdb f
ecb ce
cccb cccccccc
gghh ggggf
aa cdd
cddd cbbb
gd c
ggfd bbb
eddd eeef
e hhhhh
gh gb
efd bbb
gff efef
aaaaaaaaaaaab ab
cccd ccbb
aaabbb abb
ghhh ggghh
geff e
cef dbb
ccbbb cbbb
dd eedd
hhhhhhhhhhhhhhhhhhhhhhhh hh
gh ghhhhhhhhhhhh
ccd ffff
hfhf he
gggg eef
gfgf gffff
cbcb cbcbbbb
cb aaabbbb
aaaaaab aaab
gg eeee
ge ce
gc ff
ceef ed
gghf gf
ghh geef
gggff eedd
b aaab
eee ccb
cc gf
ghhhhhhhhhhhhhhhhhhhhhhhhhhhhhhhh hhhhh
ghhhhh gggf
ghhhhh ggff
ef eb
ghhhh gghh
ahah a
cfb fbfb
eef de
cccdd bb
gg eeeff
ccd eeddd
ccd c
aaaaaaaaaaaaaaaaaaaaaaaa bb
fafa fafa
ggh ggghhh
efef efefef
edd effff
edd ccccd
hfh ghf
gfef ggf
cd ec
gh gggggff
cccccccc bbbb
cdf hhh
gcgc gd
gggggf gggf
eeff eedd
gg edcb
gdf ef
efe gef
cddddd f
ghhf ef
gggg gggffffff
gfff eed
e cbbbbb
ee h
Ġf gf
aaaa bbbbbbbbb
ca f
dcd cdd
eedddd ef
gggh gggggggg
ab aaaab
eaea ea
eeedd cdd
gggfff ggf
aa dd
ccddd cd
cb aaaaaaabb
aaaaaaaaaaaaaaaa aaaaaaa
abababab abababab
aa ced
eeee eeefffff
ghhhh g
gggg hhf
ggfff eff
eedddd ed
abb cbbb
cccb aaaab
cccc dddddddd
efggf ed
cb abab
ggg ecbb
db aaaa
gged bb
cc ceb
ccbbb dd
cab abbbb
ggh fe
cccd ccdd
cdcd ced
aaaabbb ab
ghhh gfed
ccf ggf
cb aaaaaaa
hhh fe
gfgf gef
aabb a
cd eeeef
cded ef
cccddd ed
ee cddd
ggggff ggf
eeedd eff
aaabb aaaab
geb aab
aa de
gh ed
cccc eff
ee gfff
gfd eff
ee cfb
df gd
bbbbb d
ddf ef
ghg edf
gfgf ef
ecd ccd
df eb
ggggf eed
eef gggff
ccbbb cbb
gggf eeef
ghhh gef
ggg ede
ccb aaaaaaab
edddd e
ggghhhhhhhhhhhhhhhh hhhh
ahahahahahahahah ahahahahahahahah
ccb ced
cccccccdd ddd
Ġ hf
gh ggghhhh
eedd efff
gggg ggghhhhhhhh
cbbbbb ccd
fff edd
efd edd
ggf h
db cef
ccc eddd
eeeedd ef
Ġ hhhhhhhhhhhhhhhhhhhhhhhhhhhhhhhhhhhhhhhhhhhhhhhhhhhhhhhhhhhhhhhhhhhhhhhhhhhhhhhhhhhhhhhhhhhhhhhhhhhhhhhhhhhhhhhhhhhhhhhhhhhhhhhhhhhhhhhhhhhhhhhhhhhhhhhhhhhhhhhhhhhhhhhhhhhhhhhhhhhhhhhhhhhhhhhh
eeefff d
gggghhh gf
gg def
eeee eeffffff
eeeeeeee eeed
ccf ed
fff eed
df eed
ccccb aab
ggh ghghf
abb dd
ggggh ggff
ce cdcdd
eeedd cd
efed ff
cdddd edd
eefff dd
hh gggf
egf e
Ġ bbbbbbb
hh gfff
ge cc
ccccd cccd
aaaaaaaaaaaaaaaa aabbb
cbbbb ccbb
efd edf
cccdd eff
abbb abbbb
ccdd eedd
gedd ff
db ca
cdcd ccd
gggggggg gghhh
df ggff
cbbbbb cd
cbbbbb cdd
ee ced
ggh ggggggf
ffffffff fffff
efgf eef
dc aaa
cece cf
cbb cdddd
geb d
Ġ dcb
ghhhhhhhh hgh
cded bbb
cf gggf
hc gcf
g aa
eff h
ghhhhhhh gff
eeeff edd
ecb cdd
cb cccccb
gh ggd
cbbbb dd
ghgf dd
dfd gd
cc aaaa
eeddd eed
gggg ghhhhhhhhhhh
cbb ccddd
ccbbbb aab
hahahahahahb f
cc aaaaab
hhhhhhhhhhhhhhhhhhhhhhhh hhhhhhh
eddb d
eeeed eff
cdcb a
cbbbbbb d
gege gef
cbd cdd
gbf cee
ddd ccd
eeff efff
cbcb dbdb
cccccccc cddd
cbb ca
gd hchc
cbb e
cf eb
gghh gggh
efef efff
gggggff ed
eeb d
ggff eeef
gfgf gfgff
aaaabb aaab
fafa fa
f ge
gf eed
gggfff gff
ece ced
cbd cdb
hhh d
eee cccd
Ġ ddddd
gggggggg ggghh
edf eed
ab cd
gfgggg fff
g eeded
cbb cdb
aaabb aabb
fd ff
ccb cccbbb
eeeffff ffffff
cgbgb hbhb
eeed bbb
gggf gggff
gffff eef
hf ge
ggggggf d
aaaaaaab d
ggg ecd
ccbb aaaaab
cdcd cccd
cdcb abb
aaaaaa d
hh a
gaha ga
cccccdd ddddd
ccbbbbbbbb bbbbbbb
cd ggf
cdcd cdb
ggfff eef
ac abab
efgf e
gb eb
ged eff
cbbb aa
ghh e
cbbb c
gahahahah b
Ġ ggff
ggg df
cef eef
aaaabb d
gee gf
ceef ef
ab dd
ccccdd ef
cgb hahahb
gg hhhhhhhhhhhhhhhhhhhhhhhhhhhhhhhhhhhhhhhhhhhhhhhhhhhhhhhh
h ggggf
ghhhh gghhh
cc fb
cc eecb
cbb cff
gg eefff
ccbbb aaab
aaaaaaaa aabbbbbb
cddb aab
cd cedd
cbb aaaaaaaab
ghh gge
eeeedd ed
ccbbb ccdd
ghgggg gggf
ebeb ebeb
ghh ggggff
cddf ef
eedd ccbb
edb abb
aaaaaaaaaaaaaaaaaaaaaaaaaaaaaaaa aaab
ccc aaab
gggggf eef
cdcd ff
dada ca
cfc gd
eeeff eff
e ccdb
bb cdd
cd cab
eeff eddd
cbb ceff
eb aabb
aba d
ghhh ghhhhhh
eedf c
aaaaab aaaab
cc eedb
bbb cdd
effff edd
ghgh gf
abbbb d
gff ddd
eeeeeeee edd
hfhf hfhf
cbbb cccc
c aaaaaaaaab
aaaaaaaa abab
gh ggfd
cddd eeed
ede ced
ghhhhhhhhhhhhhhhhhhhhhhhhhhhhhhhh h
cccccccc cd
hh gfd
de ccb
gghhhhhh ggf
cddd ccbb
cdcd cdddd
aaaaaaaaaaaa bbbbb
aaaaabb ab
ghhh gghhhh
db ccd
gggg hhhhhhhhhhhhhhhhhhhhhhhhhhhhhhhh
gefef ef
gffffffff fffff
cb ee
cbbbb ccdd
e ghhhhh
ge gfgff
eeeeeeee dddd
edef ggf
a cdd
eeeddd ef
eeee eeeddddd
cdcd ccb
Ġ aabb
dddd ff
eccd ff
ce ghf
ccccd ee
gfgggg hh
edf gff
eff efef
egf ee
cccc ee
eeef eeff
ced cd
ebb ab
gg dc
df efef
ccc fff
ccccb cdd
dd ec
gggggggg gggffff
cdb abb
egf b
efd eded
c aaaaaabb
gc hc
cbbbbbb abb
cc edddd
cbb ccbbbb
ccb cde
gghh gd
ghgf ee
ggghhhh f
ggg edb
hf ggf
c aabbbb
gggg ggfffffff
cef b
eefff e
ccd edcb
cb cced
ce ghhhh
eedd eeff
hh e
ggghgh ghgh
effff e
cb ff
cc eeb
cf hhf
ccdd cddd
ggggh gggf
aaaaaaaaaaaaaaaaaaaaaaaa abb
effff ffffffffffffffff
aaaab aaaab
gb gcfdeedf
eed ecd
aaaaaaaaaaaaaaaaaaaaaaaaaaaaaaaa ab
gahaha gbfcedd
geef gf
eb ca
ghhhhhhhhhhhhhhhhhhhhhhhhhhhhhhhh hhhhhh
ggh gfed
ecb cef
ggggh ghf
df hhhh
db cdd
cccdd cdd
ggg de
efff ddd
cbb cccbbb
bbb abb
gggggggg gfffff
ggffff ed
gcf cfd
eddd eded
gggg ghhgf
cbbb cdef
Ġ hhhhhhhhhh
eddf ed
ghh gdd
eb ce
gghh gghhh
aaa bbbbbbbbbbb
Ġ hhhhhhhhhhhhhhhhhhhhhhhhhhhhhhhhhhhhhhhhhhhhhhhh
c eeeedd
gff de
bbb f
eedd ccdd
gh geff
df dbb
eddd ccb
eeeeeeee eff
dd fb
aaaaaaaaaaaaaaaa a
cbcb dcd
ccf h
gggghh ggf
cb cabb
ccccd eef
gggg gged
ccbb cef
gdd gb
eddd ccdd
ggghhhhh gf
eeefff gf
eddd cddd
edddd eed
cbcbbbb bbbbbb
ced bab
cf g
hhhhh ggf
bbbbbbbbbbbbbbbb bbbbbb
aaabbb aaab
cccb cddd
db aaabb
db dcd
Ġb ab
cbcb cbcccc
cccccccc ccccb
Ġ cbb
ggfff gfff
aaaaaa bbbbbbbb
gffff gggf
gc aa
cbbb aaaaab
c ghhh
ccdb ab
efgf ee
eedf gf
e gee
ghh gfgf
ecc ce
eeed ccdd
geb a
cc ffd
ggff ggggf
cc eeeed
ghhh gggff
efd gd
cdddd ff
cbbbbbbbbbbbb bbbbb
cccb cccbb
cff b
ggghhhhhhhhhhhhhhhh hhh
ec gd
hh gee
dd cef
edd cbbbb
eeeff gggf
eedd fff
cc efef
eeee ecd
cdd ce
cccd eeff
gffffff gf
ecc cef
eb fa
cccccd cdd
e ghhf
ggff eeff
cddf ed
cb aaaaaaaaaab
eeeef gff
gghhhhh gff
ccd ccddd
eeedd ddddddd
gfd cdf
ggggff eff
ghhhh ghhhh
eeffff d
cccb aa
eefff ee
ggghhh gff
cf ceb
dd egf
cbb aabbbb
gggggff gf
h ghhhhh
hh gfe
ccd eeeed
cf egf
eeeeeeee eeef
aaaaaaaa bbbbbbb
eaea da
eeeeedd ddddd
edededed eded
ged bbb
dbb aab
ede cece
ce ghgf
cccd cbbb
aaab df
ccbbb ccbb
eeeff eed
edcb aab
gcgc gc
cbcbbbb bbbbb
e ccef
Ġ aaaaab
cccdd eed
cdf edd
effff gggf
ghhhhhh ghf
gfgf gfgggg
efd cd
cdd cccc
gbgb fb
gggggggg ffffff
gh ef
ghhh ggfff
hehe hfh
gfd ccd
ggggfff gf
gfff edd
eeedd eed
cedd dddd
dc abb
h gghh
ab aabb
cbbbb abbbb
ggggggf gff
gggg ggef
ccd cccccccc
ggg eddd
eeee efe
cccb ccccd
eeddd e
ghhhhhhhhhhhhhhhhhhhhhhhhhhhhhhhh hhhh
eef eee
hhhhhhhhhhhhhhhhhhhhhhhh hhhh
bb c
ee ffffffffff
edcd eff
ghhhhhhhhhhhhhhhhhhhhhhhhhhhhhhhh hhhhhhhhhhhh
dd gf
ccd cccbb
ghhh fff
eeef eeed
hgh ff
hf gd
eeeeeeee eeee
aaaaa bbbbbbbbb
ga gbgbf
cef ge
ccb cbbbbbb
ggh ggfgf
cbbb ccccd
ddb aa
Ġb d
eeeeffff fffff
ggh gef
cdddd cdd
effffff ef
de bbb
cd cee
eeedd eef
ghhhhhhhhhh gf
ddd cbb
ggf def
aaaaab a
ccb aaaaabb
aaaaaaaaaaaaaaaaaaaaaaaaaaaaaaaa aaaaaaaab
abbb aaaab
ghh gedd
ghgggg fff
gggg eff
cb cedd
df edd
db cbd
ggh ghghgh
ghhhhhhhhhhhhhhhhhhhhhhhhhhhhhhhh hh
c eeeeff
cccbbbb bbbbbbbbb
cd cbcb
ggg edef
efe cbb
cbcd ee
hhhh gd
ced eddd
eeff ggggf
cccb cbbbbb
cccbb aaab
cab aaaaaab
cabb d
eeed eedd
gggg ghhhhhhhhhhhh
gghhh ge
caaa d
ha ga
eeed edf
gfgf ggggf
gfed bb
cab aaab
cdd edddd
eeeef eef
cb cccddd
eb dcd
aabbb d
cedd edf
cbbbbbbb ab
c gff
eb ece
ced cbb
efe ccd
dd ccbbb
eff ge
cccd cccdd
cdddd eed
gggggf e
aaaaaaaaaaaa aaabbbb
cb aabbbbb
cdef e
f gd
ef eee
dd eeef
cdb ccd
gef efff
edd ce
de hh
de gg
gghh gfd
ghhhhhhhhhhhhhhhhhhhhhhhhhhhhhhhh hhhhhhhhhh
aaaaaaaaaaaaaaaaaaaaaaaa aaabb
h gdb
edd efed
hhh gh
ec eee
cbbcd bb
cbcb cbdb
cdf ggff
cef eed
aaaaaaaaaaaaaaaa aaaabbb
gfff ggggf
cbbbb aaaab
eeef effff
cdf ecb
dff ef
ggggh gggh
cb ddb
cbbbbb aaab
cc aba
cbbbb ccb
ccd edddd
ggh ghgf
ded eed
e cedf
cc effed
ee cef
eeddd cdd
cde gff
eeeeeeee ffff
ggff gggff
ccdd fff
cdff gf
cecf df
cb ccbbbbb
eeed cbbb
cd cccddd
ddd fd
gggggggg hhhhhh
gfgf ge
c fffff
abb aabb
ggh ggffff
cbbab d
ede ce
gegf h
aaaaaaaaaaaaaaaa abbb
eeed efff
dde ggf
ggd bbb
cb cccbcb
aaaaaaaaaaaaaaaaaaaaaaaa aabb
aab aaaab
ccbb cccbb
cddf gf
gggf h
dddddddd dddddd
ef gd
db aaaaaab
ghhhh ggggf
c hf
cb ccef
eedd cccdd
gc ee
ecc ff
egf ggf
eddf ggf
cd cccccd
eeed fff
edb aa
cb ccdf
ced ccd
cccc ddb
eedd cbb
cedd ed
geed ff
cd ccbcb
cccd eddd
gbf ceed
cdd ecd
cbbb ccccb
eeef gfff
dd efd
cd cbbbbbb
eeee eedf
ccded bb
cd ccc
cf eff
ccdd efff
efggf ef
cf ecb
gggh ghh
h aa
dd eddd
cccc cbbbbbbbbb
eed ccbbb
ggfff ggff
gfgggg gggf
cf ce
ccccd edd
eccd ef
cbbbbbbbbbbbb bbbbbb
eded edf
ccddd ff
de cdcd
gdd ff
g eeffff
cbb cbd
aaaaaaaaaaaaaaaaaaaaaaaaaaaaaaaa aaaaaaaaaab
ced eedf
gggg hhhhhhhhhhhhhhhhhhhhhhhhhhhhhhhhhhhhhhhhhhhhhhhhhhhhhhhhhhhhhhhh
cd effed
cf ged
gggh gghh
ccb aaabbb
ggh ghhhhhhhh
cddd cccdd
ee cbbbb
cbcb aab
cabab abb
gg hhhhhhhhhhhhhhhhhhhhhhhhhhhhhhhhhhhhhhhhhhhhhhhhhhhhhhhhhhhhhhhhhhhhhhhhhhhhhhhhhhhhhhhhhhhhhhhhhhhhhhhhhhhhhhhhhhhhhhhhhhhhhhhh
f ggf
gggg gghhhhhhhhh
eef hh
db de
cccc cccbbbbbb
h gfef
cbcb ca
cdcb aaab
gggf eddd
ghhh gfef
aba bbbbbbbbb
ee cdb
gge cbb
cd eedb
cb cddb
ffff ggf
efef eef
eedddd ded
h cfd
aaaaaaaaaaaaaaaaaaaaaaaaaaaaaaaa b
cbab abb
gh gggggggggggg
cbbb aaa
ggh ghhhhhhh
eb aaaa
gggggf eff
ab aaabb
effff gfff
ghhhhhhhhhhhhhhhhhhhhhhhhhhhhhhhh hhhhhhh
gf hgh
cb ccbcb
ggg ffffffffff
cbcb cbbbbb
gfd ce
ccccd bb
gggfff d
eeeeff ef
f hhhh
egf gef
egf ge
dddd ded
cdf gg
ceb ab
he ge
efef dd
cbbb aabbb
cbab a
hhhhhhhhhhhhhhhhhhhhhhhh hhhhhh
aaaaaaaaaaaaaaaaaaaaaaaaaaaaaaaa aaaaaaaaaaaab
cbb abbbbbb
ggg dbb
he hfh
Ġf ef
ccdd ccbb
ggghhhh hf
cb aaaaabbb
ghhh ghf
ggg eedd
cdf db
cbbb def
eb ecd
cce bb
ccd ccbbbb
ccbb aa
eefff efff
c eeeeed
cbb aaaaaabb
ggggh ggggf
cbcb dd
fffff ed
efffff gff
gfd ee
gghhh gghh
cbb dcb
egf eef
hhh ged
gagaga fb
cd ccbbbbb
gh eb
cdef dd
cb dde
eff edf
db da
effff ee
eeeed eeed
gggggf gfff
hhhhhhhhhhhhhhhhhhhhhhhh h
Ġ cccd
gggggggg ghhhh
de ccd
ccbbb ccb
gdd ef
cfc gc
ccddd cccd
gge bbb
gdgd gdgd
cbcbb abb
ggf ggggf
edddd ccd
ceff gf
gahb hb
ecd eed
cfd gd
ghhhhh gd
Ġ hhhhhhhhhhh
eeeed eed
cc edcd
cc cedf
ccddd ccd
ceff ef
gggff efff
ab aa
gbgb gbgb
cccdd e
gfffff ed
a cef
cdd eeee
a ea
ce g
aabb abbb
ggg hhhhhhhhhhhhhhhhhhhhhhhhhhhhhhhhhhhhhhhhhhhhhhhh
aaa cef
eddd eeedd
ggghhhhhhhhhhhhhhhh hhhhh
aaaaaaaaaaaaaaaaaaaaaaaaaaaaaaaa aaaaaab
eefff eedd
ggggggf gfgf
gf gffff
hh ggff
eeeef edd
cdef ee
gggggg ffffffff
edb aaaab
gff eee
gghh ged
eeeef e
geff ef
cdd edf
cee cbb
cdd cdb
gfgff d
cdd c
ccddd eff
e aab
hf hd
gggghhhhhhhh hhhhhhh
ggghhhhhhhhhhhhhhhh hhhhhh
cccdd ccd
ecb aabb
cccbb ccd
ecc ed
hh gh
efef effff
cbd eff
fe bb
db abd
ccccbb d
edd ede
eef ggfff
c hhh
cd cccbbb
gggf gffff
fb ab
eb fd
edd ced
ghgh ghhh
gee efff
a de
eeff eeed
fffff ef
eeeef efff
Ġ hhhhhhhhh
ggh gffff
cdcdd ddddd
ebeb fb
cccb abbb
gedd b
gggf efff
dddd df
ggf eddd
cf ggff
eeff gggff
ghf ed
efffff eff
ggf eee
ecb dd
gfed eff
dfdf ef
abab abbbbb
aaaaaaaaaaaaaaaaaaaaaaaaaaaaaaaaaaaaaaaaaaaaaaaaaaaaaaaaaaaaaaaa aaaaaaaaaaaaaaaaaaaaaaaaaaaa
ggf dcb
ccccd cddd
ghg hhhhhhhhhhhhhhhhhhhhhhhhhhhhhhhhhhhhhhhhhhhhhhhhhhhhhhhhhhhhhhhh
ded eddd
ecbb ab
Ġ aa
eed cccc
gghhh ghhh
eed eeee
aaaaaaaaaaaaaaaaaaaaaaaa aa
Ġ ccb
hhhhhhhh f
eef gfd
ce gfe
gghhhhhhhh gf
eb aaaaab
ghhhh gh
h ed
eedd eddd
gge cdf
ghhhhhhhhhhhhhhhhhhhhhhhhhhhhhhhh hhhhhhhhhhhhhh
eeef ggggf
ddd ccb
ghhhhh gfd
gggghhh f
dddddddddddd ddddd
aaaaaaaaaaaaaaaaaaaaaaaaaaaaaaaa aaaaaaaaaaaaaab
ccccd ccb
fa f
cfc gcgc
gfff gggff
gg effff
cccccccc ccb
efef ee
dd ced
cdef edd
cbbb cccdd
ccbb cbbbb
eeeeff d
cd caab
gggggffff ffff
aab abbb
aaabb aaabb
ge cf
cccccdd ed
ccbb cf
ghgggg hhh
cc eddb
cb ccccccd
gb gcfd
cccccccc cccb
gh gdf
ggghh gggf
aba cb
hhhhhhhhhhhhhhhhhhhhhhhhhhhhhhhh hhh
gd ab
eff efd
dcb aa
Ġ ffffff
gh gghhhhh
gggg gghhhhhhhhhh
cccd cdb
gb hbhb
ghhhh ghhhhh
edf hh
ecb aa
cccbbbb ab
a ccd
Ġ gfff
ggg ebb
cbbb ccddd
gggggggggggg ggff
caaab d
e gdb
hhhh fd
aaaaaaaaaaaaaaaa bbbb
ccb abd
cd efffff
cde gggf
dd ffff
eff de
ghgf eef
fagagaga fb
Ġ hhhhhhhhhhhhhhhhhhhhhhhhhhhhhhhhhhhhhhhhhhhhhhhhhhhhhhhh
edd cccb
ghhh gee
ceb dbdb
edf cgb
cdd cbbbbb
cbd ced
aaaaaaab abb
ggh gggfff
eefff gggf
ea ca
aaaaa c
e gb
aaaaaaaaaaaaaaaaaaaaaaaa aaa
Ġ hhhhhhhhhhhh
aaaaaaaaaaaaaaaa aaabbb
bb de
hc hbhbhb
gge ccd
g hhhhhhhhhhhhhhhhhhhhhhhhhhhhhhhhhhhhhhhhhhhhhhhhhhhhhhhhhhhhhhhhhhhhhhhhhhhhhhhhhhhhhhhhhhhhhhhhhhhhhhhhhhhhhhhhhhhhhhhhhhhhhhhhhhhhhhhhhhhhhhhhhhhhhhhhhhhhhhhhhhhhhhhhhhhhhhhhhhhhhhhhhhhhhhhh
cdf eed
e hgf
gghhhh ggff
aaaaaab aab
gf df
ccb def
aaaab df
gbf cfd
g dddf
gggggggg ggghhh
cccccccc bbbbb
ghhhhhh ge
bbbbbbbbbbbbbbbb bbbbbbb
cccccbbbb bbbbbb
gghhhhhhhhhhhhhhhhhhhhhhhh hhh
cccddd ef
eeeef eeef
c aaaabbb
cbcb cbbbbbb
cdef gff
abbbbb abb
aaaaaaa bbbbbbbb
edd eeee
ecd ced
gefef d
gg efggf
gbf ceedf
eccd ed
ccdd cccdd
cff db
ggggf ggff
ggffff d
cd ccccdd
dddddddd ddddddd
gege gegf
hc hdhd
ccdddd ded
gggg geef
bbb ccd
eefff eeef
Ġ dff
dd cccb
cbcb cbcbb
aabb aaa
gfe cbb
edd efd
ccb ded
ggh gggggff
cbd eed
ghhhh ghh
ghhhh gggh
e hhhf
e ggfff
dfdf dfd
cd ccccbb
gfff gffff
cbd cdcd
aaaa ce
ggghhhh ggf
ede cdd
cdcdb db
gbgbf cf
ab aaa
ggh gghhhh
gghhhhhhh f
eedb d
dd cccc
ecf cfb
eff ggfff
eeed cddd
ggghhhhhhhhhhhhhhhh h
edd ccddd
ccf ef
ece cf
ggggggh ggf
gggg gedd
eeee effffffff
eeeed eddd
gghhhhhhhh hgf
ede cdcd
edef gff
ecc cf
cabab aab
hhh gggf
eeed eeef
ecd fff
abb ccd
cccccccdd dddd
ged cd
ghhhhhh ghghghgh
cccccccc ccddd
aa bbbbbbbbbbbb
ggf dbb
ccb aabbbb
ea fb
ce cc
cb caca
eef h
gggff gfff
ccf ge
gggggggg ggfgf
db abbb
cbaa d
eed bbbb
ccbbb cccd
eeffffffff fff
ecgb hahaha
gg dff
c aaaaaaaaaab
cbbbb cddd
ggggff gff
ce cde
ggh ggef
cded ccd
e gffff
cbbb ded
cccc ccdddddd
db cdf
cccdd ddddddd
ccccd ccd
dcb cd
effffff gf
eef eeee
cfcf df
gggf ddd
eef eeddd
eef eeeff
hhhhh gff
gggghh gff
efff ggggf
eedd bbb
Ġf ed
dd cdb
abb abbb
efed eff
eded ededd
Ġ aaaaaab
gggggggg ggfffff
aaab abab
def gff
cddb d
eb fafa
cedd bb
ccb cdddd
gggggf edd
geed ef
cbb dee
eeb a
cbb ceed
gege gfgf
eeb aab
ee cdcd
cbb aaaaa
eef ded
aabb aaabb
e hd
gggg gghf
gggggggg gfgf
cbd fff
ghhhhh gfff
eeed edddd
cbbbb cccd
gghh g
ec edde
cdd ccddd
ecdd ed
ghhh ggghhh
ccccb cbbb
c aaabbbb
ggh gggggggf
aaaaaaaa abbbbbbb
df hf
cef gfd
gc hd
cbbb dff
fffff d
cd cce
eeed eeedd
ghgh ghgggg
ghhhhhh ff
eefff eeff
c gef
eed cccb
cbd ccb
ccce ffff
aaaaaaaaaaaaaaaaaaaaaaaaaaaaaaaa aaaaab
fd ee
cccc ccdb
ced fff
cccccccc ccccccd
cbd ce
gfgfgfgf gfgf
ccbb de
efff eee
ced cb
aaaaaaaaaaaaaaaaaaaaaaaaaaaaaaaa aab
cab acb
cc eeeef
cd ccccccd
gf ggggf
cbbbbbb aab
gg eedf
ab aaaaab
gggf eedd
ca bbbbbb
aaaaaaaaaaaa aabbbbb
ccbbbb ccd
ccccb cbb
eddd edddd
cddd cdcd
aaaaaaaa aaabbbbbb
ccbb aabbb
gggggff d
Ġ ggggf
edd cdf
dddd de
hf gfgf
ce ged
df ged
gggg geff
eff ecb
cded ff
eeee eeefef
ec aaaaab
aaaaaaab aab
eff dbb
eb abd
eddd eee
gaga gaga
ccbb aaa
eeddd ee
gghhh gfff
e ccddd
eed ccddd
gd hd
cdb dbd
gggffff ef
aaaaabb d
cc ffff
gggggf ee
cccc bbbbbbbbbbb
eded ee
e ccccd
gghh ghhh
gghhh ggggf
dcd ee
ccb aaaaaaaab
aaab aaabb
cdd cccbb
ccb cdef
gggggggg gfgggg
aaaaaaaaaaaaaaaaaaaaaaaaaaaaaaaa aaaab
efff gfgf
ccc aa
efef ggf
cdd cbcd
gghhh gggh
cb aaaaaaaabb
cdbb d
Ġ ccdd
Ġ abbb
hhhhhhhhhhhhhhhhhhhhhhhhhhhhhhhh hhhhh
gfff gfgf
hahahahahahbf ec
eed eeeef
ed ce
cd ceb
efff eeeff
eggf ef
eeeeee ffffffff
edd ffff
ghh ghhhhhh
a cbbb
eeee edcb
dddd bb
ggghhhhhhhhhhhhhhhh hhhhhhh
eeeed bb
Ġ aaabb
cbb cdcd
gghhh gh
ddb aaab
gggffff gf
gcgc gdf
edd eeddd
eff ggg
abb aa
cccd eee
gghhhhhhhhhhhhhhhhhhhhhhhh hh
cdd ccccd
dee gf
ghhhh gfe
eedd cdcd
cbab df
Ġ hgf
edd eded
eeff gffff
ccced b
cbcbcbcbcbcbcbcb cbcbcbcbcbcbcbcb
cef h
efgf gff
eff gef
ccbbb cccb
aabbbbbbbb bbbbb
ghh ghghf
ccccb ccdd
gggfff gggf
ef eddd
aaaaaaaaaaaaaaaa aaaaabbb
ggf edf
cgc gbgb
daea fafa
ccd ffd
ccb ccbbbb
gc gdgd
cbd gf
eef efe
ghh ggggggf
eeffff gff
ea f
egh ge
ff db
gc hchb
aaaaa cf
gggggggg hhhhhhh
gggggggg hgh
ccbbb abbb
dd ecd
ccd cdcdd
gcgb hb
cccc cbbcd
gggggggg ghhhhh
cgb hahahahb
e gged
gg edddd
eff eeeff
hhh gfd
cbbbb df
cdb aaa
aba cacaca
aaaaaaaaaaaaaaaaaaaaaaaaaaaaaaaa aaaaaaab
gfh ghf
eff dcb
effff efef
ccb cee
cbbb ccbbbb
effff ggff
egf db
hcgdf eefd
gggh ghhhhh
eddd cbb
hchd he
egf gfff
ccccb abb
cdef gggf
gggggggggggg hh
cdd eefff
ccd efe
cef eb
ca ce
cab df
ecf a
Ġ eeff
cbbb cccbbb
eedb aab
cccc eed
cbcb cccd
ccef ggf
hhh gghh
ggh d
ed cdf
de ge
eeddd eeff
ggghh ggff
ebb a
cccbcb d
ee gef
cbcb ccb
aaaabb abb
bbbb a
cbbbb cccb
ghhh ggggh
gggff eeef
gggh gfff
cdef eed
hhh ggff
eeee eedddddd
cddd eedd
ghhhhhhhh gff
ccbbb aabb
dada dada
eeee eddcd
eef gggg
eb gb
gd ce
Ġ efff
ceddecfb gbgb
cbbbb aaabb
de h
ghf dd
aaaaabb aab
cccc ccbbbbbbbb
cccbb a
aaaaaaaab abb
cb aaaaaaaaaaab
cbbb cded
ccbbbbb d
hhf ef
g eedddd
gggf eee
cdddd eff
cccc cf
aaaabb aaaab
gg eded
hf gff
gge ce
cdd eeeed
eff b
ccbb cdf
effff efff
aaab dd
h ghghf
ecd ce
cefff d
cdd cdf
bbb a
gggh ggfff
hhhhhhhhhhhhhhhhhhhhhhhhhhhhhhhhhhhhhhhh hhhh
efgf eff
aaaa bbbbbbbbbb
ccd eefff
cccb ccddd
effffff ed
ee hh
gdf dfd
caa cf
ee ghhh
eefef eff
ggg efef
cccccccc cccccd
cccdd dded
ec fff
ede cdb
gggggggg ghgggg
efd fff
eeded ff
cb ccccbbb
eedd eeef
cbcb ccdd
ah aa
ecb aaaaab
aaab aaa
gd cf
cccccccc dcd
eef ge
ca cd
Ġ bbbbbbbb
cb cddddd
cccc ccdf
cdd ccccb
gfgggg ggff
aabbb aabb
hhhhhhhhhhhhhhhhhhhhhhhhhhhhhhhh hhhhhh
aaaaaaaaaaaa abbbbb
ccdddd ef
ghhhhhh ggff
cbbb cde
ghhhh gfed
eeedd dded
eedf ed
gggf ge
cccd ccbbb
gdb aab
gghh fd
cdddd eef
eaea eaea
effff eeef
eed cef
eedd ccbbb
gffff gfgf
eeeef ee
ccdddd b
Ġ cddd
edd cef
df c
cccbb abbb
cccbbbb bbbbbbbbbb
efffff ggf
cc eeeff
gh ggghgh
gggggggg gg
ded edf
dff e
cbbbbb abbb
eeeeef eff
aaabbbb ab
ccbb ced
cccdd ee
ccc eeef
cbab dd
eeeed eeff
gff b
gggff ggggf
gggh ge
cee efff
cfff d
ghhhhhhhhhhh gf
Ġ ge
Ġ eeef
gh ffff
dcd ccd
edddddd ed
h ggd
cdcdcdcd cdcd
eed ccccd
ggh ggggggh
cccd cdddd
ccdd eee
eeddd eeed
ccbb aaaabb
edddd ee
aaaaaaaab aaab
ccccbb abb
aaaaaaaaaaaaaaaaaaaaaaaa a
eeee effed
gff ggggf
ghh geb
eb de
ccbb ddd
ged ee
ceef gf
eef ggg
ghh ed
bbbbbbbbbbbbbbbb bbbbbbbb
caa c
cce gg
ddddd ef
eed ce
ggfff e
g cdfb
gggg edd
ebeb f
cbbb f
edcd ee
cd fffff
aaaaaaaaaaaaaaaaaaaaaaaaaaaa abb
gdf e
gh gggggggggggggggg
ghh ghhhhhhh
efd ccd
eeedd edd
ggggff eef
cccc ceff
ggggffff fffff
eeff gfgf
hhhhhhhhhhhhhhhhhhhhhhhhhhhhhhhh hhhh
ede cf
dd cccdd
cbbbb ce
ggggff eed
c abababab
ggggggf gggf
h ghgf
ge hgh
cbcd eff
gahahaha gbf
Ġ cbbb
cf hhhhh
aaa dd
eeeed ccd
aaaaaaa d
ggf ddf
eeeeed edd
Ġ eeed
ghhhhh ghhh
cc aaaaaab
hhh ghhh
gfd cbb
gdb a
eef b
aaab aabb
ceed bbb
cgbgb gbgbgcf
cf hgf
c aaaaaaabb
gh ghhhhhhhhhhhhhh
cbb cbdb
gghhhhhhhhhhhhhhhhhhhhhhhh hhhhh
cbbbb cef
ghhhh ghghghgh
cccb ccbbb
eeedd e
hhhhhhhhhhhhhhhhhhhhhhhhhhhhhhhhhhhhhhhh hh
cccdd cccd
gff eeed
ccbb aaaaaab
eeef eddd
efd eff
edb cd
eeee eefffffff
gd gef
cdcd ce
cccdd df
ghhhhh ged
gghh gggff
aaaaaaaaaaaaaaaa aaaaaabbb
ccb cdcb
ge hfh
eeeff ee
cccccccc ddddd
gggh gg
gghhh gghhh
eeeeeeee eedd
gghh ggghh
cccc cee
cccccd ff
hfhf hfhgh
hhh gef
ggf eedd
ddd cccd
aaaaaaaaaaaaaaaaaaaaaaaaaaaa bb
ghhhh ghgh
g eeeeff
ed bbbb
eee ggff
ggfff ee
hhhhhhhhhhhhhhhhhhhhhhhhhhhhhhhhhhhhhhhh hhhhhh
abbb aaabb
cdddd bb
gd h
gghh gggg
gh ghhhhhhhhh
ca cab
gfffff gff
Ġ eedd
ghhh gggggf
Ġ cf
effff eedd
cbcb ccccb
gggggggggggg gfff
aaaaaab abababab
gggggggggggggggggggggggggggggggg gggggggggggggggg
cbbbb cdf
dcd eff
gghhhhhhhhhhhhhhhhhhhhhhhh hhhh
abb aaaab
aaaaaaaab abab
ggh e
ghf e
Ġ cb
ce ffffff
ghh gggghh
ccbbbb cdd
cddd eeff
cddd ccccd
gggggggggggg gggh
de ggff
ccc eeedd
cee cb
ede gff
a cbdb
cccc cce
eef egf
eb cbd
hf ef
gggggggggggg ffff
ff eff
cdd ceb
cddd cdddd
cbcd eed
Ġ hhhhhhhhhhhhh
ccb cce
gffff eed
eeeff gfff
bbbbbb ab
cde ccd
ddd eeff
eeeffff ffffffff
cd effd
eb ad
ggggff gggf
h gdd
aa cc
efff eefff
cbcb cbccd
cccb ccccb
caab f
cd eedddd
cbbbb cbbbb
efgf edd
gfe ggf
cbaaab d
ghhhh gg
gcf ddecfb
h ghghgh
dd cdcd
aab aabb
cd ceef
f ceddecfb
bbb de
h gc
hhhhhhhhhhhhhhhhhhhhhhhhhhhhhhhh hhhhhhh
gffff e
gcf c
bbb ce
gcf dd
eeeffff fffffff
gggggggg ggg
gffff ffffffffffffffff
cd eeffff
g ccb
efef de
eeeeeeee eeeed
ceff dd
ee ccbbb
dbb df
eff gggggf
ddf hh
ddd efff
eee cbbb
gdf cf
eeeef eedd
gfdd ff
ggg ec
db cbbb
ccddd edd
ed efff
cd ab
Ġ aaaaaaab
aabbb a
hfhf gf
ccb abbbbb
gggggggg hhhhhhhh
ecb cdf
g cdd
ccd cbbbbb
eeeff e
cb ceef
effff dd
ccdd eeef
cccb aaaaab
aaaaaaaab d
ccbbbbb abb
ggfff eed
ggfed ff
edf efd
gfd cef
eeeed cdd
ccf hhh
gcfb f
ccddd eed
cd eeeedd
abbbb aaab
ggggh ghhh
Ġ eddd
gf eeff
aab de
gggg gfgfgf
db fb
ccb cbcd
cf gh
gggggggg gffffff
cbbb cbbbbbb
hbhb hbhb
edd cc
effff ffffffffff
eeeeeeee eeedd
edddd eded
ggf gggff
cff ef
aaaaaaaaaaaaaaaaaaaaaaaaaaaa aaabb
aaaaaaaaaaaaaaaaaaaaaaaaaaaaaaaaaaaaaaaaaaaaaaaaaaaaaaaaaaaaaaaaaaaaaaaaaaaaaaaaaaaaaaaaaaaaaaaaaaaaaaaaaaaaaaaaaaaaaaaaaaaaaaaa aaaaaaaaaaaaaaaaaaaaaaaaaaaaaaaaaaaaaaaaaaaaaaaaaaaaaaaaaaaaaaaaaaaaaaaaaaaaaaaaaaaaaaaaaaaaaaaa
gegf ggf
aabbb abbb
cce gff
edd cdef
ghhhh gggg
ccbb c
ghgf eff
ceed ed
edcd eed
aaaaaaaaaaaaaaaaaaaaaaaaaaaaaaaaaaaaaaaaaaaaaaaa b
cbbbbbbbbbbbb bbbbbbb
eeeeeeed ed
cbb cdff
cdcdd b
cdbb a
gghh ghh
ecb ccd
eeee effgf
ccbb ccccd
cee fffff
edd bbbb
cced ff
cbbbb ccbbb
cccccccc cdddd
cdf gd
gaga gbgbf
Ġ ce
efff gggff
aaaaab abbb
eeeed ee
cbab aab
ccb ca
ghhhh fe
cabab a
eeeef gggf
def ee
aca da
ghf ee
cddddd b
gffff gfff
ccddd eef
efffff eed
cff e
eeefff eff
eeeeddd f
ggggf eeff
gghhhhhh gff
cdbb abb
cbb aaaabbb
eded eed
edd egf
cbbb ced
gggh gggff
edddd cddd
dcb aaaab
hdhd hdhe
eefef df
cbb aaabbbb
ccb aaaaa
gff egf
hhhhhhhhhhhhhhhhhhhhhhhhhhhhhhhh hh
gd gb
hd h
edcb aaab
gf ggff
eeeff eeef
dd efed
cccc eef
eeee egf
db ebeb
ggh gggggh
eee ccdd
gcfdee cfb
ggg efe
ecb c
ggggggg ffffffff
ggg eddf
cccd ccccd
ecd cddd
cd eeeddd
cccc ff
ffff e
fff gggf
ggh gggghh
cccb aaabb
gef eed
ded ccd
eddddd b
gg cb
ggf dcd
cef ggff
ghhhh he
ggh gee
eedd cbbb
eeeeeeee eddd
cd ccdf
gf bb
cb ccccddd
edd eefff
cbbbbbb ccd
ccbcb ccd
eb ecf
cd cece
aabbbb aab
gggggggg ghgh
gc eddecfb
ghhhhhhhhh ggf
gggghhh ggf
gghhhh gggf
ghhf ed
ccb dff
eded bb
def df
gghh ggfff
e ghhhhhh
g cbd
eh gd
ghhhhhhhhhhhhhhhhhhhhhhhhhhhhhhhhhhhhhhhhhhhhhhhhhhhhhhhhhhhhhhhh hhhhhhhhhhhhhhhhhhhhhhhhhhhhhhhhhhhhhhhhhhhhhhhh
ffff gff
bbb aaab
ced eff
gggh ggghh
ghgd bb
Ġ ccbb
ggg efd
hc he
cccbbb abb
gfh ghgh
gbgcf ddf
efef egf
gh gfffff
hhh gfff
eb ec
eeeff eeff
efef ded
hb hahb
g cdf
cd cbbcd
cf eed
cccccccc ccccdd
eeedf df
gd fff
aaaaaaaaaaaaaab ab
aaabb aaa
eeddd eddd
ea dada
ee gggff
ce ggggf
cbcb cbcbbb
dd cbd
edd c
ddd eeed
db e
cddd ccbbb
cddddd ef
h ghhhhhh
edd edddd
effff eeff
de ghh
ggffffffff fff
eff eefff
gh ggee
gcgc gcf
Ġ dbb
aaaaaaaa bbbbbbbb
hh gb
df gfe
cccb cccc
gfef gff
eeeeddd ed
cbaa bbbbbb
a e
cccb cccdd
Ġ hhhhhhhhhhhhhh
cddd efff
gghh gfe
ahahahah ahah
eefffff ed
edbb ab
ee cbd
ghhh gffff
ggghhhhhh gf
abab aaaab
cddd eddd
ccdd eeedd
fd c
ggggh ghghghgh
ggggggh gf
g ccf
hhhhh ff
ccc aaa
gghhhhhhhhhhhhhhhhhhhhhhhh hhhhhhh
Ġ hgh
gff gfgf
cddd cb
aaaab f
bbbb aaab
ce ggd
cdcd cdcccc
Ġ c
cef dcb
gghhhh ff
cbbbbb cbbb
cdddd ccd
ee gfgf
eff eeee
ccbb abbbbb
eeffff ggf
effed ff
Ġ ddf
db ed
ecd ccb
cce gggf
ffffffffffffffffffffffffffffffff ffffffffffffffffffffffffffffffff
cdb cbb
hhhhh ge
cce ge
ghhhhhhhhhh ggf
ggggf ggggf
ccbbb ccbbb
cbabb d
aaaaaaab aaab
dd edb
ee cccdd
edd ccbbbb
cce gfd
cabab aaaab
cccccc bbbbbbbbb
g ccd
dddd e
dbdb dbd
ggggggff ef
ggghhhhh ggf
dd cbcd
ge hehe
abbb aa
eeeeeeee eeeef
cab abbbbb
egh gd
h ggfff
dd cbab
edd efgf
gh geed
ggggff e
aaaaaab a
gggggggf ed
gg edde
cc edef
cdd cdcd
cbb cccccccc
cdf ged
ded fff
cd cccccb
ggh ggggfff
gfff eeef
gggfff eff
cbbb aaaabb
ghhh ghhhhhhhh
aabbbb abb
ghhh d
ggggggf ggf
gggg ghhhhhhhhhhhhh
cdb aabb
cefff ed
ce ggfd
aaaaaaaaaaaa bbbbbb
aaaaaa bbbbbbbbb
gbgc ee
ggg b
cee eb
ccce gf
gggff gggff
gef dfd
ecb aaabb
h ggef
cc dddddddddd
dd efe
eef eeeed
db aaaaa
de gfd
eefffff ef
eef eeedd
gege gdf
ddd cb
ca cbd
ce ceddd
gghhh fd
aaaaaaaa aabbbbbbb
cdd ede
de gd
dd efgf
ccd efgf
cccd eeef
aaaaaaaaaaaaaaaaaaaaaaaaaaaa aaa
eff dcd
eeed ccb
ggggf eeef
ccbbb cbbbb
efff eeddd
cdb aaaab
ecd bbb
cccd ccccb
aaaaaaaaaaaaaaaa aaaaaaabbb
ccd egf
aab aa
ec aabb
aaaa ababab
cccb ce
cbbbbb ccdd
abbbb abbb
gghhh gfd
gffef eff
gggggggffff fff
ggg dcb
eef gffff
cccdd eeff
h geb
hhhhhhhh hf
eeee edded
ddd eee
cba cf
eef hhh
gghh ggh
edddd eeed
ebf cf
ccccccd ef
g eedb
bbbbbbbbbbbbbbbb bbbbbbbbb
cdddd e
gg bb
dd bbbbb
cdd eeddd
fb a
ecb f
gcgd gdf
gggh ggggh
egf hf
cccbb ccbb
ghhhhhhhhhhhhhhhhhhhhhhhhhhhhhhhh hhhhhhhhhhh
cdd ffff
ge gggf
edf ggff
cbbbbb a
ghgf ggf
gffffff ef
e hhhhhh
ecd ecfb
cccbb aabb
fa eaea
eddf ef
gfffff ggf
df ebb
ddf gff
ggghh ff
cccccb ccd
ga gahb
ccf e
eef ghh
df efd
ced edde
gghhhhh ggff
eeeeeeedd dddd
efef efd
eeeeeeee efff
efe ggf
cbbbb cbcb
gfff efff
cb cccccdd
cccd cccccccc
cdcd e
Ġ dee
cbbb cbd
cccb ddd
eeded edd
gaha gbfceddecfb
bbbbbbbbbbbbbbbbbbbbbbbbbbbbbbbbbbbbbbbbbbbbbbbbbbbbbbbbbbbbbbbb bbbbbbbbbbbbbbbbbbbbbbbbbbbbbbbbbbbbbbbbbbbbbbbbbbbbbbbbbbbbbbbb
aaaaaaaaaaaaaaaaaaaaaaaaaaaaaaaa aaaaaaaaab
geff gff
dc aaaab
ee cab
gd gcf
ccbb cc
ded eff
cded cbb
aaaaabbb ab
eef eeeef
eeed eee
ede gggf
ecc bbbbbb
ceeed b
hh ghh
cccc cccbbbbbbb
cf gge
ccbbb cddd
gbgb hb
eaea fafa
ghhhhhhhh ghf
ghhhhhh gggf
ecc ced
edd eeeef
ccb ccdddd
gffff efff
c eeddf
edd ccccb
ccdd eded
ghhhhh gh
eeeefff ed
gffff ee
edcb abb
caa bbbbb
cdeed bb
gcfdeedfcgb hbhb
ded cd
gggggggggggg gggff
d efff
eeee eefed
ccb ccccdd
eddd eefff
ddbb ab
aaaaab df
aaaaaab abab
ggghhhh gff
ec gf
ggffff ggf
cff dbb
ecc eff
eeeefff ef
dd ecb
cbb cbab
gd cb
ghhhf ef
aa cee
ee ggggf
gggg ghhhhhhhhhhhhhh
ccbbbb aaab
cccccd eff
gfgggg hhh
e ghhgf
edf eef
cdf hhhh
eeddd ccd
gghhhhhhh ggf
Ġhhhhhhhhhhhhhhhhhhhhhhhhhhhhhhhhhhhhhhhhhhhhhhhhhhhhhhhhhhhhhhhhhhhhhhhhhhhhhhhhhhhhhhhhhhhhhhhhhhhhhhhhhhhhhhhhhhhhhhhhhhhhhhhh hhhhhhhhhhhhhhhhhhhhhhhhhhhhhhhhhhhhhhhhhhhhhhhhhhhhhhhhhhhhhhhhhhhhhhhhhhhhhhhhhhhhhhhhhhhhhhhhhhhhhhhhhhhhhhhhhhhhhhhhhhhhhhhh
eeee eeeffffff
cdd cbab
cccb cc
gfed eef
ce cdddd
gfff dd
abbbbbb ab
cdcd bbb
gggg geed
cccc cbab
ghh ghghghgh
gggggh gff
cbbbbbbb abb
fbfb eb
ed eb
edd cf
eddd cccdd
ccc eeee
ghhhhh ghhhh
aaaaaaaaaaaaaaaa aabbbb
gggff eeff
gggggf eed
ggfed bb
dcd bbb
aaa cc
efef eeef
ddb abb
cddd cbbbb
aaaaa bbbbbbbbbb
gahahahahaha gcefb
ddd cbbb
ccbb cccdd
def dd
ceed ef
cbbbb bbbbbbbbbbbbbbbbbbbbbbbbbbbbbbbb
ghhhhhhhh ghghghgh
aaabb aa
egf gggf
dee bb
ccdd eefff
egf gd
ghhhhhhhhhhhhhhhhhhhhhhhhhhhhhhhh hhhhhhhhh
edddd cccd
aaaaabb aaab
gggghhhh gf
cb aaaaaabbb
ggh gfgf
cde ccb
cccc ab
edddd eeff
ggffff gff
ghhhhhhh ggff
ggghgh ghf
ee cbcd
eed eeeff
ccdf ef
ghhhh ghghf
ccdd cbbbb
ecd cf
cbccb ab
gg eeeef
eeedd dddddddd
cef ecbb
ded cbb
cbbbbb aabb
cd bbbbbb
edd cdb
ge ccf
hhhhhhhhhhhhhhhhhhhhhhhhhhhhhhhh h
eded eeed
ec aaaa
eff edef
eed cdef
cccd fd
gef gff
cbbbbb cbb
cddd ccddd
gb gcgd
edf c
ec eeff
da dbdb
hhhhhhhh gf
eeee effef
cf gfe
eeeeeeee eeff
ceff e
gfgggg gfff
ed eee
Ġ gd
cccc bbbbbbbbbbbb
eeee eddef
ddf e
aaaaaaaab abababab
cccdb d
hhhhhh ggf
ddd fe
aaa cdd
eedd cdddd
cef gd
eeedd cccd
aaabbb d
gg dde
eb ac
gggggggggggggggg ggf
cdff ef
ccbbbbbb ab
h ee
ghh gghhhhh
ded bab
c ghhf
Ġ gggggggg
eddd eeddd
cccdd db
edb aabb
cb dded
eed effff
cb aaaabbbb
ghhhhhhhh ghgh
eeeffff gf
ege gef
cccef d
dd ede
gg eddef
cbbb db
gfd eef
ecd eef
h ggghh
cf ebb
ggh ghhhhhhhhhh
eb ccd
ggggh ff
gfffff eff
eedd eee
cbcb cccb
de cab
cccbbb ccd
aa ccb
cc abbbb
cdd ecb
ce hf
ge gfgfgf
eeeeeeee fffff
gggh ghhhh
cd eeb
aaaaaabb ab
cd ccdddd
ggg eccd
aaab aaaaab
ccccdd ff
cdd cdddd
ghh ggghhhh
cdf ggggf
cece cdcd
cbbb cdddd
ghh ggffff
aaaab aaaaab
eeeed edf
ggggfff ef
abbbbbbbbbbbbbbbb b
cb aaaaaaaaabb
ccdd fd
gggh gggggf
ea faga
ege gdgd
hchc hchd
gggg ghghghgh
gfff eeff
cdb ca
ce ceded
ggggfff ed
ababa caca
gh ee
gggggggg gghhhh
aaa bbbbbbbbbbbb
hh ed
cbb dddd
ccb cccccd
ggfff edd
gege fff
gghhhhhhhhhhhhhhhhhhhhhhhh h
hhh fff
dd cdef
eb aaaaaab
c eeedf
cd ccdb
gff effff
ccb ccdb
ggff eddd
ccdd ccccd
gb ha
ea fagaga
a cff
ge cef
gcfdeedf c
cdd cbd
ghh gggfff
eedd eeedd
eeeeed eef
aabbbbbbbb bbbbbb
ebd ccd
hh gghhh
f hhf
cd cedf
ce cccd
ghhhhhhhh hhhf
ggfff gggff
cf dbb
ghhhh gghhhh
eff ecd
eeed ccbb
gef dff
ababab abbbb
dd cde
gggg gghhhhhhhhhhh
edddddd f
cdd edcb
eff def
edf gggf
eded ecd
gggffff ed
geb aaab
cbb cbbbbbb
ccd gf
ghh ghgf
ggghhh ggff
gcfdeed fb
ce hhhh
eb cef
eeeff ggff
cd cff
edd cdcdd
eeded eef
ababab abbb
Ġ hhhhhhhhhhhhhhh
eeef efd
gghh gg
cbbbbb cccd
edddd bb
dd eeee
cccccccc ccbb
edf h
ghhhhhh ghhh
cdd efed
df ghhh
gggggf ggff
ghggf ed
cccdf gf
cccc ccef
df g
eff ggggff
gggf ggh
ccddd e
eff efe
cf efd
ghhhh ggfff
eee cddd
eeff ddd
ccbbb a
gggh ggh
ghhhhhh ghgh
aaaaaaaaaaaaaaaaaaaaaaaaaaaa aabb
gc ge
hh gdb
cbbb aaaaaab
gghh gh
aab aaabb
gc h
ggfffff gf
ededd ddddd
gff gggff
gggggggg gggfffff
gghhhhhhhh hhgf
aba db
aaaaaaaaaab abab
eff egd
eefff ggff
cccc ceed
eff effff
eded edddd
ggf eeed
ccccccd ed
gg ebab
abb f
aab aaa
ee cbab
ggg eeed
gggh ggggff
ccccd efff
dff b
gege he
hchc gd
cbb cce
eef gfed
gfd cf
hhhhhhhhhhhhhhhhhhhhhhhhhhhhhhhhhhhhhhhh hhhhh
cd cbbd
cccc cddf
cbcd fff
hahahahah ahah
db cff
cfb eb
hehe hd
cgbgb hahb
gggg eed
cdd effff
db aaaaaaab
aaaaaaaaaaaaaaaaaaaaaaaaaaaaaaaa aaaaaaaaaaab
hhhhhhhhhhhhhhhhhhhhhhhhhhhhhhhhhhhhhhhh hhh
gahaha gbfceddecfb
edd eeeff
gggggggg ggghgh
eeff eee
ecb aaa
cedd ef
eeffffffff ffff
cccb cef
edf efff
gef dfdf
gggggggggggggggg ff
aaaaaaa bbbbbbbbb
cbccd ef
hb ha
hh fff
df edb
eeef ddd
gghh gfed
dcb aabb
eeee dfdf
aab cbb
ghhh ggggff
eeedd ccd
eedf e
gbgcf edf
ggh gged
gghh gef
eefff gfff
eeeedddd ddddd
gggggggg g
ccbbbb abbb
cgc hbhb
gd a
efffff eef
gfe ccd
ee g
ccb aaaaaabb
gggggggggggg ggfff
eed eeeed
aab ef
ccccb cccb
gggg ghhhgf
cef ged
efef eedd
ccddd cddd
eddb ab
ccccd eeed
ghf de
cdddddd ed
cc abab
ggggf gggff
gghhhhhhhh f
gggggff ggf
gg c
ed gf
eeee ddb
ggg eeeff
gggggggg fffffff
cccccccc cbbb
fa da
eeeeff gff
hfhf hghgh
eefffff gf
cbb ccccbb
aaab abbbb
cbcb abb
eee ce
df ddd
ccbb cbbbbb
bbbbb abb
gggggggf ef
aab cdd
gc aaab
c eeeeef
df ghh
cccdd dddddddd
ccbbb cccbb
cab dd
eedddd b
ggh ggghhhh
cccccccc ccdddd
hf hh
eeffff eff
cccc cedd
eddd effff
ec eeed
efgf ggf
ghhhhhhhhhhhhhhhhhhhhhhhhhhhhhhhh hhhhhhhhhhhhh
gcgb hbhb
cc aaaabb
hhh gghhh
eddd cdcd
efefefef efef
ga gbgb
aaabbb aabb
df dcb
ccb cdb
aab aaaaab
cbcb a
cccccccc cccddd
ggg ddd
gfd bbbb
eeddd eedd
ceb a
cbcccc cccd
df gfff
gfd cb
cbcdd bb
ccb cbbbbbbb
ccb cdff
de cbbb
cccb cdf
gggggff eff
ccef gff
edde ggf
edb cf
edb aaa
e aaa
cb cccbbbbb
eee gfff
aaaab abbb
cccbb dd
effd bbb
cccbcb cbcb
Ġ aaaabb
aaaaaaaaaaaaaaaa abbbb
eddd bbb
cab aa
eeeffff ed
gghhhhhhhhhhhhhhhhhhhhhhhh hhhhhh
cbb aaaaaaabb
db aabbb
cdddddd ded
ccd ecd
gggf de
cdddd cccd
ge cbd
hh gdd
cb cccdb
gggf eeed
ghf hgh
aabbbbb ab
df ggggf
ge ffffff
gh ggghhhhh
gffff ggff
ecc ee
gggg ghhhhhhhhhhhhhhhh
eeef eeeff
ggfd eff
g eddddd
bb ef
hh gggh
db cc
db aaaabb
gghhh ggfff
eddd ccbb
ggffff eff
ghhf dd
cbc abab
cccd eeedd
ghhh gdb
ghhhhhhhhhh ghgh
hhhhhhhhhhhhhhhhhhhhhhhhhhhhhhhhhhhhhhhh hhhhhhh
gc eddf
hh ghhh
ghhhhh ggggf
hhh gg
eed ffff
cbbbb aabbb
cff dd
aba bbbbbbbbbb
Ġ aaaaaaaab
eef eefff
ccccdddd ddddd
ed c
edd ec
ce gggg
ccb cbcbcbcb
gghhhhhhhh ggf
eed cbbbbb
cbaab ab
cfcfcfcf cfd
gd cdf
eeef gggff
dd a
cd gg
cded cdd
eeee efefef
ccddd ccdd
cccbbbb abb
ghhh gge
cgb hahaha
ababb d
hhhhhhhh hgf
aabbbb d
ghgff gf
cbbb abbbbb
cccb aaa
gghh ggghhh
cccccd cccd
gfgfgf gfff
e cddf
hh ggggf
ggg edcd
df cf
df hhf
eb ccb
cddd fff
ccbb aaaaabb
cdcdd dddddd
gggggh ggff
gbgc gdf
eeee eeddddddd
eed c
ccddd bbb
cdcccc bbbb
eff edddd
ggh ggfed
eeeeeeee ddddd
ccbbbb cd
cc aaaaa
ccd ecbb
ggggff eedd
ghhhhhhh ff
aaaaaaaaaaaaaaaaaaaaaaaa bbb
g eeedf
aa cdb
aaaabbb aab
eeddd efff
cbd cf
cdee ddddd
cccd efed
cef eff
ed ab
eef efffff
ghh gged
ccbb ccccb
ecb de
ece ceb
cc eefd
ccd cbcd
df eee
ghh ggfd
aaaaaaaaaaaaaaaaaaaaaaaaaaaaaaaaaaaaaaaaaaaaaaaaaaaaaaaaaaaaaaaaaaaaaaaaaaaaaaaaaaaaaaaaaaaaaaaaaaaaaaaaaaaaaaaaaaaaaaaaaaaaaaaa aaaaaaaaaaaaaaaaaaaaaaaaaaaaaaaaaaaaaaaaaaaaaaaa
eeddd fff
bbbbbbbbbbbbbbbb bbbbbbbbbb
Ġ gggff
hh ggh
ee gfd
edd eeeed
gh gghhhhhh
aaaaaaaaaaaaaaaa aaaabbbb
dcb ce
efggf gf
gggg gghhhhhhhhhhhh
cccccccc cccccccd
df gge
ghhhh gggff
cccbb ccb
eeeddd ff
ee ghgf
cdd efd
ccdf gff
cc cfd
ccd cbab
ghhh gggggggg
eded eff
ege fff
cef gfff
dff gff
eede cfb
f cfb
cd ccccbbb
ddd eedd
ghhhh gfef
cccd fe
aaaaaa c
ffffffffffffffff ff
ccd cf
dd ccccd
cccccccc bbbbbb
gghhh ghh
gggfff ggff
gggggggggggg hhh
fbfb fbf
gfh ggf
cb cddf
eee cdf
eeedd ddef
fd gd
cbdd ff
cc aabbb
ege gdf
eddd eeeed
ged eef
ga d
dcd fff
Ġ dddddd
aaa cb
cccdd eeed
aaaab aabb
dff db
cbb ccccdd
egf eff
aaaa cd
edd cccbb
ddd ccdd
df gh
ghhhhh g
gddgb hahahahaha
ed cf
eded eeff
eeedd ee
fh gd
cd eddddd
ce cee
eeedd eeed
ded eeef
ccccb aaab
gged eff
aaaaaaaaaaaaaaaaaaaaaaaaaaaa a
ghhhhhhhhhhhhhhhhhhhhhhhhhhhhhhhhhhhhhhhhhhhhhhhhhhhhhhhhhhhhhhhh hhhhhhhhhhhhhhhhhhhhhhhhhhhhhhhhhhhhhhhhhhhhhhhhhhhhhhhh
cdef eff
cdcb cdd
gg eefgf
eed cdddd
ca daeaea
aaaaaaaaaaaa aaabbbbb
c hd
hhh gfe
eee bbb
gef ge
cccccbbbb bbbbbbb
cccdd ccdd
ggfffff ef
cbbbb cccbb
ced cdd
cdf dbb
cdf gfed
cdb cbbb
aaabbb abbb
ggg hhhhhhhhhhhhhhhhhhhhhhhhhhhhhhhhhhhhhhhhhhhhhhhhhhhhhhhh
ecb abbb
eeddd cccd
ecf cgbgb
ced cbbb
bbbbb aab
cccb cccbbb
ccccb cb
gggfff gfff
aaaaaabb d
gghh ghhhh
cbbd fff
efffffff gf
cbdd bb
ggg ecc
cbbbb aa
ce cfc
ceff ee
aaaaaaaaaaaaaaaa bab
gb aa
ced eb
hb f
ceb fafa
gghhhhhhhh hgh
efffff gggf
ce cbbb
eeedd cddd
eeefff gff
cc ad
ccd eeeff
ce cab
ccb ccccbb
ghhhhh ghh
cd eeeeed
ccd edcd
eed efgf
aaa de
eeed ede
gfd cdd
dd eded
eed eddddd
efef dfdf
ecb aaaaaab
cbb aaaaaaaaab
cccccccc cccccb
ccccd eedd
ecdd ef
gbgcf deed
dddd eff
gghh gggggf
gaga gbfceddecfb
Ġ eee
hhhh g
ed ecd
cbb aaaaaaaaaaaaaaaaaaaaaaaaaaaaaaaa
efff eeeef
gb gdf
cbab f
gbgc gcf
ce gfed
ge gefd
efe bbb
ghggf ef
haha gbfceddecfb
gghhh gggff
def gggf
cb cbbcd
eeee ggf
gh ghhhhhhhhhhhhhhhh
gghhhhhhhh hggf
cbbbbbbb d
cddb a
bb cef
cccb df
cccc ceef
cddd edf
aaaab abababab
egf hgh
ccccd fff
cfd eed
cdd ccbbbb
ccb ceff
gghhh ghhhh
ggggh gggggggg
eef ghhh
cbbbb abbbbb
ggff ggfff
eeff eeeff
ccbb cccbbb
ded ecd
ccccb cccd
eefff eeed
dd ab
ccbb aaabbb
ccbb aaaaaaab
ced ece
aaaab abab
cbabb ab
ccb aaaaaaaaab
eed eeddd
ghg ddf
aaaa bbbbbbbbbbb
cbb ddb
cbbbb aaaaab
aaaaaaaaaaaaaaaaaaaaaaaaaaaaaaaaaaaaaaaaaaaaaaaaaaaaaaaaaaaaaaaa aaaaaaaaaaaaaaaaaaaaaaaa
aba bbbbbbbbbbb
gghhhhh gggf
gh gghgf
hhh ghh
ccb ddf
eeeeeeee eeeeed
a fb
dd cbbbbb
edb aaaaab
ggggff ee
df ecbb
ggggf eedd
cdf eef
aaabb aaaaab
cee bbb
cbbab abbb
ecdd ff
cccef ed
a bbbbbbbbbbbbbbbbbbbbbbbbbbbbbbbb
ccbb cded
ahah aha
cccbbbb bbbbbbbbbbb
ffffffff ffffff
dcb cdd
gh ghhgf
aaaaaaaaaaaaaaaaaaaaaaaaaaaaaaaa aaaaaaaa
hh gg
ggg hhhhhhhhhhhhhhhhhhhhhhhhhhhhhhhhhhhhhhhhhhhhhhhhhhhhhhhhhhhhhhhhhhhhhhhhhhhhhhhhhhhhhhhhhhhhhhhhhhhhhhhhhhhhhhhhhhhhhhhhhhhhhhhh
ccccdd eef
gedd df
cde cdd
aba cab
cccddd cdd
dc eee
hdhd hdhd
a eb
ccb aaaabbb
efef efeff
eeedd bb
ecdd cebfb
aab abab
eeef eee
cdddd cdcd
cccbb cccd
eeeed cd
db dff
ccdd edddd
cccccccc cbb
cccdd cbb
ggghh gfff
eeed fe
de ghhh
hhhf ef
ge cbbb
eddd cbbb
ggfd cdf
gghhhhhhh gff
c gdgd
gfgf hf
aa ef
cccccccc cccccdd
c aaaaabbb
aaaabb aabb
cccccd eed
cece ceb
eb cdd
ggggh ghgggg
ggggggf eef
eef dfd
eb aaabb
gd he
cef ecd
geff ggf
gggggffff fffff
Ġ cccb
aa cb
cc eegf
eeee ffffffffff
db ddd
ggghh ggggf
cbccd ed
ggggggff ed
hh geef
eeffff eed
ghhhhhhhhh gff
gbfd eedfb
gh ggfffff
ggg efgf
ghh gggggff
ccdd ccddd
ccc eeddd
eff gfed
ccb cdcd
cef ggggf
caaab ab
effed bb
ccccbbb d
dddf gf
e gc
cccc ccddddddd
cdddd ee
ghhhhhh gfff
cbcd edd
cd ccbd
cf edb
ced eeff
cbcd bbb
aaaaaaaaaaa bbbbbbb
Ġ bbbbbbbbb
gd eef
cde bbb
gfgggg hhhh
gggffffffff fff
eedfcgb hahahb
e gghhh
cbbb cdcb
ccbb ded
ccbb ccddd
efe cdd
ghhhhhhh gggf
dc fff
aaaaaaabb ab
cccbbb cdd
a cdf
cbbbb cbbbbb
edddd efff
gh ebb
cbbbb cdef
aab ce
ggggf gffff
aaaab aaabb
ghhhhh gfed
ccd ffed
ccdd ccbbb
ced eeef
eeffff eef
ceb ebfb
Ġ aaaaaaaaaaaaaaaaaaaaaaaa
cf ghf
abb cd
aaab aaaaaab
eeed eefff
cce cdb
cbbbbbb abbb
gfh ff
cgc hb
g eeeedd
cded cd
dff ggf
hgh d
ee ggh
ghhhh ggh
dbbb d
cc efffff
aaa cff
cef edb
gggh gghhh
gfd fff
da f
geff efd
caab ab
gbfd eecfb
ccbb abab
da eb
cccbbb aab
ggghhh gggf
cf ddd
cef ddd
eeeff efff
ghhhh gef
ghhh fb
cbcb cdd
gfgf e
aaaaaaaaaaaaaaaaaaaaaaaaaaaa aa
cccc edd
cf hg
db ad
aaab cd
gghhhh ge
eed efed
eef gggggf
cccccccc ccbbb
cbbbbb abbbb
eeeff dd
cccbb cccb
ebd cdd
ggg edcb
cee gff
gggggggf gff
ccb dddd
cccd cccb
eedd ccccd
ccbb ccbbbb
eef gfe
gggf gggggf
eb cdf
cddd eee
ggff de
ghh geff
effff ggggf
dbb f
cbc fff
eh ge
cb aaabbbbb
cbb acb
ggff eeed
hf ed
hc gb
ee hhh
cef gfe
eeeef dd
a ccb
cc eedddd
cc aaaaaaab
eff ggh
cddd cccb
ggfd ccd
ghhhhhhhhhhhh f
hh gfef
gfff ggfff
gghhh ged
ghf bb
dff dd
aba cbd
gdd bb
h eb
df efff
eeff eefff
ff gggf
gf g
cbbb aaaaaaab
cdf gfe
eeeeeeee ee
abbbbb aab
gfgggg ffff
cccccdd ef
ccd cddddd
bbbbbb d
h geef
hhhhhhhhhhhhhhhhhhhhhhhhhhhhhhhhhhhhhhhhhhhhhhhh hhhh
aaaaab aaaaab
ece cdd
ddd eeef
cddd eded
gghhh gg
ggggggf gfff
dded bb
hchc hb
aaab aa
ccbbbb ccdd
gegf hf
ccb cccccb
aaabb abbb
edddd eddd
gggghhhhhhhhhhhhhhhh hh
c gge
cc acb
ccbbbbb aab
edcd fff
bbbb cd
edd cddddd
efff eeedd
cdcd ccccd
cef ebb
cdb cd
ccccb cd
eeffff ffed
eeb aa
g eeeeef
Ġ fffffff
cbbabb d
ghhhhhhhhhhhhhhhhhhhhhhhhhhhhhhhhhhhhhhhhhhhhhhhh hh
gggg ggghhhhhhhhh
cdd bbbbb
cbbb aaaaabb
ca cbcb
ghhhhhh fd
ggggghh ggf
ggfff ggggf
cedb aab
gh gghhhhhhh
ccd eded
cbbb ceff
ghgh ff
cdf eff
gghh gfef
ghhhhh gfe
gggfff eef
aaaaa ce
cdff e
aaaaaaaaaab abb
cbcbb a
gggf dcb
ghgggg ggff
ffd bbb
edd cde
cccdd eddd
ccbbb aaaab
ebeb ebdb
aaaabbb abb
cccf gf
Ġ cccccccc
ccbb cbcb
e hhgf
Ġ cbbbb
ghhh ghhhhhhh
geb aa
gfffffff ef
g bbb
efff gffff
ccbbb df
ccc eefff
eeeef ggff
ccbbbb aabb
cece ceced
cdcb aa
eeded edf
ghhhhhhhhhhhhhhhhhhhhhhhhhhhhhhhhhhhhhhhhhhhhhhhh hhhh
cccbb ccdd
ee cde
ggg eeee
eee ge
cccdd bbb
cedd ede
gggg ggghhhhhhhhhh
ccb dcb
gggf db
hehe hehe
cccef gf
gefff gf
eff eeeed
edf hhh
cccccc dddddddd
cc ffed
cbb cbda
de hhh
cccbb cbb
cdcb aabb
gggggggf d
gghh fe
cccbb aaabb
hhhhhh gff
aba cabab
eefef eed
gh ghhhf
efef gff
gghhh gd
cccd effff
gggggggggggggggg gf
Ġ aaa
cc abd
eeeeeeee ded
gghh ggggh
cccbb aaaab
ccc effd
cccbbbb d
cdff dd
ghhgf ee
cbbab aab
cb egf
ge gfgggg
eeedd eedd
ghhhhh ghhhhh
eedf ggf
edd cbbbbb
edf gg
edf cfb
dff ee
cbbcd bbb
acaca caca
cb fd
ce hhf
ccb ccf
db cdb
gggggggh ggf
ab cf
cgb hbhbhb
gchbhb hbhb
edd cccccccc
eeef eeeed
ggggff ggff
df gggg
cccb c
edddddd dded
ggg eefff
cccb aaaaaab
ccccd ccdd
efd cdf
efed cdd
b aaa
gh gggffff
ge gfe
ced bbbb
ced ede
ged fff
gggggf ggggf
cdc aaa
dfef df
eded fff
ccbbb aaabb
ghhf ee
fbfb fbfb
aaaaaaaaaaaaaaaa aaabbbb
cbb aaaaabbb
eddd eeee
eeed cccdd
gghhhh gfff
gdf dfdf
efed eef
cb aaaaaaaaaaaab
efff eeeed
eeddd cd
dcb db
eeeffff ef
edd efe
cbbbbb cbbbb
dd cab
gggf gef
eeed cbbbb
eeef de
ccccb cbbbb
cb ccbbbbbb
cbcd cbb
aca db
eef egd
cdd edb
gd edf
ggffffffff ffff
aaaaaaaa abbbbbbbb
dddd ee
edddd ccdd
cccccc bbbbbbbbbb
ce gged
ded eeff
cdcdd ff
ccd cccddd
ccbb cdddd
ghggf gff
ghhhhhhhhhhhhhhhhhhhhhhhhhhhhhhhh hhhhhhhhhhhhhhh
gggghhh gff
cbb aaaaaaaaaab
ccd cdf
cbcbbbb bbbbbbb
Ġ hhgf
edd cded
ghhhh ggghh
ca cbdb
gghh gggggggg
hhhhh gd
cedd df
gedd ed
cef hhh
abab acb
aaabb a
eeeff eedd
ddf ee
ggghhhhhhh gf
h gdf
ggg efggf
ccd eeeef
cddd bbbb
efed cd
gegf gfff
Ġ ffed
gg eegf
edd eb
ghhh ghgggg
eded ede
abbbb aabb
ccc aaaab
gggggf dd
aaaaaabb aab
cee bab
hhhhhhhhhhhhhhhhhhhhhhhhhhhhhhhhhhhhhhhh h
df hgf
ghf he
cedf de
cbcbbbb bbbbbbbb
ccb ef
ggff eee
dbb aaab
hgh e
Ġb aab
Ġ ffd
eeee ecb
ghhh geef
cbcb dbd
eeeeeeee edddd
cde cbbb
gee ggf
eh g
eeeeeffff fffff
effffffffffff fff
ghh gfgggg
eeef eeddd
cdcd cccccccc
ccddd cbb
cfc gcf
Ġ fb
ced edddd
gghh gghhhh
efd cdd
aabbb aaaab
ccccbb aab
dfe gef
aaaaaabbb ab
ccd ede
eeff ggfff
dcb dd
cff gff
ccf gff
gggggggg ggffffff
cdcd ee
gfgf gfffff
Ġ ffgf
df gfed
dddddddddddddddddddddddddddddddddddddddddddddddddddddddddddddddd dddddddddddddddddddddddddddddddddddddddddddddddddddddddddddddddd
eed cded
abbb abbbbb
gghhh ggghh
ggghhh ff
cddf ggf
edd ccccdd
ge gee
ggh ggd
eddd ffff
eddd eeeef
hd hb
eedddd dded
ghg eee
cdfff d
cgc gb
Ġ dded
cbb dcd
ccbb cccc
gef hh
ded eedf
eeefff ggf
ababab aab
eb ddd
ccbbb abbbb
ec aaabb
ccccddd ed
eff gfgff
cfb gagaga
ccdb aab
gcfd efd
ccd edf
ghh gc
ggggf efff
eddddd eef
cbc eee
eafafa faea
gggf ggfff
ggh gggggggggggg
cdf edb
gggh gfd
gggggf gffff
eeefff eef
eafafa fafa
eeed eeeef
eeeeeeee eeddd
cdddd cddd
aaabbb aaaab
cdcb aaaab
eeeeef eed
cba c
cdded ff
aaaaaaaaaaaaaaaaaaaaaaaaaaaaaaaaaaaaaaaaaaaaaaaa aab
ef gggff
cf ggd
cbbbbbb cdd
cddddd cdd
cddb aaab
Ġ hhf
cb ccce
ccd cccccd
ce cbab
ge cce
eeefff eed
dde bb
aabbb aaabb
aaaaaa cf
cc eeeddd
gh ghhf
cbbb cdff
cccd cbbbb
ded cdd
aaaaaaaaaaaa aabbbbbb
cgbgb gbgbf
h gggff
eddd eeeff
ccbb cdef
gggggfff gf
ccb cccddd
cbbb dcb
gggf gggggggg
gggf ghh
cccccccc cbbbb
efef efe
ggggh gggff
gfed ee
ghhgf eef
aaaaaaaaaab aaab
cb eff
aaaaabb abb
Ġb abb
ece fff
cd cbbbbbbb
gh gffef
edf ddd
hf e
ccdf e
dee fffff
ghhhhhhhhhhhh gf
cccc cced
ccdd fe
eeeed edddd
ghhhhhf d
ccbbbbbbbbbbbbbbbb b
hf gef
efe cdf
ccf gd
aaaaaaaab aab
cece cecd
hhh e
ggg effff
ccb cccbbbb
gggh ggggggf
eeeef df
effffff d
ce ghhhhh
cdcd eff
gghhh ghgh
ghge bb
gbgcf dee
cd eddb
ccd cdccb
cf edd
db ac
gge cc
eddddd ff
gg ded
ggg ddf
efff eeee
eb abbb
abab d
ccddd ee
eddddd edd
ghh gedf
efff df
gfd c
fa d
ege bb
ef hhhh
cbb abbbbbbb
ccb ceed
gggh gfe
gh ggghhhhhh
ga gahaha
gggghhhhhhhhhhhhhhhh hhhh
hhh ghhhh
cf ghgf
db dbb
cbbb cee
cbcd eef
ccdf gggf
eddddd eff
eeeeff ggf
cf eef
ccbb cdcb
eeeed eedd
fbf ced
ggh ggghgh
ca df
ec aaaaaab
eeffff ffgf
abababab abb
h gfgf
hhhhhhhh hhf
cbb cccccd
ghh ggfed
ccccd bbb
gege gegef
eh ff
h ggfgf
ggg def
ge cdd
effff gffff
ggh ggfd
cdddd eddd
cccbb cddd
hchc gdf
gg cab
ccc edddd
ece cdb
df ghgf
ccb aaabbbb
cccb cbbbbbb
eddf gff
cd ccf
ccd ccccdd
gghh ggggff
cccbb abbbb
fh g
cdf gfff
efed bbb
b aaaab
dd edcb
hhh ghf
cbbb aaabbb
ghh ggef
egh ff
hdhchc hchd
dd ccccb
ef ged
ef g
ccb cff
ghhhh fff
cccd cb
edb ce
ggffff eef
ddb aaa
aaaabbb aaab
cdded bb
ggg edbb
ccd cbd
edb df
gge ge
eeddf gf
a cacaca
dddd eef
ddd bbbb
gggggggg ghhhhhh
ghh ghggf
cccb aabbb
fd eed
ceb dbd
eedddd eff
cddd ede
ccdd bbbb
eeff gggggf
eeef ggfff
gggh ggghhh
ccbcb cbbb
cdcd cddddd
gggggff gff
Ġ ccbbb
cf geb
ghhhhh ghgh
aaaaaa bbbbbbbbbb
cc eddcd
dd effff
eeed cb
cccccccc cddddd
dff dbb
edcd eef
eecb abb
aa ca
gff gd
gggf gggg
ghh gghhhhhh
eeeeeeee eeeeef
eeeff gggff
gge ccf
effed eff
cc ddddddddddd
ccd cef
fb gbgb
cce ggff
cbbcd eff
ffed ff
cd caa
gggf edf
efff efffff
ege gfgf
Ġ ggfff
ef hf
ggh ggggggff
ggh gggghhh
ccbb cde
eeeddd eef
hhhhhhhhhhhhhhhhhhhhhhhhhhhhhhhhhhhhhhhhhhhhhhhh hh
gg eeddd
ddd eddd
cccdd ddef
gee bb
cabb ab
egh fd
hahahaha gbf
c aaaaaaaabb
cc eeffff
ddd cddd
cccd ce
eb aaaaa
ghhhhhhh ge
gffff eeef
gfff eedd
eee ccbb
cccdd cd
bbbbbbbbbbbbbbbb bbbbbbbbbbbb
dbdb dcd
cfc gcgcf
cec edddd
ghhhh ggghhh
cccd ccddd
ggff df
ccccd eeff
ccccb db
gge cbbb
eeeefff d
ghghf gf
cfcfcf dfd
eeee ededed
cdddd eeed
eefed bb
Ġ bbd
ccd ccbbbbb
cccb abbbb
gef effff
eeeedd ff
hehehe hfh
gg cd
cccb cded
ggggh ggfff
ggggff edd
dcb aaa
cbbd eed
cccc cbbab
hhh fb
gggf dbb
ggh gghhhhh
eeedd eeff
aaaaaaaaaaaa abbbbbb
cdef eef
dcb df
ggfd ee
e gggggf
aaaaaaaaaaaaaaaa bbbbb
cbb ccbbbbb
cf hhgf
ge gffgf
dcd eed
hgf b
ccd bbbbb
ccb aaaaaaabb
hhhhhhhhhhhhhhhhhhhhhhhhhhhhhhhhhhhhhhhhhhhhhhhh hhhhhh
cccd eeddd
cccd cdcdd
ghhh ggg
aabb aaaaab
ghhhhhh gd
fbf cedd
e ccbbbb
f dd
eff ede
aabbb aa
eeeeef ggf
cccbb cbbb
a ced
h ghhhhhhhh
cccc cccbbbbbbbb
ge hfhf
efff de
cccbb ccbbb
eeeddd eff
gh gffd
eedd eeddd
eefff eddd
ghhhhhh gfd
eeee gff
ggggh gfff
efe cbbb
ggghh ge
eddddd cdd
c ghgf
aaaaaaaaab d
cdc eddd
cc effe
efff ggfff
de cbab
ggggf eddd
ceef dd
aaaaaaaaaaaaaaaaaaaaaaaa abbb
ghhhhhhhhhhhh ghgh
cbb cedd
cbb aabbbbb
ghhh ggghhhh
gffff ffffffffff
cef eddd
eee gd
gef eefd
ccccddd b
aabbbbbbbb bbbbbbb
Ġ aabbb
bbb cdf
abab abbbbbb
hhhhhhhhhhhhhhhhhhhhhhhhhhhhhhhhhhhhhhhhhhhhhhhh hhhhh
ed eeef
ccc aabb
bbbbbbbbbbbbbbbb bbbbbbbbbbb
aaaaa bbbbbbbbbbb
ggfed eff
cd ccbbbbbb
gghh ghhhhh
efed ee
eeee edddddddd
ccb aaaaaa
eeeeeeee eefff
ceb aab
efffff edd
cff ee
ccf ee
dc eddd
eeeeee dddddddd
cabbb ab
Ġ aaaaabb
effff eddd
cbcb aaab
aaaab aaa
gghhhhhhhh hf
cccc ccbd
eeff gggg
edddddd ef
ghh gdbb
cccd ced
cddf ee
h ggg
eff gfd
ce gfff
abb cdd
ghhh gghhhhh
e ccccb
effff eeed
gb ed
ghf df
ccbb f
eeef efe
edb cdd
ede bb
geef ef
ccccbbb ab
gh gghf
eeeef eeed
gege gegfgf
cccccd cddd
cbcccc bbbb
gg dee
cbb ed
cbbbb ccccd
gggf gfgff
edf gfd
cbbbbb dd
cde ge
ccccdd bb
dc aabb
ghhf de
Ġ gggg
eff gfe
ghhh gfgf
gghhh gfe
ede ggff
ccf hf
dfd eded
ggd ab
hh eb
hh gdf
cd cccbbbb
ebeb dbd
ggggggff gf
dada db
ghhhhhhhhhhhhhhhhhhhhhhhhhhhhhhhhhhhhhhhhhhhhhhhh hhhhhhh
Ġ dde
fff ddd
cef gfed
cccdd cddd
eeedd efff
ggghh gggh
cece cdb
ff dbb
ca bbbbbbb
edddd eedd
gfef ggff
gggggh ggggf
aaaa df
eff gggfff
eeeeddd ef
cceed bb
cb aaaaaaabbb
ccd cdcccc
eed cccbb
cf hhhf
gggggggggggggggg h
eeee eddf
eef ged
ge gdfd
efgf eeff
cccdf ed
gg dbab
aaaaaaaa bbd
cd caaab
ccbb aaaaaabb
Ġ gfgf
edd cccddd
ecb dff
ge ab
gghhhh ggggf
edb f
cbccd bb
ggggfff gff
eeedf ef
db ef
eb dbb
dc eeff
hhhhhhhhhhhhhhhhhhhhhhhhhhhhhhhhhhhhhhhhhhhhhhhh hhhhhhh
ccd cccbbb
cccd eeeed
eedd ccbbbb
efd cb
Ġ ghh
cbb aaaaaaaabb
gb gced
cdb cbdb
aaaaaaaaaaaa bbbbbbb
ddf dd
cfcf cfd
edcb cdd
ggggggggf gfgf
c gfd
eeee eefd
ccb dee
de ghgf
ghhhhhh ggggf
ccef edd
c ggg
e geff
Ġ edf
cbb dbb
eed cbcd
gggggggg fd
gghhh gggg
cab aaa
eedddd eef
cfb fbf
edddddd ded
cccdb db
gg effgf
ced ededd
eeeff ggggf
cfb d
gge ggf
cdcdd ef
df dff
ge gcf
gdfd eedf
Ġ aaaaaaaaaaaaaaaaaaaaaaaaaaaaaaaaaaaaaaaaaaaaaaaaaaaaaaaaaaaaaaaaaaaaaaaaaaaaaaaa
eee cf
cdf dcb
ccef dd
ffffffffffffffff fff
c he
ggf ecb
gff eddd
ccbbb cb
cab de
ddb f
cccddd bb
ebb f
Ġ hggf
gh ffd
ce ccbb
ccb cced
cee ddddd
ggghh gghh
cded ccdd
e ghhhf
ghh ef
ded cb
edb dd
gghhhhhh ggff
Ġ cccdd
aaaaaaaa d
bbb cef
ghh gb
aaaaab aaabb
efffff efff
ccf gfd
daea da
edd cccccd
gbgcf def
gf ddd
ab aaaaaab
eff gfffff
eeed eeeed
ghhh gedd
cdf eb
ggggh gggggf
effff gggff
edef gggf
Ġ aaaaaaaaab
ghhhh gee
aaabbbb abb
cbbbb aaa
ghh ghgggg
cbcb cccccccc
ceb ebf
dcb cf
c aaaaaaaaaaab
ee ccdf
hhhh ged
cbcb cd
aabb aabbb
ggfff eeef
eeeedd cdd
aaaaaaaaaa bbbbbbbb
Ġ cdf
aaaa f
ggf gffff
cccd efd
eb cc
ccbb aabbbb
de ggg
efffff gfgf
gge gd
Ġ aaaaaaaaaaaaaaaaaaaaaaaaaaaaaaaaaaaaaaaaaaaaaaaaaaaaaaaa
cbbb aabbbb
eeddd eeef
hc gcgd
cccccbbbb bbbbbbbb
hh gggg
ccb cdcbb
cdcd eed
hfhf hfhfh
ebdb ccb
Ġ gggggggggggggggg
gg dbd
bbbb cdd
eb cbb
eeddd bb
eeeef eeff
ccccb ccccd
gege gdgd
gggf df
aaab cdd
fa fbfb
aaaaaaaa ac
gh db
cdef ggff
efffff gfff
gghhhhh ff
ged cdd
ga fafa
hd gdf
cddb aa
eeddddd ef
eeee cd
cbbb aaaa
eeed cdf
de cccd
ccbbb ddd
egf edd
ghhhhh gghhh
eeeddd edd
aaaaaaaaaaaaaaaaaaaaaaaaaaaaaaaaaaaaaaaaaaaaaaaa aaaab
faea da
c eeedddd
eff gggggggg
cbb cbcd
ccdd eeeed
abbb aabbb
ec abd
efed ccd
ffffff ef
ghhhhhhhhhhhhhhhhhhhhhhhhhhhhhhhhhhhhhhhhhhhhhhhh hhhhhh
hegf ggf
gcgdf eefd
eeee cdd
ge gc
cgb hbhb
dddddddddddddddd dddd
e gggh
gff gegd
eeed eeeeeeee
gfgff ed
ffff ee
gff h
eeef eefff
Ġ abbbb
eeee ecbb
df edf
aaab ce
gd aa
ccdd cccb
ccc eeeed
ghhhhhh ghghf
edcb aaaab
ghhgf dd
caa ce
abbbbbbb ab
gfgfgf gffff
cfbgb hb
eed cde
gggggf gggff
ggggggh ghgh
dd fbgb
cbb aaaaaa
aaaaaaaaaaaaaaaaaaaaaaaaaaaaaaaa abb
Ġ aaaaaaaaaaaaaaaaaaaaaaaaaaaa
hhhh fe
eff g
cfcf dfd
Ġf ggf
effgf gfff
ceedd b
Ġ ccccd
eff gg
cf hhhhhh
ccbbb ccccd
ccc eedb
aaaaaaab aaaab
gf edf
eedddd ff
gggffff d
ccbbbbb ccd
dded ff
e cbcb
Ġ aaaa
cccccccc cccbb
ddf h
cdbb aab
cbbbbbbbb ab
ggghgh ggf
cccccccdd ddddd
cc eefed
cccc cbcbcbcb
cbb ccdb
df ggg
eeff ggggff
cccb ccccdd
cded ee
ccef ee
abbbbbb abb
Ġ cef
ggd ce
abababababababab abababababababab
eef edf
ghhhhh ggfff
abbbbb d
cba ce
bab f
ghhhhhhhhhhhhhhhhhhhhhhhhhhhhhhhhhhhhhhhhhhhhhhhhhhhhhhhh hhhhh
gbgbgcf ddf
ef ecd
aaa ced
cccb dcd
ccbbb ce
gfd cbbb
cd eeefff
gff def
gggggf eeef
cedd cdd
eedddd cdd
cbbcd ee
cbcbb aab
cccbbbbb ab
eef ggggff
ghh ghhhhhhhh
aaab de
gb fbfb
aaaaab aabb
ghhhhhh ged
d ccdb
dd ffd
ghh ggfgf
abbb abab
ccbbb cdf
ccbbb cbbbbb
cccbbbb bbbbbbbbbbbb
cef eee
cab ad
edde cfbgbgb
gggggh gggf
cee ccd
ggggh gggg
ecc ab
cccc cdddddddd
eeee edb
eff gd
ccbb ababb
eeeef effff
aaaaaaaab ababab
cd ca
eed efd
eef ecb
cddd eeef
ccbbbb cbbb
ddd ce
ge gffff
ghhh e
ccbb dff
ced gf
ga fafb
edef ee
gegf hgh
ggghhhhhh f
ggg dcd
cef dcd
eeeeeeee eeeeeed
ggggggggf gff
hh ghf
bbb cf
ccbbb ccddd
ccdf ee
ced eee
aaaab dd
abbbb a
gcf ddf
ddb db
hahah ah
ef bb
ccd ccccbb
df hhhhh
gffff eeff
de gh
ccccd cccdd
cccc dbdb
eed ccccb
aaa bbbbbbbbbbbbb
hdhe hf
hhhh d
edd efef
cbbbb ccddd
ggh geef
eeeeed ff
effgf ggf
aaaaaaaaaaaaaaaa aaaaabbbb
hhh gee
gef h
ffffffff fffffff
cee cd
efe gfff
cbbab aaab
eafafa fa
hh gc
ec eeef
hd hehe
hhhhhhh ggf
ccccccd cdd
cdcdcd cddd
cfdf b
effffffffffff ffff
fagaga fb
eeee dfd
eff eeedd
eff ged
cf dff
cbbbbb aaabb
ccccd cdb
aaaaab abbbb
gcgc gcgcf
e ceded
ghh eb
eedd ccddd
ded bbbb
ghhhhh gghh
gfed fff
ccccdd edd
ac gf
cgc gcf
cd cccccdd
cb cbbd
ggghhhhhh ggf
gggg ghhhhhhhhhhhhhhhhhhhhhhhhhhhhhhhhhhhhhhhhhhhhhhhhhhhhhhhhhhhhhhhh
ccb aabbbbb
cccb dbdb
gggggggggggg fffff
cbb ccc
cbbbbb cddd
cdddd ccdd
ccccccd cdcd
gcgc gcgd
aaaaaaaaaaab ab
cbcbcb cbbbbbb
ef edf
eeee ecdd
cdd cbbbbbb
de caab
ca cabab
gfef gggf
hhh ggggf
cdf gggg
efd eeff
eeffff gfff
cc aaabbb
ed cef
ccb aabd
gb hahahahahb
ced ccdd
cbcb cbbbbbbbb
Ġ ghhh
gh ggghhhhhhhh
gfgf ee
cccb aaaabb
ece gf
gg efed
dd ccdf
edf dfef
cab cf
eeef eeeef
cdf ecbb
ghhhhhhhh ggff
ecd ccdb
eeeed cccd
ggggh ghh
cdd cded
gcf def
ed eedd
abb db
eee gggff
aaaaab f
Ġ effff
gg eeb
bbb cbbb
ce cef
gggf gfgggg
gge cce
hdhe hfh
gchb hahahb
ce gggff
ccbbb cef
eeeff eddd
def eed
ghhhhhhh gfff
eeffffffff fffff
cbbbbbbbbbbbbbbbbbbbb b
h ghghghgh
cbbbb ddd
efeff gff
cbbbb de
ghh geed
ghhhh gffff
cbbbbb ccbb
cedf ded
ggghhhhhhhhhhhhhhhhhhhhhhhh hhhhh
ghhhhhhhhhhhhhhhhhhhhhhhhhhhhhhhhhhhhhhhhhhhhhhhhhhhhhhhhhhhhhhhhhhhhhhhhhhhhhhhhhhhhhhhhhhhhhhhhhhhhhhhhhhhhhhhhhhhhhhhhhhhhhhhh hhhhhhhhhhhhhhhhhhhhhhhhhhhhhhhhhhhhhhhhhhhhhhhhhhhhhhhhhhhhhhhhhhhhhhhhhhhhhhhhhhhhhhhhhhhhhhhhhhhhhhhhhhhhhhhhhhhhhhhhhhhhhhhh
Ġ efd
cbb cccccb
ccd efffff
eee cc
eeeeeeee effff
ghhhhh gggff
gggggg hhhhhhhhhhhhhhhhhhhhhhhhhhhhhhhhhhhhhhhhhhhhhhhhhhhhhhhhhhhhhhhh
e cdbd
gggg ghhhhhhhhhhhhhhh
cbb cccbbbb
ccd cdef
gd aab
ggff ddd
eeddd cddd
cedd ff
cccbbb cbbb
gfffff gfff
gggggggg gghhhhh
cde cccd
ghgf de
eeeeff eef
g cecf
cb aaaaaaaaaaaa
cbb ceef
ce cdccd
eedd efed
gghh gffff
gggh ghhhhhh
fd bbb
eeeff eeed
ggggh ggggff
gge cef
cbbbbbb aabb
ccccdd eff
dc aaaa
eeeefff gf
edfd eded
edd ecd
cf gdb
cbbb ef
efff edddd
ghf db
cccbbb ccdd
aba cbdb
caca da
gegf ggggf
ccee bb
ggff ghh
eeff effff
ccddd eeed
efe gggf
e ghg
Ġ gffff
eedd effff
cdf ghhh
ccbbb cbcb
egf de
gfgff eff
ccce ggf
ee cdef
cccc bbbbbbbbbbbbb
ce ghhf
ccb ed
ggggh gghh
efe gdf
aaaaaaaaaaaab abab
cedb a
cdcdcdcdcdcdcdcd cdcdcdcdcdcdcdcd
Ġ gggggf
ee dddddddddd
ce cff
ccb ccbbbbb
ccddd eeff
he hfhf
ee gfe
cb aaaaaaaaaabb
gggggggg ghhhhhhh
gc hchbhb
gggfff eed
cded cccd
ccccbb cdd
edfb gb
dd eeedd
aab abbbb
eeffff edd
aaaaaaaaaaaaaaaaaaaaaaaaaaaaaaaaaaaaaaaaaaaaaaaa aaaaaaab
gffffffffffff fff
c gggf
e gdd
eeee efffef
ccd ccbcb
ce ceef
fb gahahaha
cbd edd
ggggggf eff
cdff ggf
gggghhhh f
h gggggf
cf dcb
cccb de
eddddd eed
ebb abb
effef df
fh ge
cccdddddd ddddd
cdd eeeff
aaaaaaaaaaaaaaaa aaaaaabbbb
cbbbb aaaabb
ggff hh
gged bbb
cbcccc dddd
gedf gf
gbgbf cfd
gcd gb
he gdf
cbab de
eeeedd eff
gfgggg gggff
gegf gef
ccd eggf
ghh ee
cddd ccccb
ggff effff
ccdd effff
eeef egf
cdddd eedd
ceb aa
caca dada
c ghhhh
ggh ggfe
ddf ge
dcb abbb
cbab aaab
cdccb ab
cedb d
hhhhhhhhhhhhhhhhhhhhhhhhhhhhhhhhhhhhhhhhhhhhhhhh hhh
gcfb fb
gg eeeed
gggg ecb
gh ggggggggf
eef gfgf
cf ghhh
eb cbcb
gb eeb
ggfff ggfff
aabbb abbbb
gggggggggggg gffff
geef ggf
h gfed
ffff eff
ddd ccbb
cbbbb aaaaaab
aaaaab aaaaaab
cd ceff
edf cf
eeffff gggf
hc hdf
def b
ggggggf e
gfffff efef
ddd bab
gff ded
cbbb cccccccc
efgf gggf
cdff ee
gfgfgf ggf
aaaa cef
db ced
gbf cfdeedf
ggfgf ggf
dfdf ded
ggggffff ef
fff b
eef dddd
ccb ccdcd
eb cff
eddd ccccd
aabb abbbb
ccbbb cccdd
ccdf gfd
aaaaaaaab a
deed bb
cd ceed
eef edddd
ccb ccef
ccb ccccccd
def edd
ggfd cbb
eefffff d
eeedddddd ddddd
dfdfdf ded
ee caab
ef edb
ccd efef
ggh gggggggggggggggg
ccccb cccccccc
eeeddd eed
cbbd eff
Ġ ddef
ccd cded
db cee
aaaaaaaaaaaaaaaaaaaaaaaaaaaaaaaa aaaaaaaaaaaaab
ghhh ghhhhhhhhhh
ec edddd
gge cf
dbd cdd
hhhhhhhhhhhhhhhhhhhhhhhhhhhhhhhhhhhhhhhhhhhhhhhhhhhhhhhh hhhhh
e cccbb
g eeddf
eefed ff
cc ggf
dd bbd
cb ccbd
ggfef gff
fbf ceddecfb
ggh ggfffff
gd eff
eddd eddddd
efd cbb
ddf df
gggggh gggh
ggghhhhh gff
c ggd
Ġ egf
cb dbdbdb
ccb cbbab
cbbb ccbbbbb
cce ce
ecbb abb
gaga fa
ccccddd f
gegd gdf
gahahahahaha gcdfb
dd cccbb
ggg eedf
ccd efggf
gb hahahahb
eeeeff eff
eeeeed eeed
eecb aaab
cbccb db
cbbbb cccdd
gc gcfd
cbab cd
Ġ eb
Ġ aaaaaaaaaab
cb dfd
cccd cccc
ecd edd
gghhh ghhhhh
ceb da
fa gahaha
ggggh ggggh
dcb aaaaab
gee fffff
ccccdd cdd
hhhhhhhhhhhhhhhhhhhhhhhhhhhhhhhhhhhhhhhhhhhhhhhhhhhhhhhh hhhhhhh
Ġ gggh
cb ccddddd
fff efff
ccd eedddd
eeeef gfff
cee ggf
hg hhhhhhhhhhhhhhhhhhhhhhhhhhhhhhhhhhhhhhhhhhhhhhhhhhhhhhhhhhhhhhhh
gf eeef
hhh ghgh
eed ccbbbb
db aabd
ggff efef
eeddd ccdd
cfd gdf
cc aaaaabb
ghh ffff
dcd eef
def eef
cccccd eef
cc eddddd
ed ccbb
aaaaaaaaaaaaaaaaaaaaaaaaaaaaaaaa aaabb
cbbbbb aaaab
ghhhhh gg
aaaaaaaaaaaaaaaaaaaaaaaaaaaaaaaa bb
eee c
eeedd ddf
cddf dd
aaabbbb aab
cc eefef
gh ghhhhhhhhhhh
ccb dbb
abb aaabb
ggggf gggggf
ccccb dd
ggggff eeef
cfcf cfdf
aad gf
ccb ccc
ghhh ghgf
gb aab
cccb cf
cccb ccbbbb
cdf g
edb cef
gggfff gggff
eh ghf
bbbb abbb
aaaaaaaa bbbbbbbbb
cdb ebeb
gggh ged
dcb aaabb
cfd gf
effffff gff
cbbbb cf
abb cbcb
ghh gggghhh
efff gggggf
ccccd ccbb
aaaaaaaaaaaaaaaa aabbbbb
eed ccdf
ggff gffff
cccccccc cccbbbb
eeeeeeee eeeff
ecb ced
cbd ffd
gghhh g
cdddd eeff
ggffff gggf
ghhhhhh ghhhhh
dddddddddddddddd ddd
cc eedf
gff efd
ge ggh
cddd eeedd
cded edd
gghf hf
gghgh ff
ghhhhhhhhhhhhhhhhhhhhhhhhhhhhhhhhhhhhhhhhhhhhhhhh hhhhh
ggggh ggghh
cbbbbbb aaab
gege ffff
gfgggg gggh
dddddddddddddddd dd
cc effef
bbbb df
gghhh gfed
cded cbbb
ccf dd
gggg ggee
ghhhh ghhhhhhh
gfff efef
ceff edd
cdded edd
c ghg
hhhhhhhh hhgf
edf edd
ca cff
cdf ggg
ceef ee
effffff ggf
ggggfff ggf
cgf b
ggghhhhhhhhhhhhhhhhhhhhhhhh hh
e ccbd
Ġ eeedd
hhhh gggf
aaaaaaaaaaaaaaaaaaaaaaaaaaaaaaaa aaaaaaaaaaaaaaab
cef hh
edf ge
edf eedd
cdb cdd
ceb ea
ggggh ghhhhh
gggggggggggg gggfff
ghhhhhhhhhhhhh gf
Ġaaaaaaaaaaaaaaaaaaaaaaaaaaaaaaaaaaaaaaaaaaaaaaaaaaaaaaaaaaaaaaaaaaaaaaaaaaaaaaaaaaaaaaaaaaaaaaaaaaaaaaaaaaaaaaaaaaaaaaaaaaaaaaaa aaaaaaaaaaaaaaaaaaaaaaaaaaaaaaaaaaaaaaaaaaaaaaaaaaaaaaaaaaaaaaaaaaaaaaaaaaaaaaaaaaaaaaaaaaaaaaaaaaaaaaaaaaaaaaaaaaaaaaaaaaaaaaaa
e ghhhhhhh
cc ababb
eed egf
eeed ecd
eee ced
eeeed fff
eee cccdd
hhhhhh ge
ccccb ccbb
aba cbcb
edef edd
aaaaaaa bbbbbbbbbb
ece cdcd
ghhhhhhhhhhhh ggf
eeee eccd
eed eeffff
ghh gfffff
eeeeeeee ffffff
cdef eedd
ecbb aab
ggghhhhhhhhhhhhhhhhhhhhhhhh hhh
c ga
c eeeeeed
ab ce
ab de
gffff edd
gghhh gghhhh
dde gff
fafa fafb
abbbbbbbbbbbbbbbb bb
e gefef
db aaaaaa
eb fbf
ca dd
aaabbbbbbbb bbbbbb
ccdddd ff
aaabbb a
aaaaaaaaaaaaaaaaaaaaaaaa aabbb
hchc hchc
ghhhhhhhhhhhhhhhhhhhhhhhhhhhhhhhhhhhhhhhhhhhhhhhhhhhhhhhh hhhhhhh
gahahb gcfdeedfcgb
gggg ffffffffff
ed a
cd eeeeff
cb abbbbbbb
cbbb ccccdd
cccd ffff
gggff eddd
ec gc
dcb ccd
gggggggggggg ggffff
cddd cccc
ggfd eef
dc gf
ccbcb dbdb
Ġ ecd
aaaaaaaaaaaaaaaa aabab
eed cdcd
ccccd eddd
gge gff
aaaabb aaabb
aaaaaaabb aab
cbcc ff
cc cabbb
hhhh gfd
ccb cbbbbbbbb
eeed eeddd
gghhh fe
ec eedd
eeeed ccdd
cde ggff
ggggghh gff
ggh ghhhhhhhhh
eeedd ccdd
ec gbgb
edef eef
cabab abbb
eff ddf
gfff df
cccdd efff
gggh gd
aaabbb aaabb
f ee
dd eefff
eee cdcd
gggh g
ccbbbb abbbb
Ġ gfd
ccb dbdb
eeef gfd
ccdddd dded
cff ggf
ghhf gf
caaaa d
gghhhhhhhhhhhhhhhhhhhhhhhhhhhhhhhh hhhhh
df ghf
cbbb abab
eee cdb
cdf ebb
ccccb cddd
cdcb abbb
dfd gdgd
ccbbbbbb abb
ghhhhhhhhhh gff
ggggggggf ed
ccced ed
gg eddff
eed cf
eed cbd
eddd efed
eee ggggf
eeeeeeee eeeeeef
aaaaaab aaaab
eefef efff
Ġ ccddd
ee cccc
cb ccccccccb
cbb cbbbbbbb
cdf gggff
ccccd cdddd
efffff eedd
ddb aaaab
dfdf dfef
cdcccc cccd
Ġ cdcd
Ġ bbbbbbbbbb
eff dddd
gggggggg ggghhhh
gb fa
cccccccc ccccccb
ccbbb aabbb
ccbbb cccbbb
gghhh ggghhh
ccc effed
ceb ecf
abbbbb abbb
caa df
cdcdcd cdddd
ffff eef
cbb ff
ccbb aaaaaaaab
gfgf gggff
cccdd eedd
cccdd ddf
cce hh
gfe bbb
eeeeeffff ffffff
cdd eeeef
cdf ecd
ccbbb de
ccccb aabb
cde gfd
dcb cef
cccbcb db
geee gf
dd ccddd
gggg gghhgf
ghh ggggfff
ghhhh ghhhhhh
eeed ccddd
gghh ggggggf
ggfff efff
ddddd ff
cbd ccd
eddef gff
cbabb aab
abbbbbbbbbbbbbbbb bbb
eeee eefgf
cbb cddb
cbbb dcd
ccdd ecd
eeef efffff
gggggggf ggf
ghghghgh f
ggeb aab
gggghhhhhhhhhhhhhhhh hhh
gh a
cbbb cbbbbbbb
cfb db
aabbbb aaab
cgc gd
eded eeeeeeee
cdb ed
gghhhhhhhh hhhgf
ggggff gfff
ceed ff
h bb
gg eeefff
cdd efgf
fff df
cbcb cbbbbbbb
ga gbf
gggggf eeff
gg eeedd
hhhh ggff
eff ecbb
cbb cbccd
ghhgf ggf
ggfffff ed
edded bb
gahahahb gcedd
e aba
cb ehh
cdd cdef
gggf edef
ced ce
ece cd
cdccd ff
gggfd bbb
ccd eecb
gggf def
cccd bbbb
ccbb cee
fb aab
eefff ddd
ggffff ffgf
aaaaaaaaaaaaaaaaaaaaaaaa aaabbb
cdeed ef
gggghhhh ggf
ee ged
cbb ccdddd
cbbbb cccbbb
ccb cbcbcb
db ccdd
ghh ggd
ccbb aaaa
eeeff gfgf
edcb aabb
Ġf gff
eeeeef efff
df ggfd
gd eed
gd ecd
ggff h
cbbab abbbb
aaabbbbb ab
cd hh
cf gfed
eee cef
eghh ge
gbfcedd f
gggghhhhhhhhhhhhhhhh hhhhh
dd ccbbbb
dd cce
eefff ggggf
ggggff ggggf
gh ggggggggh
ccd cde
cbbb cbab
eedd edddd
ccccb a
gfffff eef
cbcbbb d
eeed ededd
eedd cbbbb
cbd eef
ghhhhh gggg
eeeed efff
hd hf
gghf h
ghg eeff
cf ddb
ge a
eddd ccddd
cddddd edd
hh aa
ddd ffff
gef ege
gfef eff
aaaaaaaaaaaaaaaaaaaaaaaaaaaaaaaaaaaaaaaaaaaaaaaa aaaaaab
c ged
cc eddf
cb cefff
eeee efefefef
cbbb cbcd
de cddd
abab aaaaaab
gggfff ggggf
gggghh ggff
eefd eef
gffd eef
hahahahah ah
ababa bbbbbbbbb
gg ffffffffffffffff
dd cee
gf eb
cb cfgf
ggh ggfef
ccccb cbcbcbcb
ccccbb ccd
cdee bb
aaaaaaaaaaaab abb
ggghhhhhhhhhhhhhhhhhhhhhhhh hhhhhhh
Ġ ffffffff
cd eefed
ghh ggfe
effff gfgf
ced cccd
cccccccc cbbbbb
cccdd fff
cdf hf
ccef db
ggggggggf ef
Ġ efef
aa ccbb
cbb ad
cbbb cdcbb
ghh gggggh
eeef eeedd
cbcb cccc
gef ddd
ceb ebdb
ee cee
ee ccf
cccccccc bbbbbbb
edddd fff
eeeedd eef
edded ff
eff ggggggf
cddd cccbb
ecb aaaabb
edcd bb
effffffff ef
Ġaaaaaaaaaaaaaaaaaaaaaaaaaaaaaaaaaaaaaaaaaaaaaaaaaaaaaaaaaaaaaaaaaaaaaaaaaaaaaaaaaaaaaaaaaaaaaaaaaaaaaaaaaaaaaaaaaaaaaaaaaaaaaaaa aaaaaaaaaaaaaaaaaaaaaaaaaaaaaaaaaaaaaaaaaaaaaaaaaaaaaaaaaaaaaaaa
gbfd ef
hh ggghh
cb fe
cbbb cccccd
ccdd eeddd
cccb cdddd
gghh fff
cbd bbbb
cab aabb
gghhhhhhhh hhf
fa gaha
ghgff ggf
aaaabbbb ab
gghhhhhhhhhhhhhhhhhhhhhhhhhhhhhhhh hhh
g eeeeed
de ghf
ceff ggf
dc aaabb
efggf eef
ghghf hf
cbbbb ccbbbb
ggff gfgf
ca daea
eded eddddd
fb db
eefff effff
ecb cff
ccded bbb
eff eeddd
eb ecdd
gb gcfdeedfcgb
gghhh gggggf
ghhhhh gggh
cde cfb
ecbb df
dddb d
h db
cf ced
ccb aaaaaaaaaab
gggggggg ggghhhhh
eddd cdddd
eeed effff
gggff ggfff
gdf de
efe cccd
dbb ce
gaga gbfb
ghhhf ed
cf gfff
cbbb dee
cbbb cbccd
ecb abd
eeb f
eefgf eef
eedef gff
e abb
ee gh
cb aaaaabbbb
db aaaaaaaab
ccbb def
gffff dd
ghhhhhh gh
cded eef
gfe gff
edcb ccd
cced bbb
cbaaa d
cd cbbab
ccb aaaaabbb
eb ef
eddd edf
ghhh ghggf
efd eed
eeffff eedd
cbab ce
gg ddb
edd dddddddddd
ab ff
cdf ddd
eeeeeeee eedddd
gc aaa
aaaaabb aaaab
eede cfbgbgb
eee ggg
cdef ggggf
gghhhhhhhh gff
efgf eed
cbab cdd
cbc eedd
gggggggff ef
eb aad
abab aaabb
cdcb ccd
ecf c
hhhhhhhhhhhhhhhhhhhhhhhhhhhhhhhhhhhhhhhhhhhhhhhhhhhhhhhh hhh
gbfd ee
gggghhhhhhhhhhhhhhhh hhhhhh
Ġ aaaaaabb
dd caab
cb aaaaaaaaaaaaaaaa
hhh ed
ccb ccdf
eee gfgf
cdf ggfd
gggh ggfgf
ccccb cbd
ceb dcd
cccccd bb
eeeedd eed
cddb abb
cbaab aab
caaaab d
ccbbbbbbbbbbbbbbbb bb
gggg gghhhhhhhhhhhhh
cf ggfd
ghh ebb
gffff eedd
abbb aaaaab
gdf c
eedb aaab
bbd gf
gghgh ggff
aca daeaea
eeee eeefffffff
ghh b
gc gf
efd gf
eeeed eeef
gge cdd
gggghh gggf
aaaaaaaaab aab
cbdb dcd
cdcdb dbdb
ghgf df
ccf df
gggggff eed
efffffff ef
Ġ ggh
cbb cccddd
cbbb cccbbbb
cef gggg
gef gd
gggh ghhhhhhh
efffff ggff
efgf ddd
edcd edd
ababb ab
dfe gfgf
ggggggffff fffff
aab ff
cbbb cdcd
cbbb cdb
efff gggg
cccd eefff
cddd ccbbbb
ccbbbbb cdd
ed cc
eeee ccd
eeff gggggggg
cccb aaaaaaab
egff gf
hhhh gfff
cbbb ccccbb
eeed ccccd
eedf cfb
gege gefef
dfd bbb
ecf ef
Ġ ced
Ġ gghh
de a
de ccbb
ghhhhhhhh ff
ggfff eedd
cccbb cccbb
ggggggf gfgfgf
cccccccccccccccccccccccccccccccccccccccccccccccccccccccccccccccc cccccccccccccccccccccccccccccccccccccccccccccccccccccccccccccccc
ccdd cbcd
ccccb cbbbbb
cedd bbb
dddd cdd
cbb ccdf
eee cbbbb
eefff eeeff
ccc eecb
cccccb cdd
cabb a
eeeeeeedd ddddd
Ġ aaaaaaaaaaab
Ġ aaaaaaaaaaaaaaaaaaaaaaaaaaaaaaaaaaaaaaaaaaaaaaaaaaaaaaaaaaaa
ee cce
cd eddf
df efe
gef gggf
gggggff gggf
cbbcd eed
f g
h ab
cd ccded
ghhh ggffff
cccb ced
ca ea
gghhhh gfd
abbb cdd
edddd eeef
aabbb aabbb
ggd cf
ggg edff
gfe cdf
aa cbb
cc eeeeff
ef gggg
ggf ede
cccdd cccdd
abbb aaa
gggff eeed
eeeed eeedd
ga ea
ggggh ghggf
cdc eeff
gahahahaha gbf
cccc ccce
eeee eddded
ggg ege
efef efffff
ged ccd
ecc eb
ccbbbbbb d
aaabbbbbbbb bbbbbbb
gg ba
cc ffgf
abbb ccd
gggffff gff
ccef gggf
ac ababab
gg ddef
gff hh
gggggggg ffffffff
gggggggg fe
gggggggg hggf
cef edf
cab aaabb
ddf gggf
cce cf
cdcdd ddddddd
gggggggg gfffffff
ggh ghhhhhhhhhhhh
cccccccc dddddd
cef de
ggggf ddd
cdf ghhhh
gef ggff
cab ce
cecf cfb
ed cddd
eeee effd
eff eeeef
eed edef
ghh gghgf
ggh ggee
eedd fd
cbbbbbb ccdd
eeefff edd
ehh gd
hhhhhhhhhhhhhhhhhhhhhhhhhhhhhhhhhhhhhhhhhhhhhhhhhhhhhhhh hhhhhh
cb cdded
hhhhhhhhhhhhhhhhhhhhhhhhhhhhhhhhhhhhhhhhhhhhhhhhhhhhhhhh hhhh
c eeeee
Ġ eefff
ggg eggf
abb cbbbb
aaaaaaaaaaaaaaaaaaaaaaaaaaaaaaaa aaaaabb
ggfff eeff
hd gc
aaabbbb d
c aaaaaaaaaaaab
aaaaaaaaaaaaaaaaaaaaaaaaaaaaaaaa aabb
efff edef
eddd cdb
ccdd bab
egf ggggf
cce hhh
eeeeef eeef
eceb d
cb aaaaaaaaa
cccc aab
cdd eb
ggf edef
gghh gee
edddd ede
ggggff dd
ceff eef
gggggggf gggf
hgf ee
ggggggff d
cfcfcfcf d
cdd cde
df gggff
abb aaa
abb abbbb
cbbb dddd
cab aaaaaaaab
efggf dd
cbaaab ab
ggghhhhhhhhhhhhhhhhhhhhhhhh hhhh
gggg gghhhhhhhhhhhhhhhh
cb cccbbbbbb
ccdd ccccb
efffff ee
gggggggggggggggg ggggf
ceff eed
ggffffffff fffff
Ġ ddb
eeedd eddd
ggfff dd
dbb cf
ggggfff d
ccbbbbbbb ab
gggggggh f
e gghhhh
aaaaaaaaaaaaaaaaaaaaaaaaaaaaaaaa aaaaa
cdf gge
ceb ebebeb
Ġ eeddd
cbcb aa
ddf hhh
dd cbaab
bbbb aabb
fff de
ccb cccbcb
ggh ggggghh
cccd edddd
eeff edf
cccccccc cccbbb
cccccccc ccccddd
def eff
cccccd ee
f cfd
h ghhhhhhh
h ffd
eedd eeeef
ded eeed
ccc eddb
cbab cf
cbbcd cbb
hdhd hdhdhe
fff eeef
df ecd
ccb cdeed
eeff eeddd
eefff gggff
ccbbbb a
ffffff gf
dbd ccdb
ghhhh gggggf
ggh ef
cccd cccddd
cdb cbbbb
ccccd cbb
cdff gff
eeeeef gff
ecc ddddd
gffffff gff
dada eaea
gggg ghhf
aaaaaaaaaaaaaaaa aaaaaaabbbb
eeff eeeef
ghhh gggghh
cccb ccdddd
gghh ghgh
ccccdd e
efeed ff
Ġbb ab
Ġ aaaaaaaaaaaa
gggg gghhhhhhhhhhhhhh
ccd cbbbbbb
cce bbb
eeeeed eff
eefef dd
ad gf
eee gg
ged ce
ccf gg
cccdf ggf
edededededededededededededededed edededededededededededededededed
bbbb ce
cb cccccccccccccccc
ccbb cdb
gfgf hgh
ccc aaabb
gggggggggggggggg gggf
edcd efff
gggfffff gf
bb aaaab
ghh gdf
aaa cdb
ccdd cbbbbb
ccdf ge
gege gff
cdfff ed
gghhhhhhhhhhhhhhhhhhhhhhhhhhhhhhhh hhhh
gggg ghghgh
ghhhh gge
gfgf ggff
de g
ghf eef
edb aaabb
eeeeef eef
cccccccd b
ccd effed
ccdd cdddd
eeef gffff
de cc
edb aaaaaab
cdddddd f
ggd cdf
efffffff ed
ccccccdd ed
Ġ ggggff
cb ccee
cbbb ccdddd
effff effff
ggghh gggff
eeffffff ef
gggghhhhh gf
hehehe hf
de cedf
ccddd cccdd
bbbbbbbbbbbbbbbb bbbbbbbbbbbbb
ghgf gggf
dc eeed
ghhgf eff
ghhhhhhhhhhhhhhhhhhhhhhhhhhhhhhhhhhhhhhhhhhhhhhhhhhhhhhhh hhh
e ggfed
Ġ eeeff
Ġ ddddddd
cb fb
cccd cddddd
ah d
hf bb
cdef ecb
ggffff ggff
ghgggg ffff
ghgggg gfff
c aaaaaaaaa
aaa cee
ccdd cdcd
ghhhhh ghhhhhh
aaaaaaab abbb
gghhhhh gfff
hfh ghghgh
cbbbbbbbbb ab
a cee
cccc efff
ccd cedd
gggggggg gfgff
ge ggggf
db aaaaabb
ghhhh gdb
gd cef
cddd cbbbbb
eedd eded
de cbd
ghhhhhhhh ghhh
cbd ccbb
efd eddd
cccbb aaaaab
cce cdd
dbd cdcd
cba cd
fbfb fcf
Ġ ccccb
eeff eeedd
efef edd
gggh gge
ggghhh ggggf
ggfd ce
ahahahahahahahahahahahahahahahah ahahahahahahahahahahahahahahahah
cb fhh
cccc eee
aab ccb
gggh gfef
cded eed
gggffff ggf
eeeeff eed
dfd edf
caca db
ggfgf gfff
fafa fb
cdcccc dddd
ghghf hgh
e ghhhgf
ab ef
eff gfgggg
ccd eb
ccd ccdddd
ce cdbd
aaaaaaaaaaaaaaaaaaaaaaaaaaaaaaaa aaaaaabb
eeed eddddd
ccbbb aaaaab
ged cf
ddb aabb
ggghhhhhhhh hgf
geff ed
hhf dd
dbd bbb
caa f
gggggffff ffffff
cc aaaaaaaab
cbbb ceed
eddd efgf
cab cd
gee cf
cdff edd
dfd gdf
ebab f
gghhhhhhhhhhhhhhhhhhhhhhhhhhhhhhhh hhhhhh
gahahahahahb gddgbhahahahaha
h gghhh
cbbbb cbdb
eeed eeeff
eeff edef
gggfff ee
ecc a
ggfgf gggf
aa dff
ccb cddddd
ccdd edf
ccddd eedd
cbbbbbb cd
gfe cdd
aaaaaaaaaaaaaaaaaaaaaaaaaaaa bbb
gggggggg ggggfgf
cbcb ddd
ggghh ggghh
dc aaaaab
eeded eddd
e gffd
gh ffe
ggf efgf
ghhh gdd
abab abbbbbbb
dada ea
cbaaaab d
b abb
cccc a
eff hh
eef dcb
db cccd
aaaab cdd
ec aaaaa
cccbbbb aab
edb cdf
aaaabb abbb
aaaaaaaaab abb
gghhhhhhhhhh ggf
aaaaaaaaa bbbbbbbbb
ff df
ghh ggghhhhh
eeed ccbbb
ghhh ggggggf
cef gggff
eeedd fff
cbbbbb ccbbb
aaaaaab aaaaab
cce ccb
cbbbbbbb aab
ggfef ggff
cdcccc bbbbb
eccb ab
gggffffffff ffff
gg eeffff
gggg eeef
ce ghhhhhh
gd ec
cbd efd
ccccdd eed
gggggff eef
e hhhhhhh
eddd ccbbb
aaaab cd
edddd cdddd
efe gefef
eeefff efff
aaaaaaaaaaaaaaaaaaaaaaaaaaaaaaaa aaaaaaaabb
cccb cde
gghh ghf
ecd cccd
ceb ece
gcf dfd
eedf eff
eeeeff gggf
gffffff ed
edbb abb
ggecb d
e gggfff
bbb ddd
cbbbb c
cbbbb aaabbb
ccdd eeeff
ecb cee
cdef ddd
eedddd df
ghgggg hhhh
ddef gff
egff ed
gggfffff ef
ebf c
bb abbb
cbb aabd
ccb cccccdd
eeeff gffff
cece cfcf
ceef eed
cccccb aab
eh ggf
cf hgd
cbbbb aabbbb
aaaaaaaaaaaaaaaaaaaaaaaaaaaaaaaa aaaa
ggff eeddd
cdf de
ggghhhhhhhh gf
bbd fff
edddf gf
cbaabb ab
dd cdddd
cb ddddd
cccc cbbd
dddd eed
ghh gghhhhhhh
ccdd cc
cce gd
cccbbb aaab
eefef ee
gbf c
cbcbb abbb
ggggggg ef
edd ccdf
efff dcd
aaa ccb
eeff edddd
Ġhhhhhhhhhhhhhhhh hhhhh
aaaaaaaaaaaaaaaaaaaaaaaaaaaaaaaa aaaaaa
eeff eeeed
ghhh gged
cccdd eeedd
edb ccd
ghgf b
cccddd cccd
geff ege
gggggggh gf
cccc bbbbbbbbbbbbbb
ccbb abbbbbb
he bb
ee ghhhh
ggff eeeff
ccdd eeee
eedd cccb
ecd efd
cab ef
ggffff gfff
ggggh ghghgh
ddf gfd
eeeeed eddd
gdgd gdgdf
edfd gd
cc gh
ff hh
edd ffd
eef edef
gggggggg gghhhhhh
db def
cdf df
cdb ddd
ggfff gffff
ccbbbb cccd
eeeeeed ef
eedfcgb hbhb
e bbbbb
e ggggff
e ghggf
Ġ eded
cd gff
ccd eeffff
gggf ecb
ggh gedd
edf dff
aabb cdd
gghhhh ghhh
ded cbbb
ccbbbb aaabb
eff edcd
ccb ccdef
aaab aaaa
ggff egf
ccbb cdcbb
ggggggf gfgfgfgf
ebb df
eggf dd
cccccccc cccccccdd
cccccb ccdd
hhf bb
gdd ed
dddddddddddddddd ddddd
hhhhhhhhhhhhhhhhhhhhhhhhhhhhhhhhhhhhhhhhhhhhhhhhhhhhhhhh hh
Ġ aaabbb
cbb ccef
gggf eefff
de ged
ghhhhhhhh ghghgh
ahah b
gaga gagafb
cbccd ff
cbcbb cbcb
ccdcd cddd
cc eeeedd
cd ghh
cb fh
eb eaea
cef gg
gggff efef
aaaaaab abbb
eeefff ee
gggggfff ef
cd effffff
edd ccdddd
hhh b
eef g
cbbbb db
eeeeeeee eeeedd
dddf ed
cf cece
ccb dde
gggggggg hhhhhhhhhh
aaab aaaabb
ccdd ede
gb db
da cb
cc dddddddddddd
cef ggg
ecdd df
gghf ef
eed eeeddd
ccb abbbbbb
eeff efef
ghgh ggff
cccb aaaa
ccbbbb aaaab
eddddd cdcd
dbd ccd
a cdb
Ġ ged
hh gfgf
dd aab
gggg ggghhhhhhhhhhh
cbb ddf
ccd eeeddd
eed ced
gff eeeff
de gfe
gdf ded
ggggff efff
gee effff
cbc eeed
egh ged
Ġ cdddd
gggg ghghf
db abbbb
aaaaaaaaaaaaaaaaaaaaaaaaaaaaaaaa aaaaaaabb
eeef gggggf
bbbbbbbbbbbbbbbb bbbbbbbbbbbbbb
cded eff
cdee gf
aaaaabbb aab
aaaaaaaaaaaaaaaaaaaaaaaaaaaaaaaaaaaaaaaaaaaaaaaa aaaaaaaab
ggggghhh ggf
g aaa
hh gfed
ce ghhgf
ggh ffff
eedd eeeed
cccccccc ccbbbb
cce cbb
cdded eef
gahahaha gb
ghh gggggggf
eefff efef
ggggggf ee
edef dd
fagaga fa
edd ccbbbbb
gff ggfff
ghgh ghggf
effffff eff
ggfed eef
effef eff
aaaaaaaaaaaab aaab
aaaaaaaabb ab
Ġ cccc
cdd cef
cdd efe
ce geb
ccccb cccbb
dbb abbb
cccccbbbb bbbbbbbbb
eed ece
ccdd ffff
cded cb
cdcb aaaaab
efggf ee
ebeb dbdb
edded edf
ghhhhhhhhhhh ggf
efefefef efefefef
c aaaaaaaaaaaa
gg a
hhh gggh
hhh gfef
efff dddd
cccdd cbbb
ggggh ghhhh
ghhhhhh g
cccccccbbbb bbbbb
Ġ gh
gggg eee
ccd ccc
cbd cbb
cce ghgf
eeefff eeef
cfcf c
ggggggg ed
cd eddcd
eed cdff
eef gggfff
gggf gggfff
gghhh gef
efgf eeef
aac gf
h ga
cbb ccf
cbbbb def
aaaaaaaaaaaaaaaaaaaaaaaaaaaaaaaa aaaaaaaaaa
edf gfff
gcf ed
cgb fb
gggfgf ggf
aaaaaaaaabb ab
e hgh
hh ef
eeee eeedf
ggg eeeef
cf bb
gggf eeeff
cef g
cdf ghgf
ecd egf
aabbbbb abb
gggghhhhhhhhhhhhhhhh hhhhhhh
fff eeff
aaaaaaaaaaaaaaaa abbbbb
ccb abab
aaaaaaaaaaaaaaaaaaaaaaaaaaaaaaaa aaaaaaa
ggh ggghhhhh
eedd eefff
gef eee
ghhhhh ggghh
gfffff e
a cabb
aaaaaaaa ad
cd eedf
ccb cdedd
ggh gghhhhhh
eeeeeeee eeeddd
ecd efff
cccddd eef
ghgggg hhhhh
eeeeed eed
gged ee
ccbcb cbb
ggghgh ghghghgh
Ġhhhhhhhhhhhhhhhh hhhh
c eeeefff
Ġ edddd
edd cccbbb
ghh ggfef
aaaaaaaaaaaaaaaaaaaaaaaaaaaaaaaa aaa
ggh gggffff
eb aabd
eedd cccccccc
abbbb abbbb
efed eed
eeee eggf
cdd ced
eeeeeeee eeeffff
ec aaaaaaab
ccccb ccddd
efffff eeef
gdb aaab
cbbd bbb
ccccddd ef
edd eedddd
eef gfef
cccb cbbbbbbb
efef eeeef
eded edeef
cbd ggf
efe ccdd
cbbbbbb cbcb
ceff db
cdc aaaab
ccd eedb
ccb ccccbbb
eddd cbbbb
gfff h
eded eeef
eeddd eeedd
eeddd eefff
cba bbbbbbbb
acb f
cd cccdddd
cbb cddddd
ccb aaaaaaaabb
gd hb
ghhh gggfff
ced ecdd
eeffff ee
ccdddd cdd
gdb f
cbccb aab
dedb aab
gghhhhhhhhhhhhhhhhhhhhhhhhhhhhhhhh hh
b db
bbbb cef
gh gghhhhhhhh
efef eeed
gghhh fff
gbgb fd
cddf df
hgf dd
cgbgb gbgcf
ecgb hahahb
ghhhhhhhhhhhhhhhhhhhhhhhhhhhhhhhhhhhhhhhhhhhhhhhh hhh
gghhhhhhhhhhhhhhhhhhhhhhhhhhhhhhhh hhhhhhh
cfcfb f
cb ccbbbbbbb
cf ghh
ce caab
gggggggg gfed
eedd efd
gggff effff
aca d
c ggh
gg dddd
ghhh geb
ced eeed
gghhhh ged
eeeeeeee eeeeeeed
aaaaaaaaaaaa aaabbbbbb
ebeb ebd
gggg ggd
ed aab
eed eddcd
cf ggg
cf ggggf
ce cgd
ccb cddb
gggf dcd
cddd cddddd
ccdd cccc
aabb cbb
egf eeff
def ge
ggggggf edd
gggghhhhhhhhhhhhhhhh h
e aaab
cb aaaaaaaaaaaaab
ccd eeeedd
ccb cdee
eb ff
eeff gggfff
gghhh ghf
ebb aab
ccbd bbb
cbbcdd bb
cbba bbbbbbbbb
aaaaaaaabbb ab
aaaaaaaaaaaaaaaaaaaaaaaaaaaaaaaaaaaaaaaaaaaaaaaaaaaaaaaa aaab
e gedd
Ġ cdb
gg ddff
ee ghf
ed aa
cdd cccbbb
cccb ccccbb
efffff eeff
ccf ged
ccced bb
ee a
cd gh
cf hge
ghh gffgf
egf ddd
eeeef eddd
egh gfd
eef ghgf
de ceb
eeeffff d
ecc eed
ceeff d
eceb db
ggghhhhhhhhhhhhhhhhhhhhhhhh h
c aaaaaabbb
gh ghhhgf
gggf gghh
eeed cdef
cccb cccbbbb
eeeeeeee eddddd
ecb cddd
ghhhhh gfef
gdf ed
h dd
cc aabd
cb cccdddd
cbb aaaabbbb
de gfff
gghhhh gggff
cd ccef
ggh ghhhhhhhhhhhhhh
ccdd cccbb
cbcb ccbb
eee gfd
efef efeed
ecb aaaa
eeffff ggff
bbbb ccd
cdd eddddd
ccb cdeff
cccb ccdb
edf eeef
gghhh ggggff
eedddd eed
gcgc gcgc
ffffffffffffffff ffff
aaabab aab
cfcfcfcf dfd
eff gghh
eedd cccc
de ggggf
gggh gggfff
ccc eeeef
ghhhhh gghhhh
dbb aaaab
cccccb cbbb
eeded eeff
Ġhhhhhhhhhhhhhhhh hhhhhh
cbb ccbab
ge ccdf
eeef ded
ced eced
cccb cdef
ddf ggff
eedf ee
edef ggff
cbaab df
gfgfgf ggggf
cdcdb dcd
hghf gf
eeeeffffffff fff
g cba
ccb aaaaaaa
ge gb
ggh gggggfff
eeeeeeee eeeeedd
ccbbb ccbbbb
edddd cccdd
efffff e
Ġ cbbbbb
cb cedb
ccd eccd
ecb cde
ccddd efff
def ggff
cbaab f
dbd cdb
ggggggg hhhhhhhhhhhhhhhh
gggghhhh hf
cd effgf
gggggggg gggfgf
ga gbfb
hd hchb
dcb f
eeeeff gfff
caab a
aaaaaaabb d
cbcccc bbbbb
Ġ ghhhh
cd eefd
cdd cccddd
dddd db
cbb ee
eddd ccccb
cbcb ccccd
gc gbfb
Ġb aaab
cbbcd fff
dcbb abb
hg bb
e hhhhhhhh
aaaaaaaaaaaaaaaa aaaabbbbb
ddd edf
gggf ede
gggf ggggff
ccbb ccccbb
cdcd cdddddd
gfgf gd
eeeeeeee dddddd
ccdf dd
efggf e
gghhhhhhh ggff
aaaaaaaaaaa bbbbbbbb
ff edd
cb egg
efff edf
efff eeefff
ecb aaaaaaab
ghhhhhh gfed
ccccdd eeff
eeb aaab
c gee
c eeeeddd
cd ccce
ce ceed
df hhgf
cbbb cff
ced eede
cccb cccccd
eedb a
aaaaaaaaaaaaaaaaaaaaaaaaaaaa abbb
gefff d
bbbb dd
cd cccbcb
ggg dff
ccd effd
ccd cdded
eef efed
ghhhh d
aaaaaaaaaaaaaaaaaaaaaaaaaaaaaaaa aa
aaaaaaaaaaaaaaaaaaaaaaaaaaaaaaaa aaaabb
cccb cccccb
ca cef
gghhhh fd
cbd cccd
cbbbbbb cbbb
Ġhhhhhhhhhhhhhhhh hh
gf ddf
ccd fffff
eb cdb
ccbb ceed
aaaab abbbb
cdddd bbb
cdef gfd
ghhhhhh gghh
ggghh ggfff
cbbbbbb abbbb
ccdf ggff
edef eed
ecdd cea
aaaabbb d
ccdef gff
g aab
dddd ddf
eb dc
eedd ffff
cef eeff
eded ece
ccf hhf
ccbbbbb abbb
cdcb dd
ggggggff ggf
ggee ggf
cd ghf
ggg egff
ddd cdf
eb aaaaaaab
ded edddd
efe gegf
cdcb aaa
ccdb a
ggg edddd
cddd cc
cef eeef
fb aa
aabbb aaa
aaaaaa ce
gfgggg ggfff
eddcd eff
daca da
c eeeeedd
h gedf
ef eeeef
cdd ccdddd
cccd eeee
eee cdef
ca cc
abab aaaaaaaaaab
eeeeeeee efffff
gggh fff
eeeed bbb
ceef e
effd eff
cbb aaaaaaa
cddd ce
ced cdf
cef df
ddb dd
cfcf cgcf
ccbcb ccdd
cefff gf
eeeeeeffff fffff
eafafa fafb
cbb aaaaaabbb
ccd ccccccd
cddd eeddd
ggffff e
fa gb
gggggggf gfgf
gghgh ghhh
gghghgh ghf
cd aab
eeee gggf
hhh ggghh
db cde
aaaaaaaaaaaaaaaaaaaaaaaaaaaaaaaa aaaaaaaaaabb
gfff egd
ghhhhhh ggfff
dcb cdf
hgh ghhh
geef gff
abababa bbbbbb
gggggggg hhhhhhhhh
ccbb aaaaa
cdcd cccdd
aabb aaaabb
aaaaaab df
cccddd eed
gffffff gfgf
Ġ cbd
Ġ ddcd
ccb cab
efd bbbb
efgf db
ccbbbbb aaab
geef e
ggghhhh ggff
aaaaaaabb aaab
ababab aaab
edddf ed
h de
aaaa bbbbbbbbbbbb
cbbbb cdddd
ah f
ghgh gff
eeedd cdcd
ccccd cccccccc
ghhhhhhhhhh ghf
gfgfgf gfffff
Ġ cbcb
eff egf
hhh gggg
cccd cccbb
ahahahah aha
gcgc hb
h ggggh
edd fb
gfff gfffff
hhhhhhh gff
ggfffff d
caba caca
h gffff
Ġ eeeef
efff def
ghhh ggfd
ccbb cccccccc
cbbbbb cef
eefff eefff
efd ce
hb a
ede gg
ede gfd
cded bbbb
eeeffff gff
ghgggg gggff
ghhhhhhhhh ggff
cbb cbaab
cbbbb cccc
cccd edcb
cddd ced
eedd cdef
ghhhhhh gfe
aaaaaaaaab aaab
hahb gcfdeedfcgb
cd ge
edd efggf
cdd cbaab
ghhhh ggggff
cccd cccccd
cbccd cdd
gggggfff ed
Ġ ecb
Ġ cccbb
cc eeeeed
aaaaaaaa aba
gh gggfgf
eef efefef
ccbb cbd
ged cdf
gggggggggggggggg fff
effffff eed
cdc eee
aaaaaaaaaaaaaaaaaaaaaaaaaaaaaaaaaaaaaaaaaaaaaaaa aaaaab
edd cddf
ge gdfdf
cbbb cbcbb
de cece
cdb aaaaab
ceff dbb
ggghhh ge
ceef ggf
eddb aab
c aaaabbbb
aaaaaaaaaaaaaaaa bbbbbb
cbbbb abab
df eeef
eb dcb
eb aaaabb
aabb dd
hhhhhh ff
cde gd
Ġb a
cdcccc ccdd
ceddd ed
ha f
eeeeeeeef ef
h ghhf
ggh gfgggg
efff ggggff
ccbb ccccdd
ced cbd
egf gffff
cedd eceb
eeefff eedd
eefef dfdf
aca daea
Ġ ggggggf
ce ccdd
cddd edddd
ccbb dcb
ced ec
cdf ghh
ccddd ccb
cee cbbb
effgf eef
hchc hc
ceeff gf
efdf b
ecece cece
hhh gdb
gff dff
df eedd
eb eced
eeff gfed
gfgf eef
ggggf eee
ccccd ccbbb
gggfff e
effgf gggf
ggfef gggf
cbaabb aab
dbdbdb dcd
Ġ aaaaaaaaaaaab
gg hhhhhhhhhhhhhhhhhhhhhhhhhhhhhhhhhhhhhhhhhhhhhhhhhhhhhhhhhhhhhhhhhhhhhhhhhhhhhhhhhhhhhhhhhhhhhhhhhhhhhhhhhhhhhhhhhhhhhhhhhhhhhhhhhhhhhhhhhhhhhhhhhhhhhhhhhhhhhhhhhhhhhhhhhhhhhhhhhhhhhhhhhhhhhhhh
cccd ccbbbb
hf dd
gggff eee
aaaaaaaaaaaa aabbbbbbb
gfffff gggf
eeeeff edd
geef ed
hfhf hfgf
gggg ghhhhhhhhhhhhhhhhhh
efff eeffff
ggff gggggf
ged egf
aaabbb abbbb
eeeddd cdd
ababab aaaaaab
aa ccd
eff gfef
eeed cbbbbb
cccdd dde
ded ce
ghgf gff
cbcd ccd
ee gggg
gh ggghhhhhhh
ccb cbab
db aad
gd bbd
ccbb cbbbbbb
ccbbbb dd
ghhhhhh gggh
cedd e
ccdddd edd
hgh gggf
gggggggggggg hhhh
ahahahah a
cc gg
ggg eddef
de caa
eeeed eeeef
ehh ge
hhhhhf d
cdd ccdf
ggg ece
eef eedf
eeed ffff
cbcb cccbb
ecd eee
cedd ddddd
efgf de
dff eef
ece cfb
eeeeeef efef
fbf cfd
edfd edf
ceced fd
gh ggghf
ccb cdbb
cddd cdf
eeed bbbb
gggggf eedd
aaaabb aaaaab
ggghhh gfff
cdcdd edd
ccbcb dd
gggggh ghhh
cdcbb aab
egd bb
daeaea eaea
cbbbbbbbbbbbbbbbbbbbb bb
h gedd
ee cbbbbb
cbbbb ccccb
ce cccb
eefff eeedd
ccddd ccbb
eedddd de
ghhf df
hhf de
ghhhgf eef
ggggggfff gf
eeee eddddddddd
cdd ccccbb
dddd edd
cccd efe
gb efb
ca cabb
gggff ddd
cbbbbb cbbbbb
ededed eddd
gggghhhhh ggf
Ġ gfe
eeee edededed
aaaab ce
aaabb aabbb
gghhh gggggggg
cce gge
ggggggh gff
gfgfgfgf gff
gggg ggghhhhhhhhhhhh
ef eeddd
eff edb
eef ege
cbbbb cde
ccb ccccddd
efff efd
aaa cdf
abab abaca
gghhhh gghh
eefff eeddd
cccccccccccccccc d
ghhhhhhhhhhhh hf
abacaca caca
hahahahaha gcefb
cb aaaaaaaabbb
cbb aaabbbbb
eed bbbbb
efff dcb
ccbb ceff
edf efe
eee ghh
efef gggf
cdb fb
ccccd cdcdcdcd
eeeef ggggf
cccbbb abbb
ggghhh ghhh
ddbb abb
ccccbbbb ab
aaabab aaab
gffffffff gf
hfhe hd
ef ede
dddd bbb
eff hhh
eff efgf
gggff gggggf
gef dfef
gghhh gfef
cccddd cddd
eddf df
cccccd edd
cdff db
edcb cef
effed eef
gggghh ggggf
cedf dfdf
aaaaaaaaaaaaaaaaaaaaaaaaaaaa aaabbb
abd fff
abbbbbbbb ab
eeddf ed
cb dddb
eff eded
cbbb dcbb
aabb aaaaaab
aaaab de
gfd cde
ffffff ed
dada daca
ecd eedd
cccbbb dd
aaaaaaab a
cccddd ff
gggggggggggg ggghh
ccce fffff
eeeeeed edd
Ġ eeeed
hh gedd
ee cccb
efef eeff
aaaaaaa c
cfd eb
gffd fff
aaaaaaabbb ab
Ġ ede
ccd cee
cf egd
cbbbb cbd
db cbdb
ggh gfffff
cbcb cbccb
gffff effff
ac aaa
cfff ed
cd cecd
cb ccddf
gb h
ccccd ccccb
dbb cd
dde gggf
ef ghhh
cbb ccccccd
eedd ccccb
eeef gfed
cdcd ccdd
cccb aaaaabb
cdf hhhhh
ged cef
ccbbbb cddd
gggggggggggggggg gff
dbb dd
ghhhhhhh ghhh
Ġ eeeeeeee
cbb cbcbb
cf ecbb
ce cbd
ccbbb ccccb
cddddd ff
edde gff
abababab ababb
hfhe hfh
gbfceed fb
abb aabbb
cbcb ccddd
cdcd eef
fffff ggf
gghh gggfff
da cab
eddcd cddd
cccddddd ed
c ghgd
ef ggg
ffff eed
eedd eeeff
de cdcdd
gggff eeeff
egf edf
eedddd edd
cce ghhh
ceff gff
gggffff eff
cbbbbbbbb d
ggghgh ghghgh
cfgf b
geeef d
hhhhhhhhhhhhhhhhhhhhhhhhhhhhhhhhhhhhhhhhhhhhhhhh h
c aaabbbbb
cb caab
ghgh ghhhhh
ecd gf
hhhhhh fd
ggggh ge
gfe cbbb
gggggggff ed
ehh d
cc bbbbbbbbbbbbbbbbbbbbbbbbbbbbbbbb
hhhh gef
ccd ggf
ghhhh gghhhhh
efef dfd
cdb aaabb
ccccd eeef
cccbb cbbbb
dbb aa
ghggf ggf
caaab aab
ccdcd cccd
cb ddef
ddd efd
ccc aaaaab
ccef eef
deed fd
egg db
ggggffff gf
ggghhhhhhh ggf
e ggef
f gg
eeee cccd
eef edcd
ggh gghhhhhhh
eeedd cccdd
ded cccd
cff h
ccef ecb
ghg eeef
e hhhhf
cb aaaaaaaaaa
gggf ddf
ghh ghghghf
aaaaaaaaaaaaaaaaaaaaaaaaaaaaaaaa a
eedd ced
gghhhh ggfff
gfd cdef
ged bd
ghhhhhh ghghgh
ggghh ghhh
ccdddd eed
cff ecb
ceceb db
ce gfdd
cbbb cbcbbb
effff ggfff
edf ege
efef ddd
aaaab aa
abbb abbbbbb
eefff eee
ecd cdddd
ccbbbb ccbb
ggffff ffed
ccccdd cccd
cccddd eff
edef gfff
gged fff
ababab aaaab
ghhhhhhhhhhhhhh gf
f ced
eeed cdddd
cde ggggf
efed fff
cedf egf
cdedd bb
cfcfcfcf cf
g cce
edd ffed
ab c
cdd eeffff
eef eedddd
gggggggg ghgggggggg
ggffff eed
ggggff gggff
ggggggf ggff
ccbbbbb ccdd
cdeed bbb
e gffef
gggg eeff
ghh ghhgf
hf gdf
cbbbbb aabbb
eeeef eeeed
ghf gff
cccccd ccd
ggd cef
aaaaaabb aaab
aaaaaaaaaaaaaaaaaaaaaaaaaaaaaaaaaaaaaaaaaaaaaaaa aaab
f bb
cccc cccef
eeee eccb
df ege
ghh gffd
cdcd ccbb
ca de
gef egff
cdcbb abb
f hhhhh
ff c
cb cdddddd
ffff dd
eeef gg
gfff efd
edb de
cccbbb cd
ggghhh gghh
gfed bbb
edef eff
ccccbb aaab
ccbd cdb
ghhhf gf
cdc eeed
ababab abbbbbbb
aabbbbbb ab
cbb aaaaaaaa
cccccccc cccdddd
eeedd ccbb
cdb aaaa
gggh gghhhh
ghgf ddd
ccf de
cbbbbbbbb abb
gbfd eed
e geed
g cecd
Ġ hhhf
cf dfef
cbbbb cded
db aaabbb
ghh ghhhhhhhhh
cddd c
abab aaaaaaaab
ghhhhhhhh gh
gggh fd
ccc ffd
ea dadb
efe cc
cfcf dfdf
ecbb cd
eeded ee
ecf cgb
eeeeeef eff
fgf b
geeff d
gffffffffffff ffff
hh ghhhh
cccc eeed
cbbbb cc
cbbbb abbbbbb
cbbb cdeff
cdf eddd
eded cdd
gggff eeddd
efefef effff
h gghf
Ġ ghgh
gh gggfd
gggf effff
efff egf
eedd fe
cccccccc ccccbb
gef egef
ec ge
abababab abbbb
eefgf dd
eeeeeff gff
cfbgbgb gbgbf
gahahahaha gb
gahahahahahagcefb hahahahahahb
ce cdcccc
ghhhh gedd
cef eccd
aabb cbbb
aaaaa cd
eddddd cccd
gggggggggggg gggffff
cbcdd ef
Ġhhhhhhhhhhhhhhhh hhhhhhh
ed gd
edd efffff
gh ggghgf
ggh ggggggggf
cccccccc cdddddd
egf df
ggfd bbbb
gfgggg gffff
ebd cceb
fh ghgh
ggghhhhhh gff
cd ccccddd
cccc ccced
gggggggg ghggf
eb dff
eddd ede
hf gfh
eefff eeeed
ggggh ggggggf
efe ce
ggef gff
hdhd gd
cgc hbhbhb
cfbfb gbgb
c gfe
cb cegf
gggf gghhh
gggf ggggggf
eeef efeff
cdcd cdccb
ccddd eddd
eedddd ddef
cce ged
aba bbbbbbbbbbbb
ghhhhhhhhhh ghghgh
gefef eff
ccb aaaaaaaa
db fd
aaaaaaaaaaaaaaaaaaaaaaaaaaaaaaaa aaaaaaaaaaa
efff ded
ghhh ed
gef eeed
ggfff gfgf
cde ggg
efgf edf
effffff efef
cdcdcd cccccccc
hahahahaha gbf
cdd cf
ccb ccccccb
ghhhh gfdd
efff gggfff
gfff ge
cbbbbb cccb
egf eed
efe gdgd
aabbbb abbb
ecbb dd
caab aab
ggfffff ggf
ccde gff
eede cdb
cbcbcb dbdb
Ġhhhhhhhhhhhhhhhh hhh
ccd cdcb
gggf ggg
efff ecb
eded eeedd
cbd cddd
efd cef
eeeffff fffffffff
abbbbb aaab
cccccb abb
eedb abb
Ġaaaaaaaaaaaaaaaaaaaaaaaaaaaaaaaaaaaaaaaaaaaaaaaaaaaaaaaaaaaaaaaaaaaaaaaaaaaaaaaaaaaaaaaaaaaaaaaaaaaaaaaaaaaaaaaaaaaaaaaaaaaaaaaa aaaaaaaaaaaaaaaaaaaaaaaaaaaaaaaaaaaaaaaaaaaaaaaaaaaaaaaaaaaaaaaaaaaaaaaaaaaaaaaaaaaaaaaaaaaaaaaa
f gff
gffff ggggf
gggh gggggggf
he hgh
dcb de
aba da
gghf ed
c aaaaaaaaabb
cc aaaaaa
ff bb
ee ggfff
cccc ccf
gggf gfffff
eb aabbb
eedd ccccdd
fb fd
ccc eeeff
ccccb aaaab
ggggh gg
dcd cddd
gege gfgff
cfcf cfb
edcb df
gegf ge
ef eeeff
cf gfdd
ggh gggggggff
abab aaaaab
ccccd eee
efd eb
cccbb ce
he a
cccbbb aabb
ccef eed
hehe hfhf
h da
ee gfed
eeee edde
ghh ggggggh
eeff de
gffff gggff
ccbbb cdef
ded ccdd
cccccccccccccccc b
cccbbbbbb ab
gbgcf ed
hh ee
eeee bb
gd ecf
ccddd cbbb
efd ccdd
eeeef eeeff
ghhhhh fff
efgf gfff
gge ccdf
cece cdd
edcb a
aaaaaaaaaab d
cd cced
cb aaaaaaaaaaabb
eed cbbbbbb
gggggggg gggffffff
eeef gggg
ced ccb
ccbbb aa
egf ddf
gggfff edd
abd bbb
aabbbbb aab
cbcbcb cbbbbbbbb
cgbgbgbgb gbfcee
Ġ aaaaaaabb
hh geb
cb edf
hhh gfed
cf gggg
ge bbd
effff eeeff
eddd ce
ggff ghhh
eeef eeeeeeee
abab aaa
ggggf eeed
aaaaaaaaaaaa abbbbbbb
edddd edddd
ec aabd
efffff eeed
eedf de
eddf gggf
ceef eff
ggfffff gff
cc effgf
bbbb aa
cb dfgf
cbbbb aaaaabb
eee gef
ghf ddf
gggggf efff
edb aaaa
ggghh gfd
cccddd edd
gffef gff
caaab a
ddd cdb
ge cab
cccb cdcb
eded ccd
gggh gfed
ccccb abbb
ffffff d
hh gghhhh
dd cded
cccc eeff
hhh ef
eed ccccdd
abb aaaaab
ggff ggggff
abab aabb
gggh ggffff
ea daca
cccbbb ccbb
gggfgf gfff
hchd gd
cededd ede
e hb
edd cee
dddd fff
eeeed cddd
cdef eddd
ccdddd eef
efed cccd
ghhhhhhh fd
bbbbbbb ab
cdccb cbcb
g eeefef
Ġ ghf
gg caa
dd cbcb
cb eef
cdd ccccdd
gh gghhgf
cef eeed
cdb ccdd
ecb def
cdddd fff
gggggggggggg gghh
cdbd cdcd
ecgb hahahahb
ecgb hahahahahb
eeedd eeef
edb abbb
cbcd eee
ghhhhhhh gfd
gged eef
eeeeef eedd
eefef de
effd eef
cbaa cf
aaaaaaaaaaaaaaaaaaaaaaaaaaaaaaaaaaaaaaaaaaaaaaaa ab
Ġ gef
cccc cddb
gh gghhf
gggf ecbb
gghhhh gd
gggh gggggff
ccccd cbbb
ggghh gghhh
ccdddd de
ccf hhhh
gee gd
Ġf eff
cccccccbbbb bbbbbb
gbfcee cfb
ed ceb
cdd ecbb
cbb ddbb
ge cdff
ccbb cdcd
cef eedd
ecd c
ec eeee
aabbb aaaaab
cde ccdd
aaabbb aa
gfgfgf gef
dddf ef
effffffffffff fffff
eb cee
gggh gggggh
aaabb aaaabb
cbbbbb df
gggggf eddd
ghgf edd
edcd eedd
gggggggff gf
eeee efffed
cdd cbcdd
cccccccc dcdd
ecb ddd
ccccd ccccd
gggggggf gfff
cbbd gf
gffef efff
dddddddddddddddd dddddddd
cecd ced
cecf dfdf
cc gd
cb eh
cdd gf
ccd cbcb
ghh ggggghh
aaab cf
eb aaaaaa
gggh ggggggh
gggh fgf
egf ggff
cccbb df
def db
cbcd eeed
eeefff e
aaaaaa bbbbbbbbbbb
caab df
ebeb ece
ceeff ed
ggghhhhhhhhhhhhhhhhhhhhhhhh hhhhhh
g cedf
dd eeeff
cb abbbab
cbb ccdef
abb df
cddd cded
ggggf ggfff
eeeeeeee eeffff
gghh gge
gfgff e
effef gff
gggghhhh gff
ggghhhhhhh f
cgc hchc
d ccbb
hh gge
ef ggfff
ccb cdccb
ge cde
efff ge
eeef ggggff
hf ee
eedddd eeff
ecc egf
cegf b
caabb ab
eeeeeeeffff ffff
ebdd ceb
gggg ghhhf
cf dee
gggggggg ggffffffff
cccd c
cddd cdcdd
gggggf gggggf
ggffff ee
eddf ggff
gdb df
geb aaaab
gffef eed
cabab abbbb
cgd gdf
a ccbb
d cdb
h ggghhh
Ġ gfed
gghhh gffff
cab aaaa
ggggh ggh
aaaaa bbbbbbbbbbbb
gggggff ee
ccccccd ff
cbaab dd
aaabbbb aaab
bb dff
eff ded
eff eccd
ggf eefff
eef gd
cbbb cdeed
cbbb cbcccc
ghh gghhhhhhhh
ccddd cdddd
ec aaaabb
hhhhhh gd
ccbbbb cbb
gffffff d
acb ca
eghh gd
ce cba
cccdd eefff
ghhhhhhhh gggf
efd cf
cccddd ccd
gghhhhh ggggf
eefd edf
ccbbbbbb aab
g cde
gggggggg ggfffffff
ghhhh ghghghf
aabb aaaa
cbbbbb ccb
ede cfb
cdddddd b
eeeeeed eded
ghgff ed
cbbabb ab
edff ef
aa cbab
cdd egf
hhh ggh
aaaaaaaaaaaaaaaaaaaaaaaaaaaaaaaa aaaaaaaaabb
cccd edb
ced ecf
bbbbb a
gfff eeed
edf cgbgb
cdf hgf
gggggff edd
ggghhhh gggf
ccccbbb abb
eefgf ee
dddddddddddddddd ddddddd
eede cdcd
dfe bbb
ceeed ed
cfcfcfcf ded
abbbbbbbbbbbbbbbb bbbb
Ġ gghhh
cbb aaaaaaaaabb
ccb aaaaaaaaaaab
cbbb cbbbbbbbb
eeedd dde
eeeeeeee eeeeff
ecb abbbb
efgf eee
gghhhhh gggff
aaaaaaaaaaaaaaaaaaaaaaaa abbbb
cbaab aaab
dddddddddddddddd dddddd
ghhhhhhhhhhhhhh f
gggggggffff fffff
gggg edf
ef eeeed
cb ecd
eed ccdddd
eeff df
gc gbgc
eeddd edddd
eeeef gggff
eefffff gff
aaaaabbb abb
ccccccdd f
ababababab aaaab
gggggggggggggggggggggggggggggggggggggggggggggggggggggggggggggggg gggggggggggggggggggggggggggggggggggggggggggggggggggggggggggggggg
Ġ bbbbbbbbbbb
cb caba
eeee egff
eef db
ce ccdb
ggh ffd
eddd cccc
eedd cdcdd
eeff gef
gggfff eeef
aaaaaaaab abbb
cdcb aaabb
gghgf ee
aaabab abbb
cdcdcd cddddd
hghf h
c aaaaaaaaaa
gg eefggf
cccb aabbbb
aaaaaaaaaaaa bbbbbbbb
cccbb cef
cce ggg
def gfff
def gfd
hhf ed
cccccbb abb
cbcc ab
eeffffffff ffffff
ccbbbbbbbbbbbbbbbb bbb
h ggggff
cb ecf
ffff gggf
cbbb abbbbbb
ghh ghhhf
cccccccc cccccccb
ghhhhh gef
edcb aaaaab
aaaaaaaaaab aab
gghf he
eeeeffff gf
Ġ cc
Ġ hhhgf
gh gghgh
eef ecd
aaaab aaaabb
cce ghf
cccccd eeed
eeeedd edd
dcbb aab
eef ghhhh
eddd cdf
gffff efef
cccccccc ccddddd
de cee
ecb ceff
eeeef eeddd
efe cef
cccccd cdddd
cdff dbb
abbbbb aabb
edde cfbgb
ggggggggf gggf
ffffffffffffffff ffffffff
gfffffff gf
aaaaaaaaaa bbbbbbbbb
fff eedd
eef dcd
eb ccf
cbd eee
ggghh gd
dcb aaaaaab
eeefff dd
geff gfff
ggd aab
gghhhhhh gggf
ababab aaaaaaaaaab
h aaa
h gged
eeee dddddddddd
aaaaaaaaaaaaaaaa aaabbbbb
gffff eeed
eedf dd
gfffff ggff
gggggff eedd
edcb dd
aaaaaaaaaaaaaaaaaaaaaaaa bbbb
ghg eddf
aaaaaaaabb aab
e ccbcb
gg da
gg eedef
eef edb
eef dfdf
cf ecd
db aaaaaaa
cccd eeeff
cccccccc cbbbbbb
gfgf eff
aabb cd
eded cd
aaaab aaaaaab
hhhhh gfd
ccccb cccdd
cab abbbbbb
cccbbbb bbbbbbbbbbbbb
ghhhhhh gggff
cbcd cdd
eeeffff fd
ggfd fff
cedf dfd
cbdb cbcb
edbb aab
cb aaaabbbbb
cf cfbfb
db cccb
ghh gffef
ghh geee
gd gcgd
ghhh ggfed
gggh ghhhhhhhh
ggghhhhhhhh hgh
dee cbb
ecbb ce
aaaaaaaaaaaaaaaaaaaaaaaaaaaaaaaaaaaaaaaaaaaaaaaaaaaaaaaaaaaaaaaaaaaaaaaaaaaaaaaaaaaaaaaaaaaaaaaaaaaaaaaaaaaaaaaaaaaaaaaaaaaaaaaa aaaaaaaaaaaaaaaaaaaaaaaaaaaaaaaaaaaaaaaaaaaaaaaaaaaaaaaaaaaaaaaaaaaaaaaaaaaaaaaa
eggf ee
aa cdbb
aaaaaaaa aac
gf he
cb dedb
bbb dff
cf ege
ghh ggggggff
eddd eeffff
eddd eeeddd
eddd ededd
eeeeed eeff
ccddf ef
gefff ef
cb aaaaaabbbb
ggf eeeff
gfff ggggff
de gge
aaaaabb aaaaab
ggggggg hhhhhhhhhhhhhhhhhhhhhhhhhhhhhhhhhhhhhhhhhhhhhhhhhhhhhhhhhhhhhhhh
Ġ gggggggggggg
gg cc
edd ccc
gh gghggf
cf edf
cddd eeeed
eee ccbbb
gggh gggghh
efgf efff
eedf eed
def ecb
gghhhhh ge
gfgggg hhhhh
caa cd
aaaaaaaaaaaaaaaaaaaaaaaaaaaaaaaaaaaaaaaaaaaaaaaaaaaaaaaaaaaa aaab
Ġ aaaaa
gg efffff
cb ec
gggggggg gghhhhhhh
db ded
cbbb cce
eeff ecd
gfgf ggggggf
cbbbbb cdf
gggffff ffgf
cddddd cddd
aca dadada
edd eeffff
ccd cccccb
gggggggg ghhhhhhhh
aaaaaaaaaaaaaaaaaaaaaaaaaaaaaaaa aaaaaaaaaaaaaa
eeff ge
ghhh gggghhh
eeeeeeee eeeeeeef
ggggh ggghhh
eeefffff ef
cfdf ded
edd gf
edd edb
fff ggff
cbbbb ced
ccb ad
cbbb aba
cbbb deed
ghh gghhgf
aaa ccbb
ccbcb cbbbb
ccdef eed
ccded ff
ebfb gbgb
Ġ aaaabbb
cbb aaaaabbbb
ggg eeddd
ccb cedd
ccdd eeffff
eeef dfdf
cccdd eeef
eefff gffff
ggggh ghghf
cbab cef
eefffff ggf
ghhhgf ee
cccccccd ed
cccc cccdf
gggggggg gfef
cbbb aaaaaabb
cbbbbb ccddd
edddd cdcd
cccbb aaaabb
ceff ddd
gghhhhh ggfff
cddf eed
aaaaaaaaaaaaaaaaaaaaaaaaaaaa aabbb
ffffffffffffffff fffff
dbab f
ggffffff ef
gggggghh ggf
dfb f
cbbbbbbbbbbbbbbbbbbbb bbb
hh ebb
ee cded
ee ddddddddddd
hhhh ghhh
cccc cddddddddd
cdd eeeddd
eeed cef
eeff ggggggf
ecb ccdd
ecb ded
cff gd
cece cecdcd
ghhhhhhhhhh ghghghgh
gghgf eef
ceddecf a
Ġ gggfff
gh ggge
cbb cdcdd
ce ccbbb
de cef
gggggggggggggggg gggggggf
ccf ggff
aabbbb aabb
edde gggf
Ġff ef
hahahb hb
gdff egd
cf ghhhh
ce ghge
cbbb aaaabbb
ccbb aaaabbb
cccccccc cdcd
aaaaaaaaaaaa abab
gege gegd
abbbbb abbbb
ggef eff
edd bbbbb
eb ddf
eedd cccddd
cbcb aabb
gghhhh gfed
efd eee
gdf gf
ghhhhhhh gd
cccccd ccdd
cece cecf
eddcdd ddddd
hchbhb hchd
c hhf
eb fe
cddd ccccdd
ghhh gggggff
ccddd ccddd
ghgf eed
caa bbbbbb
Ġ dc
ddd cbbbb
cf gged
aaab aba
eb ddb
ggff gggfff
gghh gggghh
edddd eeedd
ccccd eeedd
cccbb aaaaaab
ggffff efff
gcf cedd
eeefff gggf
aa cdf
hh db
ee cdddd
ee ccc
edd ccccccd
cbb abbbbbbbb
ccd edef
ccd ccbbbbbb
aaaaaaaaaaaaaaaaaaaaaaaaaaaaaaaa aaaaaaaaaaaabb
abbb cd
gc eedfb
fd gf
gfe ce
cbab ccbb
cbcbb cbdb
cbcbbbb bbbbbbbbbb
ddbb a
e cddddd
gg ebd
eff ege
db cbbbb
eddd cdef
gb hbhbhb
gfff eee
cccb aaabbb
cde ce
cbcd cccd
eddf gfd
aaaaabb aaabb
ggghhhhhhhh hhgf
ggfd cef
dee ddddd
eeeeedd dddddddd
gghhhhhhhhh gff
gaha gbgbf
cdd eeeedd
gh ffgf
ddd efgf
ccb cccbbbbb
ggh ghhhhhhhhhhhhhhhh
cddd efed
eeed efed
gfff gggggf
de cedd
aaaab cef
cdb cc
cee ba
ggghh gggggf
ccdddd eff
ababab aaaaaaaab
ccccdddd ed
cecd cddd
h geff
Ġ eeee
ff hhh
aaaaaaaa acb
cdd cccccccc
dddd ddef
dddd dded
ccd cccccdd
eed eefef
df ggfff
aab ccbb
eedd ce
eeff dcd
ghgh gggf
eeddd eded
cccbb cccbbb
ghhhhh ghf
eeffff efff
ceb ca
gggggggggggggggg ggggggf
Ġ gg
ggg efeff
df ghhhh
ggh gdb
ghhh gghhhhhh
gghh ghhhhhhh
cbbbbb cbcb
ged eed
gege gegege
ccbbbbb aabb
cdcdd dddddddd
ecbb cdd
ghhhhhhhhhhh gff
cccc ccbbbbbbbbbbb
fff ge
eeed edeef
cccbb aabbb
ceed fd
edcb aaabb
cccccccdd dddddd
gehe hd
Ġ aaaaaaaaaaaaaab
hhhh ghf
ccd cddf
eef def
ghh ghghhh
ggh ggghhhhhh
ccbbb cdddd
ded eee
cbbbbb ce
gghhh ggggh
eeeef efefef
cde gg
gee cdd
ggfd cdd
cbbbbbbb abbb
caab dd
ece a
ggggggh ggff
cbcbbb ab
cccccccd ef
geedd b
e cdbdb
edd eeeddd
ddd cccdd
eddd ecd
eeeeeeee eeefff
eeffff eeef
gghhhhhhhh ggff
gcf ced
aaaaaab aaabb
gbgb hbhb
aaaabb aaa
ad ab
eba cf
aa bbbbbbbbbbbbbbbb
hh geff
ee cdff
bbbb cdf
cbb dde
ggf gef
ccd bbab
ghh ghhhhhhhhhh
ghhhh ggghhhh
ccdd cdf
cccb cce
ceb fbfbfb
cee gd
ggggfff gggf
gedd fff
aaaaaaabb abb
eeeeffff ed
d ced
e gghf
bb aabb
cbb cddf
ggg edcbb
cddd effff
eeff gfgff
gggh gef
ghhf eef
cbaab abb
dbd ced
hghf hf
cebfb gbgb
ccd cdddddd
df ec
ccb aaaaaabbb
cccd efgf
cccd ccccdd
eeff def
ghhhhh gggggf
cab ff
eddcd eed
ggggggh ggggf
f gfd
df dcd
cbbb ccdf
cccd cbbbbb
eeed cc
cccb abd
edf efdf
hhhhh ged
ggghh ggghhh
gee cd
gggggff ggff
abababab a
gahahahbgcedd ecgbhahaha
ggf dff
ccdd eeeef
eedd cdf
eedd efgf
efef ggff
gggh fh
fd cd
ggghhhhh ggff
hchc gdfeefd
egg b
ghhhhf ef
gghhhhhhhhhhhhhhhhhhhhhhhhhhhhhhhh h
c eeefd
bb aa
hhhh gfe
ccd ccdf
ccd cdbb
cbbb aaaaaaaab
efff efgf
ccbb ccbbbbb
ca cdd
fffff gff
cdb abbb
eddddd cd
ccdb dbdb
gggghh ff
egg eb
eefe gfgf
ccddf gf
eeeeeffff fffffff
ghhhhhhhhhhhhhhh gf
ccd eeeeed
ce cdbdb
gghh gfgf
ec gdf
he hdhe
eeffff e
ebb cf
cedf eff
cgb hahahaha
ggggggggh ghgh
cc ghh
ffff edd
aaaaaaaaaaaaaaaa aabbbbbb
effff eee
gfff eddd
efef effffff
cccdd edddd
eefff gfgf
dff dcb
aaaaaaab aabb
aaaaaabb abb
geed ee
ggggggggf ggf
ebd cccb
cc aabbbb
cb aaaaaaaaaaaaaaaaaaaaaaaaaaaaaaaaaaaaaaaaaaaaaaaaaaaaaaaaaaaaaaaa
df eefd
ggh ghhgf
aaa e
edf eee
gghh ggffff
eeeef efd
edb abd
cde gggff
cff edd
aaaaa cef
gggggff e
edde cfc
gdb cf
cbaa c
cabab aaaaaab
abbbbbbbbbbbbbbbb bbbbb
c hc
cb aaaaaaaaaaaaaab
gh gffffff
cbb aaaaaaaaaabb
ce cccc
ce cfcfcf
df ggd
ggh ghgff
aaab cef
cddd cccddd
eee ccdf
eeeff eeeff
efffff dd
ddf de
ccf hgf
cccbbb cccd
ghhhhhhh ged
gdgd gdge
cccccdd dddddddd
cb cefd
cbb aaaaaaaaaaaab
eef dff
cf cdb
ce caa
ge aa
ccbb aba
cbcb f
ecb cdef
eeeed cbbb
cce ced
eddf e
edcd eeed
ece cfcf
cabab ababb
ggggggggff ef
cc efdbb
cd gd
bbb ef
eff gghhh
cbb cced
gggggggg hhhhhhhhhhh
efff db
cef ecc
gghhhh ghhhh
abbbb aaabb
cab ac
efffff effff
ccdddd bb
eddddd eddd
ceed cdd
dfd gf
Ġ ccbbbb
hh gggff
eeff gfd
eeef eeefff
eeedd ccbbb
hhhhh ggff
gggfff gffff
cce ghh
eedf gff
aaaabb aa
ceff eff
gghhhhhh ff
cedf dd
eeedf gf
gggg geeef
eeee dfef
cbb ccccbbb
ge cccd
cccccccc ddddddd
gc gdfd
ecd ffd
ccddd ccbbb
eeeddd eeed
hfh ff
cbccdd ed
ggecd ff
d cdcd
Ġ cdef
bbb ccdd
efff gfd
cddd eefff
eeeeeeee eded
cbbbbb aaaaab
ccccdd ee
gfffff eed
ccccbb abbb
ccbcb aab
eddcdd ff
gfe gggf
ccccccd cdcdcdcd
aaaaabbb aaab
ghg ddd
cbcc ced
egg ecb
g eeeee
gggg ghhhhgf
ggf dddd
eef eeefff
ce cdbb
ggh ggggffff
eedd cccbb
ccbb aaabbbb
hf hhh
gggh gffff
gghhh ghhhhhh
ghhhhhhh ggggf
ccef gfd
edcb cdf
eeded eeed
effd cdf
ccdef gggf
cbcbcbcb cbcccc
hh ah
aaaa cdd
cccc cdcdcd
gh gghhhhhhhhh
ggf gd
cf efef
ce hhhf
ggh gggggggh
cccd cc
de ccdd
ca eb
ggggf ge
eeedd cdddd
edddd ccccd
ggghh fd
ggggggf eed
dde cfbgb
eeeeef effff
gbf cdd
ghhhhhhhhh ff
ebd bbb
eeeddddd ed
cc ghf
gggg ecbb
gggg gfgfgfgf
ggg eccb
ccd cbaab
eef gghh
ddd cdcd
eeef edddd
bbbbb aaab
cccdd eded
gef hhh
gggh ggggfff
eeeffff ggf
cccccb cccccccc
eccd e
ecf gf
ggfe gff
ecddceb fagaga
Ġ dddddddd
Ġ efed
cbb egf
cccd cbcd
cdb ce
ccddd cdcd
aaaaabb aabb
dc aaaaaab
gfgggg hhhhhh
eefffff eff
ccdef ee
gghgf dd
cbbbd bbb
d eee
ed cbd
ggh geb
gfff gggfff
edf gd
efd ab
eeeed eefff
ghgf hh
cfd ge
eefef eedd
gedd eff
ghhhhhhhhh gggf
ccde gggf
aa cdcb
edd cedd
gh eh
ggg egd
ce cfbfb
efff ede
eddd eedddd
cddd cccccccc
cddd cbcd
ccbb cdff
ghhhhhh fe
ceff dcb
aaaaaaaaaaaaaaaaaaaaaaaa aaabbbb
gahahahb fcedd
c aaaaaaaaaabb
Ġ efe
aa db
ee cff
ee gee
df eeed
cbbb ccc
efff eedddd
eddd eeeedd
ccbb cccccd
de gggff
edf ged
gggh fe
eeddd eee
dddf ggf
cdcdb cbcb
d eeed
ee hf
edd eeeeff
cdd ccbbbbb
ccd ceef
ge ccdd
cbbb aaabbbb
gfff efe
de ghhhh
gggff gfgf
eeeeeeee fffffff
ccbbb aaaabb
cab aaaaaaaaaab
aba bbbbbbbbbbbbb
edcb ce
ghggf gggf
cccbbbbb abb
gghggf gff
caaa c
gg ca
dd ccc
dddd cd
dddd dde
cf eee
aaaaaaaaaaaaaaaaaaaaaaaaaaaaaaaa aaaaaaaaa
aaab aaaaaaaab
gd gege
bbbbbb abb
ccbbb cc
cbbbbb ccccd
eeeff ddd
eddddd e
dfdf dfdfd
aaaaaaaa bbbbbbbbbb
eed eeeeff
aaaaaaaaaaaaaaaaaaaaaaaaaaaaaaaa aaaaaaaaaaabb
eb def
eeef efefef
gggh gggggggggggg
gc aaaab
ec eddf
cee cab
eddddd eeff
ggfd cbbb
ggggggh ghghghgh
cdc aabb
ehh fd
aaaaabbbb ab
Ġ ggggh
ee ccccd
cdd ecdd
cdd eccb
bbb def
gh ghhggf
gh gedb
ccd cccbbbb
aaa ca
gfff ege
abab ababbbbb
cccdd eee
gc g
hhhhh g
ghhhhh gffff
ghf ge
ggggff eeff
ghhhhhhh ghhhh
cddddd eef
eeeddd eeff
cbbcd eef
ece cedd
gggfgf gggf
cbcbcbcbcbcbcbcbcbcbcbcbcbcbcbcb cbcbcbcbcbcbcbcbcbcbcbcbcbcbcbcb
dd eeeef
cccc eedd
cdd cccccd
cbb aaaaaaaaaaab
edf efeff
cee cbd
cddf eff
cccccb cccb
ghg bb
cdbd cdb
edd edef
cf hhhhhhh
efff efe
ccbb dee
cbcb cc
cef ede
aabb aaabbb
ccbbb cbbbbbb
efd eeed
gggffff eef
cddddd eed
hhf df
gghhhhhhh gggf
eeefef df
haha ga
b c
ef eeee
cbb cbcbbb
ghh ghhf
efef ege
abbb aaaabb
ecd cc
hc gcgdf
bbbbbbbbbbbbbbbb bbbbbbbbbbbbbbb
ccf gggf
ccccdd ccd
caca cacaca
cbb ccbbbbbb
gff dcb
cccccccc bbbbbbbb
ghgh ghhhh
cef dbbb
eded eedd
bbbbbb aab
gggh ggef
efd cccd
hd ge
gdb abb
cabb aab
egg dbb
ghh gebb
ccbb abd
eeef dfd
gghh ghhhhhh
eeddd effff
cbd c
he hfhgh
ggggggf gffff
hgh ggff
ghgggg ggfff
cbbcd edd
gghgh ggggf
aabab aab
hhhhhhhhhhhhhhhhhhhhhhhhhhhhhhhhhhhhhhhhhhhhhhhhhhhhhhhh h
edfdf ded
e geef
edd ddddddddddd
cdd edef
fff eee
cbb aaaaaaaaaaaaaaaa
ggf ggfff
efff effffff
cef dcbb
gghhhh g
egf bb
cce ghhhh
gedd ee
hhhf ed
cbbbbbbbbb abb
ghhhhhhhhhhhhhhhhhhhhhhhhhhhhhhhhhhhhhhhhhhhhhhhhhhhhhhhhhhhhhhhh hhhhhhhhhhhhhhhh
f db
h gdbb
dd efef
cbb ac
cf gfef
ce bbbb
ccb dc
cccd ecb
ced bbd
gfgf gffef
gggh gggggggggggggggg
aaaaab aaaabb
ddf gd
eeeeed bb
cccccb cbbbb
cbcbcbcb cbcbbbb
cfhh gd
e ggge
h ggee
Ġ aabbbb
cd ccbbbbbbb
ccb aaaaaaaaabb
efff ecd
ced cc
cccb ded
cccb cccddd
gef eedd
ccbbb cccc
eefff eeeef
cccbb ccccd
ceed ccd
cbbd edd
ddef ee
ggfe gggf
gggghhhhhh gf
aaaaaaaaaaaaaaaaaaaaaaaaaaaaaaaaaaaaaaaaaaaaaaaaaaaaaaaaaaaa ab
Ġ gggggff
gggg egf
eff eddf
ggf gggggf
ghh gfgff
aaaab aaaa
abbbb cbbb
ccbbbb cbbbb
cdef gfed
edb c
ggggh ghhhhhh
ddf eed
dff ecb
ddb cd
ghhf bb
fagagaga fa
h dfd
ff eed
bbb aabb
eef ggffff
ghh ggghgh
ghhh gghhhhhhh
hf db
ccbbb cded
gghhh ggh
ghhhhh ggghhh
cee effff
ceff ecb
ccccdd eeed
geff df
caa cff
cdd ccc
ce cdf
ccb cdccd
efff efed
eee cde
cccdd ccddd
cdb abd
aaabb dd
fd eb
cdef db
ecfb fb
g cbf
eed ccef
eed edddddd
cbbb abd
ghh ghghh
eedd cccccd
de cdf
ea ebeb
cbab abbb
gdgd hd
ggggggff eff
ebfb eb
e cbbbbbb
cd efffed
cb aaabbbbbb
cccddd ccdd
eeefff eeff
eeeedd cccd
ggghhhhhhhh ggf
eeeeef gggf
effd ccd
eddef gggf
eefed eff
ebdb dcd
eghh fd
e ghhhhhhhh
hh gffff
gg cf
gf hhh
cdd edcd
cbb cccbcb
df dee
cbbb aaaaa
aaab abbbbb
ccbb db
ghgh ghhhhhh
cccb abbbbb
hf hehehe
gghh ggg
gc gcfb
ghhhhh ggh
eeeed eeeed
cde ghhh
ddf eff
ghhhhhhhhhhhhhhhh hgf
eefffff eed
eddef edd
gffd eff
cfhh ge
bbbbbbbbbbbbbbbbbbbbbbbbbbbbbbbbbbbbbbbbbbbbbbbbbbbbbbbbbbbbbbbb bbbbbbbbbbbbbbbbbbbbbbbbbbbbbbbb
a ef
cd cbbbbbbbb
ccd ccccbbb
ghh gghf
eddd efd
ccbb aaaaaaabb
eee cbd
ccccb cbbbbbb
dff edd
cbccd bbb
effgf ee
ggfed ee
gggghhh ggff
ghhhf dd
gggg efff
eb aac
cded cddd
ggggggf ggggf
cdff eef
cced ee
eeeeeeedd dddddd
h ffff
ef gef
edd ecgb
gff efe
eeff ggg
ccbbb c
edddd eefff
ghhhhh ghhhhhhhh
cded cdf
cccbbb cccb
gffffff eff
cbaa ce
cgc gbhb
gce gb
a ccf
e hhhgf
Ġ gfef
cc eefe
ggf effff
cbbbb aaaaaaab
df hhhhhh
cbbb cdee
gfd cccd
cbbbbb cdef
edddd effff
ceb ed
gdf egf
gdf dff
eedddd cccd
dbb de
cccccd cccdd
ecbb aaab
eefef eeef
fafa faea
eh gb
cbaabb d
cc aaaaaaaaab
dd aa
aaaa cff
eeee cbb
ccd eddddd
eed efe
ge hh
ge ggff
ccccd effff
dfdf b
cbcbbbb bbbbbbbbb
ccedd bb
cfbgbgb gbgbgcfddf
cccc cdcdcdcd
ce cdc
ggh gdd
efff edcd
ccdd cbd
ced ab
cccccccc ccccccdd
cdcd cdded
ggggf gfgfgf
eded eee
ded cdf
eeddd cccdd
ccccb ccbbb
gcf eef
ggghh ged
cce ggfd
ggghhh ggfff
gggggggggggg gfffff
ggggfff eff
cbccdd b
aaaaaaaaaaaaaaaaaaaaaaaaaaaaaaaaaaaaaaaaaaaaaaaaaaaaaaaa ab
cb cabbb
cccc abb
db cddd
gfff gggg
cdb da
he hdhdhd
ede ccb
gfe gd
aaaabb aaaabb
cece ceded
eefef ded
geed bb
gegf ggfgf
ccdcdd ddddd
fhh gd
gchchc hchd
dd edddd
dd cff
cf gee
cbbbb cbbbbbb
ccb aaaabbbb
eedd cc
cef ec
aaabb cdd
eeeed eddddd
ede ghgf
eeeeef edd
gggghhh gggf
cdcccc cddd
cccbbbbb d
ccccccb cbcb
ccddf ed
ha gahb
hfhe hf
f de
ab abbbbbbb
cbbb ccef
aaa dff
ggff gg
ccdd ccbbbb
eee ggfff
eeeed cbb
gggggggggggggggg gggggf
eefef effff
caaa cf
ggdb aab
gffffffffffff fffff
bbbb de
cd bbbbbbb
gh gggfef
gggggggg ffed
cccd ffd
cbbbbb cccdd
gghhh ghgggg
cccbb ccddd
aaaaab ce
gggfff eedd
cce ggggf
cce ceb
ggghhhhhhhh hggf
ccdb aa
cbbd cbb
gfee ggf
cgbgbgbgb gbgcfedf
Ġ cded
cd eeded
cd ccdcd
ccd a
ccd ecc
ddd efed
ggff eeedd
ghgh ghhhhhhhh
abbb aaaaaab
ded bd
ecb aabbb
hb d
aaabbb aabbb
gge gggf
gge bbd
dcd ced
gfe cccd
ccccdd eddd
eddf ee
hgf ggf
ggggffff ed
bbb aaaab
hhh gdd
ge gdgdgd
cbbb ababb
aaab c
efff gg
cddd cdef
eeffff ffd
cbab dff
cbcd eedd
ccccbb ccdd
eccd fff
cdccb aab
dd eeddd
ee ca
cdd cbcb
gff gffff
eeff gfffff
cccccccc ccbbbbb
gfd ccdf
cbbbbb cccbb
hhhhh gggf
gghhh ggffff
ghhhhh gee
ccef ge
cccccb cbb
cecf dfd
ff gd
cb cacaca
bbb cccd
ggg eh
ddd ecd
ce ggfff
cdcd ccbbb
abab ac
ggghh ghhhh
eedf cgbgb
cddf de
ccdef edd
effffffffffff ffffff
f ceed
eef dbb
ccb aaabbbbb
ghh geeef
eeed cccb
gfff ggggggf
gfgf gefef
gghh gghhhhh
gfd cdff
ecb ef
ceb fd
cbcd efff
cddb db
Ġd eff
aaaa bbbbbbbbbbbbb
dddd ccd
eef hhhh
ce cdccb
ge hdhd
ghh ggee
eedd edf
gef eeef
cbbbbb abbbbb
ccccb cbccd
cde ghhhh
ccddddd ef
ebd cc
gghgh gggf
gghhhhhhhhhhhh gf
cc edde
eed eeeeeeee
cf def
gff edf
gggggggg hhhhhhhhhhhh
aaab aabbb
ghhh ggef
gffff ggfff
cdf ggfff
eeeff ggfff
gggggggggggggggg ggff
ghgf db
hfhf ggf
efggf eff
geb abb
eggf e
eeeeeedddd ddddd
ghhhhhhhhhhhhhhhhhhhhhhhhhhhhhhhhhhhhhhhhhhhhhhhhhhhhhhhh hhhhhh
Ġ efgf
aa cab
eeee ec
eed efef
eef ede
ddd ccbbb
efff gfed
aaa ef
eddd eeeeff
eedd cef
ccbb aaaaaaaaab
ecb cded
eeddd eeddd
ghhf db
abababab ababbbb
cdcccc bbbbbb
ccccccb ab
gbfd eedfcgb
ceddecf cfb
cc abbbbb
cdd cbbcd
ggg edde
df def
ccb dded
cccb ccccccd
ggggf dcb
gghh gfdd
gcf a
cfd bbb
cefff ef
hff b
gcgb hbhbhb
dd cdff
gggg ghhhhhhhhhhhhhhhhh
eeed cccc
gfff effff
cccdd ccbb
gc eed
ga faea
cbbbbbb cbb
cdcdd eef
gfgff gfgf
cced eef
cccccdd ff
aaaaaaaaaaaaaaaa aaaaaabbbbb
ggg edccd
ggf ecd
ccd ebb
cbbbb dff
ce gfef
df ede
ggff ghgf
ced fb
gfgf gffffff
cdf hhf
fa fbf
gge h
ccf g
cbab ef
cccccd eedd
edde cfa
eedb aa
ghg eddd
aabd fff
eeefffff ed
ghggff d
hh gedf
ee caa
ef eeeeeeee
ddd cf
df gged
gd hc
cccdd ccccd
eded eced
aaaab aaaaaaab
gghh ggghhhh
aaabb abbbb
cbbbbb aa
ccc eefd
aaaaab aaa
ceb fc
cccbbbb bbbbbbbbbbbbbb
gcf cfcf
gcf cfdf
aaaaaab abbbb
ceee bb
ccdeed bb
ghggff ef
ccb ccbcb
cbbb cbbab
ghhhh geef
ccbb cff
ggggf gef
gghhhh gggh
cccbbb cbbbb
Ġf dd
gaga gbfcedd
geed fff
gggggfff gff
ghgg eff
eghh ff
ghhhhhhhhhhhhhhhhhhhhhhhhhhhhhhhhhhhhhhhhhhhhhhhh h
eeeeffffffff ffff
hdhdhe hf
Ġ edef
cc eede
cdd cab
cdd cce
cdd bbd
eb fbfbfb
ccdd edcb
eeff gggggff
eeef eeee
ccbbb abbbbb
aaabb aaabbb
ghf ggf
abbbbbbb abb
cccccbbbb bbbbbbbbbb
cbcbcb cbbbbb
cbbbbbbbbbbbbbbbbbbbb bbbbb
ccbbbbbbbbbbbbbbbb bbbb
gcedd fb
ee ccef
gf gggff
edd edcb
eef ggggggf
ce ca
eeed efgf
eeff ede
ced eeee
ced cbcd
eeedd eeedd
fd ab
cbd eedd
cdddd cbb
ccc eeb
cde cf
ggggh gfd
gggggg ffffffffff
ghhhhhhhhhhhhhh ggf
gggggffff fffffff
aabab aaab
gahaha gafb
ggggffffffff fff
b ac
Ġ bbbbbbbbbbbbbbbbbbbbbbbbbbbbbbbb
gg eede
ee bbbb
ee cbaab
cb ceb
gh dd
ggg eded
ddd cef
eeff dddd
gffff gffff
ghgh ggggf
cdf gfdd
gc gbf
eeeef efffff
ccccb ccccb
ggggh ghhhhhhh
ggghh ggggff
ccdf eed
dee gff
ghhgf gggf
eeded ecd
gghhhhhh ggggf
effgf eff
geed e
hg ddf
cccccccccccccccccccccccccccccccc cccccccccccccccc
hhhhhhhh hhhgf
cd abb
gggggggg gffffffff
eeeeeeee efef
cddddd bb
ccbbbbb abbbb
gggggggggggg ffffff
Ġf eef
Ġ aaaaaaaaaaaaaaab
aaaaaaaaaaaaaaaaaaaaaaaaaaaaaaaa aaaaaaaaaaaaaabb
ccdd ccccdd
cbcb c
ghhhhhhhh gfff
gc gcfdeedf
cde ccbb
ecbb cef
gfgff ggf
hgf df
eefef egf
gggggh ff
hchc hchchd
cc aaaaaabb
cd eefffff
gf hh
edd effed
gh gggggggggf
gh gfdbb
cbbb dbb
ccdd c
eeff eeffff
cccb cee
gggff ggggff
cccbb de
aaaaaab aabb
aaaabb a
cdcb ce
caaab f
cdedd ff
cbcc eef
abaca da
gggffffffff fffff
b aabb
ee ab
cbb eff
cbb cbbab
ggg ecdd
ggg dbbb
ddd effff
aaab ef
eddd efffff
ggff gggg
ced ffff
gef edf
edddd edf
cdddd ccbb
he hc
cff eb
aaaaa df
aba caba
cbbbbbbb cdd
gaga gbgb
cced edd
edded eef
ad bbb
cd cabb
ccd ccbd
ccb cbbbbbbbbb
ghhhh gfeef
gb ea
cdf eedd
gggff df
cccbbbb cdd
efgf eddd
aaaaa f
efggf gff
ecc efd
eeded eed
gdgd ge
geed eef
ccb ccbbbbbb
cddd ccdddd
ccdd ededd
eeeef eeeeeeee
cbcd cbbb
gfffff ggggf
cfd edf
aaaabbb abbb
ggggggff gff
gfgfgf gggf
aaabab abbbb
hghf hgh
Ġ aaaaaaaaaaaaab
ff hf
cb ece
cf eh
efff efeff
eb fagaga
eeff db
gb hc
cccb ccbbbbb
cdf eee
ecd efed
ggghh gggg
dbb aabb
gfe cef
gege geff
Ġd cdd
eecb df
ghgg eef
eeeeeeeeeeeeeeeeeeeeeeeeeeeeeeeeeeeeeeeeeeeeeeeeeeeeeeeeeeeeeeee eeeeeeeeeeeeeeeeeeeeeeeeeeeeeeeeeeeeeeeeeeeeeeeeeeeeeeeeeeeeeeee
cd cccccccccccccccc
ggg dde
ggg effgf
ccb cdeef
efff ggggggf
ccdd eeeedd
cccb f
gghhhh gghhh
ccbbb ded
edddd eee
ccccb aa
eeeed ededed
eedf dfdf
gfed cd
efeed edd
cdc fff
edff gff
ehh g
dddb aab
c gcfb
cc eedef
cbb ddcb
cbb aabbbbbb
ccd cab
ccb ceef
ggh ghhhf
cdf dcd
cff eef
aaaaaaaab aaaaab
ccccbb aabb
cddb aabb
abababab abbbbb
cbc gf
aca bbb
d cccd
dd ffed
cb aaaaaaaaabbb
edd edcd
aaaaaaaaaaaaaaaa aaaaabab
ggg efed
ddd egf
ce fffffff
ggh ghhhhhhhhhhh
ccdd ccdddd
ccdd efed
eded eefff
gef def
gggh e
ecd bbbb
ceb gb
cde ged
eddf hh
gfef gfff
aaaaaaa bbbbbbbbbbb
effd cdd
ecf de
eefgf eff
caaaaab d
g eeeefff
ccd eeefff
cf ec
cbbb cccddd
ghh gffe
ghh geeff
eeed eeeddd
cdddd cccdd
hhhhhhh ff
efe ccf
cccbbb cddd
cccccd efff
eeeeed ee
eeeeed cdd
ccccccd cddd
geb aaa
gffd bbb
ghg hhhhhhhhhhhhhhhhhhhhhhhhhhhhhhhhhhhhhhhhhhhhhhhhhhhhhhhhhhhhhhhhhhhhhhhhhhhhhhhhhhhhhhhhhhhhhhhhhhhhhhhhhhhhhhhhhhhhhhhhhhhhhhhh
hdhdhe hfh
c ghge
h ghhhf
hhhhhhhh ggf
ccb cccccccd
ghhhh ggggggf
aaaaaaaaaaaaaaaaaaaaaaaaaaaaaaaa aaabbb
dbb cdd
cbbbbbb a
gggggggggggg hhhhh
ccccccd cccd
dfb fb
cgbhb hahb
ee cddf
ed cbbbb
ed bbd
gh ghhhhhhhhhhhhhhhhhh
hhh geef
ggf bb
eed ec
eef eeeedd
ddd ede
ce gee
ggh gffgf
eeed eeffff
eedd ccbbbbb
gb gdef
gghhhh gfe
ccc ffff
cde gggg
cccbbb ccbbb
eddddd cddd
cdbb aaab
cbcbb abbbb
Ġd eef
ccddb aab
Ġ ggghh
dd cba
cb cccdf
ddd ced
ccb ccded
gggggggg hgf
cbbb ccccbbb
aaaaaaaaaaaaaaaaaaaaaaaaaaaaaaaa abbb
effff eefff
gd g
gggff gffff
gfd bbd
eeddd eeeff
ccccd ccddd
ccc eeeddd
ccccb aaabb
cded cbbbb
eedf efef
ceed bab
edde cf
gggghh gfff
eccd eff
caaab abb
bbbb cf
gggg ghhhhhhhhhhhhhhhhhhhh
ed efd
ccb e
ccb cccccbb
aaaaaaaaaaaaaaaaaaaaaaaaaaaaaaaa aaaaaaaaaaaaaaa
eeed eeee
ghhh geff
ghhh ggghhhhh
ggggf gggfff
cdb cbccd
gge cccd
ahahahah ahaha
eddcd ee
gggggh ggfff
gfgfgf ggggggf
edededed ededed
faga fafb
gahahahahaha gcdgb
aaaaaaaaaaaaaaaa aaaaabbbbb
ggf hh
ddd eeedd
hf a
gfd cc
eeeed eee
dcb aaaa
cbab ded
gfffff eeef
hhf ee
effgf gffff
cedf efef
efffffff gff
cbcc eff
dfe gdf
ddff ef
cbbbd fff
ccccccdddd ddddd
edd cbcd
ccd cce
df gfdd
cbbb ddf
gggh ggghhhh
ccccd cdcdd
ede cccd
eedddd ee
gfgggg ggghgh
aaaaaaaaaaaaaaaaaaaaaaaaaaaaaaaaaaaaaaaaaaaaaaaa aaaa
cccccddd ed
gf eee
gh gggfed
ddd eefff
effff efe
ced eedd
abab abbbbbbbb
gef egfgf
ggffff eeff
gcf cgd
efffff eddd
ghhhhhh ghhhh
ccdf hh
ccdf ecb
ddb aaaaab
eddef dd
ddbb aab
aaaaaabbb abb
eeeeeffff ffffffff
eceb fb
gggg gdd
cd gggf
cb efd
ggg egh
ggf dde
gggggggg ghghghgh
gd cc
ggff hhh
cdcd ccccb
gggff gggfff
ccbbb aaa
ccccd efed
ecd ffff
ged efff
ggffff eeef
ceff dcd
eeefff gfff
eeeeed edddd
geb f
gggfffff ed
gahb ha
edddddddddd ddddd
cc ac
cb dfe
cbb cab
ggf ecbb
ccd cbbcd
ge cbcd
cccd eeeef
eeff ecb
ccbb cccbbbb
ccbbb def
ccbbb aaaaabb
cbd cdcdd
ccbbbb abbbbb
gghhhhhh gfff
ghhhhhhhhhhhhhhhhhhhhhhhhhhhhhhhhhhhhhhhhhhhhhhhhhhhhhhhh hh
e ggee
gggg dd
gggg gghhhhhhhhhhhhhhh
eff gggggff
eef eeeeeeee
cbbb ceef
ghh ggghhhhhh
ghh gggghhhh
eeff eeee
ghhh ggggfff
cccb cbbbbbbbb
da c
efgf ddf
ccdb cbcb
cddb aaaab
eddef eed
ceceb d
Ġ gggggggf
Ġ aaaaaaaabb
cbb cbcccc
df hhhf
ccb ccddddd
db cab
ghhh gggggggf
gfgf ggh
cef ggfd
edf hf
ggggf ggggff
eded edddddd
gghhhh gghhhh
ecd cedd
eeeff eefff
aaaaaaaaaaaaaab abb
c eeeeeff
g edddef
cccc cff
edd ccccbb
edd eeeedd
ge hfhe
db dcb
aaab ababb
efff gggggggg
eb cab
cddd bbbbb
gghh ggfed
fd edf
ecd eeed
cccbb abbbbb
ec aad
ccc aaaa
cdef gfff
cde cdb
ghgf eee
ggef hh
ghhhhhhhhhhhhhh ghgh
ghff ef
cbbbbbbbbbbbbbbbbbbbb bbbb
cececece cececece
ababababab aaaaaab
bb ff
gggg ede
edd ceef
eef ggfd
cbbb aaaaaaabb
cccd edcd
eedd eeee
edddd ccddd
eeeff effff
ceb dd
cdef gggff
aaaaaab f
ccbcb cbbbbb
Ġf gggf
ghhf ddf
eccd ee
gggggh gggggggg
gggggffff ef
acadada dada
Ġ bbbbbbbbbbbb
edd eddddd
cdd bbab
ccd cbcdd
ccb ddb
ge gdd
eb ced
ghhh ghhhhhhhhh
ccbb dddd
ghhhhhhhh ge
egf gee
ggggh gggggggf
ffffffffffffffff ffffff
ba cf
cdeeed b
gghhhhhhhhhhhhhhhhhhhhhhhhhhhhhhhhhhhhhhhh hhhh
e ghgff
ggg eefgf
ccd bbbbbb
ddd cc
ce hhhhh
efff eeeedd
ggff eefff
cdf gged
eded bbb
aaaab aabbb
ecd a
aaaaab aa
ea faea
cedd cd
gggfff eeff
dbb cef
gfef ee
cddf gff
hhf gf
cdbb abbb
ghhhf ee
hahahahah bf
ccb ababb
ggh geff
cccd ccdddd
ccbb aaaaaaaabb
de cbcd
cccb aaaaaaaab
aaabb cd
gfd ccdd
cdddd eeedd
ggggh gghhh
ggggh gggggff
ccccccd eff
gffffff ggf
ggggghhh gff
ghhhhhhhhhhhhhhhhhhhhhhhhhhhhhhhhhhhhhhhhhhhhhhhhhhhhhhhhhhhhhhhh hhhhhhhh
ghhhhhhhhhhhhhhhhhhhhhhhhhhhhhhhhhhhhhhhhhhhhhhhhhhhhhhhh hhhh
cababab aab
Ġ cccbbb
gggg ghhhhhhhhhhhhhhhhhhh
bbb ded
ggg eeeed
cbbb cbaab
efff ddf
eeed cccbb
cccb def
eee cbcd
cdf ghhhhh
gghh geef
ccccb dbdb
cde gfff
ccdddd df
ceed cd
aaaaaaa cf
Ġf ee
eeeedddd ed
cedb aa
d aab
g eeeeeef
edd cdded
eed eggf
gggf gd
cccd cdcccc
ccdd cccddd
gfff egf
gfgf ggfgf
de cba
cde ghh
aaabbb aaa
ghhhhhhh gggff
gaga gb
ecdd cfb
gggghhh ff
abababab abbb
efefef df
abbbbbbbbbbbbbbbb bbbbbb
abababababab aab
gh ec
cbb cefff
cbbbb ded
effff eeeed
ghhh ghghh
cccb cdcd
ca caba
ghhhhh gghhhhh
eedddd e
ccccbb a
effed fff
ggggggh gggf
aaaaaaaaa bbbbbbbbbb
dd cbbbbbb
eff eb
cbb cba
cf dcd
eddd eeeeeeee
ccdd ce
ccbb aaaaabbb
cdddd eeef
he hfhe
gggggff gfff
aaaaaaaaaaaaaaaaaaaaaaaa aabbbb
hgf de
ecdd cdb
caaab aaab
cbaaab aab
eeefffff gf
ghfd bb
ceeb aab
gg caab
ed ffff
cccc ceeed
edd cbd
hhh gge
gff eefff
cbbbb cdff
gggggggg gfggf
db cdef
cbbb cccccb
ghhh ghhhhhhhhhhhh
cbbbbb cbbbbbb
efd cbd
efe cf
cff ge
aaaaaaab aaaaaab
gege gegegf
eeeffff ffed
bbbbbbb d
ccef ggff
efggf ggf
ebd cf
dd edef
ee ccddd
gggg gefff
eed cce
eddd ced
ghhh ggfe
ccbbb aaaaaab
aaaaaaaaaaaaaaaaaaaaaaaaaaaaaaaaaaaaaaaaaaaaaaaaaaaaaaaaaaaaaaaa aaaaaaaaaaaa
edb aaaabb
efe gegd
ghhhhhh ghh
efgf b
eedf egf
dc eedd
gfgff efef
aaaabbb aabb
aaaaaaaaaab a
abbbbbb aab
cbcbbbb ab
aaaabbbb aab
gcfd eddf
c ggff
ccb cbbabb
gggggggg ghhhhhhhhh
db ccf
ghhhh gfgf
ghhh gdbb
eee ccddd
cdb de
gghh ghgggg
gghhh ghggf
eeeef eeedd
cccbbb cbb
aaaaaa bbbbbbbbbbbb
cbbaab ab
ff de
gggg eedd
ghh gggffff
ghhh ggfgf
cccb ccdcd
edddd bbb
eedddd eeed
ghhhhhhh gfed
gggggggggggg ggfffff
cdddddd ef
gfgggg gggfff
ece cddd
eeded eff
dbd bbbb
cbcbb aaab
fafa ea
cdeff edd
gghgh e
ebf df
aaabbbbbb ab
dd ccf
dd ffgf
ee cdcdd
gggg geedd
aaaaaaaa aad
fff gfff
eeff gfe
eee cbab
aaabb aaaa
ccddd ccccd
ghgf ddf
cff dcd
eeeeff eeef
cddef gff
eeddf ggf
gahaha gbfceedf
gghhhhhhhhhhhhhhhhhhhhhhhhhhhhhhhhhhhhhhhh hhhhhh
Ġ ccccdd
ccd ecdd
eed cccddd
ce ggfe
gd ffd
edf egfgf
gggff de
gghh ghggf
cccbb cbbbbb
ga fbf
ggd bbbb
aaaabbbbb ab
c ha
e cdcdb
eed cdeed
ghhhh ggggh
eeef ge
cdcd cece
aabb aabbbb
eeedd ccccd
cdb cccd
cdb aabbb
eeeed cccdd
cdef eeed
gdf dfef
efgf df
cbbbbbbb aaab
Ġb f
effed ee
gegf gffff
eeeeeeff gf
gahahahah bf
Ġ cde
Ġ aaaaabbb
aa ehh
cdd cddddd
gggf b
ggggf h
eeeff gggggf
cccbb ccbbbb
ceb cb
ggghhh gggh
edef eeef
eeeedd cddd
dc gd
gdgd gef
ghhhhhhhhhh ggff
hdhd hehe
gggggghhh gf
cbdbdb dbdb
ecddceb fafa
c ghhgf
cb cccef
ghh ggfffff
eeff gg
eeff edcd
cef hhhh
ccbbb cbd
gfd efff
eefff ggfff
gghhh ggghhhh
cccbb ccccb
cccbbbb abbb
cee c
cee caab
ggggff ggfff
efffff gggff
eefef eef
eefd fff
ggef df
cbcbcbcb d
ccbbbbbbb abb
ee ceef
cb aabbbbbbb
ggf ggh
ccdd efgf
ghhh ggggggh
eeef efed
aaabb aaaaaaab
gghhh gghhhhh
cdddd efff
ec eddb
ceb fagaga
cdef eee
ggggh g
ccdf gfed
aaaaaaaab aaaab
eeeddd eedd
eeded bb
eeb abb
cdcdcd ced
gegef df
daca db
efffffffff gf
d eb
Ġ aaaaaaaaaaaaaaaab
dd cddf
ce cdcdb
ccb ac
db ccbb
cccccccc ccccdddd
eeeeeeee ddddddd
gghh gggggff
gef cf
eeddd eeeed
gghhh gggfff
cccbb ddd
cccbb cccdd
cdef ge
eeefff ggff
fe gd
cbbbbbbb abbbb
geed fd
eeeefff eff
gggggg eef
eced fd
gahahb hb
eeee ecc
eed ccf
ccb cbcbd
cbbb cdbb
cccccccc cccccddd
hf df
abab aa
gghhhh gg
da fb
eeffff dd
cdef eeef
gfffff ee
effed bbb
cdeff e
cbcdd bbb
eh gff
edcbb aab
cfff ef
gbgcf edfb
cdbdb dcd
ggffffffff ffffff
aaaaaaaaaaaaaaaaaaaaaaaaaaaaaaaaaaaaaaaaaaaaaaaaaaaaaaaa aab
gg bab
bbbb aaaab
cccc dddddddddd
edd cdff
edd dddddddddddd
ghh ghhhhhhhhhhh
effff ddd
aaab dff
eeeeeeee edddddd
gghhh ghhhhhhh
edef ggggf
gggggff eeef
eeeddd e
gfgggg gfgf
gdb aa
eeded fff
ghgggh ggf
gegdf b
hh ggfff
gggg eddd
cd ceded
ce cddf
cccd ecbb
ghgh gggh
de gfed
gghhhh ggghhh
ccccd cddddd
eeeef eeeef
aaaaab cdd
ggggh ggfgf
dcb aaaabb
cfb fcf
cbcd ecb
eddcd cdddd
ccded ccd
abd gf
hahahahah aha
cgbgbgbgbgcf def
c gdd
cccd edbb
ca cdf
efef eee
eeeeeeee e
eeeff ggggff
ccbbbb aabbb
ghhhhh ggghhhh
ccdddd cccd
ghgf eeef
gggffff gggf
cccccd eeff
hgh gg
dc eeef
gggggggf eef
aaaabbb aaaab
ggggggggf gfff
eaea eada
cbabb abb
ffffffffffffffff fffffff
gagbgbf ceddecfb
dd ggf
dd bbbbbb
cd bbbd
edd fffff
cdd dddddddddd
eed eeeedd
gggggggg ggghhhhhh
ccbb ef
ccbb cdbb
cccccccc cccbcb
abab aaaaaaaaaaaab
cbbbbb ccccb
ddddd bb
egf ecd
ged bbbb
ccbbbb ccbbb
aaaaab cef
cde cbbbb
ede cddd
edcb ccdd
gffef ee
aaaaaaaaaaaaaaaaaaaaaaaaaaaa abbbb
cbcc bbbbbbbbb
aaaaaabbb aab
ccbcd fff
cc h
dd ceef
dd efggf
cccc cdcdb
cccc cbcbcb
ddd eded
cbbb ccbbbbbb
effff eeddd
eedd c
ccbb cbab
cdcd c
gef dfe
ded ccb
cccbb ced
cab c
ghhhhhh gg
ghhhhhh gfef
ggghh g
cbbab aaabb
geb cf
cbcccc ccdd
ggeb a
gchb hahb
Ġ edb
cc aaaaaaa
ff ge
cb aaaaaaaaaaaaaaab
cccc efd
eff ggggh
cbb aaaaaaabbb
gggggggg ffgf
ggh ggffef
ccbb cccddd
eeedd eee
cdb cccb
ccccd ced
gcf ceedf
ddf gg
cedd fd
gggfff ggfff
cccbbb abbbb
gfed efff
eeded edddd
cedf ed
cbdb cbd
cccf ed
eeeeeeff ed
e aaaa
ff egd
cbb cccccdd
effff ggggff
eeef dddd
edf eeed
eeeeeeee eeedddd
ged c
ceb ec
eedddd ddcd
cce h
ddb cb
cccccd fff
ccded ccdd
gaha gafb
gh ggged
df bb
db aaaaaabb
db aaaaaaaaab
ghh gghhf
ggff ggg
ghhh gfffff
ghhh ghghhh
cccccccc ccccbbb
de cbbbb
cdddd edddd
ccbbbb cccb
ghf eff
gdf eef
ggffff ggggf
cee gggf
aaabbb aaaaab
caca bbb
effd fff
geed eff
gggggh ggghh
dbbb ab
Ġ cbbbbbb
ee cba
eed ecf
gggggggg gghgh
aab cbab
cbbb cdedd
efff ecbb
ca cbbb
ca dbdb
ghhhhhhhh ggggf
ccccd eeeed
gghhh gee
ea dbdb
eeeffff ffgf
Ġf df
ggfed bbb
gghgf eff
ad hh
hcgdf eef
dd eeeed
ed ec
cd eeeeeed
ef efffff
gh fffff
eed cccbbb
ce ghhhgf
ccb cbbcd
ggh ggggggggh
eedd cddddd
ghgh e
ca cbb
abbb ababb
ecd cccb
cccbb aaaaabb
cee cbab
gee ddddd
ggggfff gfff
ccdcd bbb
eeeeee ffffffffff
cebeb fbfb
Ġ ggffff
gg cbb
hhhhhhhh hgh
eeee eegf
cbb ccbcb
hhh ggghhh
ce ghhhf
ghhh gfgggg
ccbb ccdddd
cdcd edd
de cfd
aaaab aba
aaabb aaaaaab
ghf hh
cdef ecbb
eedddd cddd
gge ccdd
aabbbb a
gggggh gfff
cbc aaa
egg eef
ghge fff
eeeeeedd ed
Ġhhhhhhhhhhhhhhhhhhhhhhhh hhhh
gh ecd
cf gef
ce gef
ce hg
ghhhh fb
efff gef
eeef gggfff
cedd db
fe h
ggd ccd
gffffff gggf
cdcccc cccbcb
Ġ abbbbb
gh gggef
ggf egf
ce gghh
ggggf eeeff
ccbbb aaaaaaab
ec aabbb
aaaaa bbbbbbbbbbbbb
ceff gggf
cccddd cccdd
ccef b
ccdb abb
cccccdd eef
eecb cdd
efefef efff
Ġhhhhhhhhhhhhhhhh h
cccc ccbbbbbbbbbbbb
ccdd cded
eedd cdb
ca ced
ccddd eeef
eeeef ggfff
gee gff
ccdb cbd
gfgff gff
dbd ce
dada dadb
gfdd eff
aaaaaaaaaaaaaaaaaaaaaaaaaaaaaaaaaaaaaaaaaaaaaaaa aa
cfbgb gagagbgbf
cb aaaaaaaaaaaabb
cccc cceff
hhh ghhhhh
ggg ded
ghh ggggghhh
de hf
fd a
ccddd fff
gfe ccb
eeeeff eeff
ggggfff eef
ecf dfd
cbcc a
dcdd ff
gggggggggggggggggggggggggggggggg gggggggggggg
dba cf
cc aca
dd fffff
edd dfd
eb cbbb
eddd cccb
eddd edef
cddd cbbbbbb
ccdd bd
cdb df
ec eegf
ghhhhhhh ggfff
eeeffff ffffffffff
cdcb abbbb
ccdb aaab
eeeeef ee
cbbd eef
eddef eef
Ġd bbb
abbbbbbb aab
cfc gdf
ededed edddd
cb eggf
ce hgf
abb cbd
ggh ffe
gd bbbb
cddd ccccbb
eeeef dfdf
cfb fc
eeb db
eedb aaaab
gggggh ghhhhh
ceedd ed
c eeeeee
h ggfe
dd cedd
hhhhhhhh hhhf
cd effef
cd ccced
cb aaaaaaaaaaa
gggf g
gd hf
ecb cccd
efd bbd
ccbbbb ccccd
hd gf
cee cdd
fa gahahaha
ggggggf gggff
gghhhhh gfd
eccd eed
eddef ee
cccc cefff
ccd cbabb
ccd ffgf
ce ab
ghh gggggggh
efff dff
ccdd eddddd
edf gfe
cccbbbb aaab
cccccb cbbbbb
cbbab aabb
eddcd cccd
ccccddd cdd
abababab aaaaaab
cbcbcbcb cbbbb
eeedf ed
fh gb
gfeef ggf
cabbb aab
Ġ ghhhhh
Ġ aaaaaaaaabb
cccc efed
gh ggggfgf
hhh ggfff
eed eedddd
gff eeddd
effff gggggf
aaa cbaab
cddd efd
eefff edddd
eefff gggggf
ggggh gggggggggggggggg
eedf dfd
ddb aaaa
ceff b
dde ggff
cdddddd ddcd
ggd eff
cccccb cccd
hfh ggf
dfdfd eded
d abb
cd eeeeddd
edd effd
ggh gghgf
eddd cc
cddd cccbbb
de ceef
gghhhh ggggff
egf g
ccddd cbbbb
eeeef ddd
aaaaab aaaaaaaab
edb aaaaaaab
gdf ee
gfffff gffff
gfgggg fffff
aaaaaabb aaaab
ccbd cdd
eeeeeed eef
c hhhh
h ghhhhhhhhhh
gg cbd
dd cbcdd
cd ccde
cbb cbbbbbbbb
ghhhh ghggf
cddd cef
eedd bbbb
ghhh gc
cccccccc cbbbbbbb
cccb cccbcb
edf effff
eded ecece
ghhhhhhhh ghhhhh
eeedd bbb
ecb aaaaa
eeeff eeddd
cde cc
gge ccef
dbb aaa
eeeeff ggff
gghf gfgf
eecb aaaab
cdbd ced
gggggghh f
hh ggghhh
cf ddf
ge aab
ge ccef
gggf edddd
gd ccf
eddd efef
eddd ccccdd
eeff gghh
gfff gg
cccdd ccb
ggggf edef
eeffff eeff
ggggff eeddd
cdcb df
gfef eef
ece cdcdd
abababab abababb
gegf gd
ccdcd ced
hehdhd hdhe
bb aaa
cd gfd
cb cfd
edd cbbbbbb
gh df
aaab aaaaaaab
cef hf
ca ccd
ccccb ddd
cded eeed
ghgf efff
efed eeed
eddddd eeed
cdff eed
aaaaaaaaaaab aab
cbcccb d
ccdbb abb
Ġhhhhhhhhhhhhhhhhhhhhhhhh hhhhh
a ed
f ceddf
gggg geeff
cd h
cd cfd
cd eeeeef
cd cccbbbbb
ccb eb
eddd edddddd
ghhh ffff
eeef eeeedd
ccbbb ced
cde ggfd
ghhhhhhhhhhhhhhhh hhgf
cbab aabb
eddddd ee
gege gfh
cddddd eff
fffffff gf
eegf ee
cbdf ed
aaaaabab abb
ccdddddddd ddddd
cb cccbbbbbbb
hhh gggff
ggh gggggg
gghhhh ghhhhh
eeedd cbb
abbb aabbbb
egf geff
ggghh gggggggg
gge gfgf
def ggggf
cddb aaa
ggge bbb
edccd eff
ggghhhhhhh gff
ggggggggggf gfgf
cfbgbgb gcf
e ggggggf
Ġ cccccd
Ġ ecbb
gggg hfhf
eed gf
eed eeeeed
cddd ccbbbbb
efd eeef
aaaaab dd
ggghh gfe
ghgggg gfgf
gffef eef
cdcccc cccdd
cbaaab abb
aabd bbb
eeeeffff ef
cbaabbb ab
g eeeeeff
dd cdcdd
hhhh fff
cb caaab
edd cce
eed cccccd
eed bbd
cbbbb ceff
ce cbcd
ghh gggggfff
ghhhh gggghh
ggh ggeff
ccdd ccccbb
bbbbb cdd
cdf ghf
abbb aaabbb
gggh ggggggff
ded ffff
ec eedf
ede gfff
eedddd efff
cccddd bbb
effffff eef
gfgfgf ggggggggf
efeed eef
aaaaaaaaaaaaaaaaaaaaaaaaaaaaaaaaaaaaaaaaaaaaaaaa aaaaaaa
cdcdcd ccccd
gggggghh gff
bb aaabb
cd eeedddd
gh edf
ccd cbbbbbbb
ce cddddd
gb gcgc
cdf gfef
ecb aaaaabb
hhhhh gfff
eeffff ggggf
cece cedf
cccccb ccccd
cbcbcbcb cbbbbbb
cbccb abb
cfe gef
ceddecf cgbgb
cd eeeeedd
fff eeed
aaaaaaaaaaaaaaaa bbbbbbb
ddd cdef
db aac
cbbb aaaaaaaaab
cbbb aabbbbb
ced efd
eee gfed
cdf ggfed
cdddd cdddd
gggggf ggfff
ggggh gfe
efffff gffff
dcb aabbb
eddddd ccd
ceed bbbb
cbccd cdcd
ccbd eff
ccbd cdcd
eefed cdd
ghhhhhhhhhhhh gff
hhhf gf
g cece
hhhh gghh
ggg eeefff
cbbbb aaaa
ge cdef
cbbb ddb
eeff dbb
cccccccc cccccbbbb
cccb aaaaa
eeedd eeddd
cdb c
ccbbb cde
ccbbbb aaaabb
eeffff gggff
ggggh gggfff
eeeeff ee
gffef df
cbcccc cddd
ababb aab
eeeeddd ff
ggghgh gf
cdcdcdcd cdd
caabb aab
aa cba
hh gdbb
gg edddf
aaaaaaaa abbbab
cd aaa
gh gggfe
cbb caca
cbb aca
eed ccdef
ce cce
db cdff
eb cbdb
gd ccd
eddd cccbb
ccdd eeeddd
ced c
cccccccc cc
ccc eecbb
dff gggf
cdcb aaaaaab
eeb aaa
ggef ggff
ege ffff
cdeff gff
ghhhhhhhhhhhhhhhhhhhhhhhh hgh
ccccbbbb abb
ceedd ef
ffb hahahahahahb
dd ca
db ceff
eb aaaaaaa
eedd cbbbbb
eee g
ggfff ggggff
gghhh ggggggf
ec aaaaaa
aaaaab abbbbb
cedd ee
cedd ccd
efgf ggff
dcd edd
edcb abbb
cccef ggf
ffed eff
egh gfff
aaabbbbb aab
a caba
h ffe
dd cbbd
hhhhhhhh hhhhf
gh ghhhhhhhhhhhhh
aaaaaaaaaaaaaaaa abbbbbb
cbb abbbab
hhh gghhhh
efff eded
cccd cdccb
ccdd cdef
ghhh ef
eeef edef
de ggfd
cccb dddd
efd c
ccbbbb cef
eeeed edededed
ccdf edd
gdb c
cabb abb
eccb aab
aaabbbbb abb
chb hahahb
cd ffffff
eed eeefff
df ghhhhh
ccb ccde
ccb abbd
db cce
efff gggggff
ccdd cbbbbbb
eeff g
ghhh geed
efef eeeeeeee
ggggf gfgff
ccbbb aabbbb
efd ffff
ccc eddcd
ddf ged
gfed cbb
eeeefff ggf
e gggfd
f hgf
cd edde
cbbb cdeef
ghh ggggggggf
ghhhh ghghgh
efff dbb
gd hchb
cbcb aaaab
gfff de
ca e
gggh ghhhhhhhhhh
ded eedd
efd cc
ec h
ece cfcfcf
eggf eef
cdeed ff
cdc edddd
cedb aaab
aa cbaab
bb ced
eeee eecd
cf eeb
df ecc
ccb aba
gggf hh
ccdd bbbbb
ghhh ghhgf
cccb aaaaaabb
cdf eeef
eeeef eee
eedddd ccd
gbgb gbf
ccccbb aaabb
gggggggggggg ggh
aaaaaaaaaaaaaaaaaaaaaaaaaaaa aaabbbb
gghgf ggf
edbb a
e gfffff
edd cdddddd
eff dff
db ff
cbbb ed
cddd eeeff
cdb aaaaaab
eeeeeeee eeeeddd
ggfff gggfff
ec gahahaha
ghhhhh ggggff
ede ge
effffff gfff
ddef dd
egd ff
cbba bbbbbbbbbb
cbbbcd bbb
gbfcedd ecfa
ghhhhhhhhhhhhhhhhhhhhhhhhhhhhhhhhhhhhhhhhhhhhhhhhhhhhhhhh h
eedddddddd ddddd
gahahahaha gbfd
b aaaa
e ccbbbbb
db cded
ghh gffed
cef gef
edf ggggf
edf egef
efffff ggggf
ghgf eeff
gee c
aaaaaaab abbbb
cdff dcd
geff ee
eefd bbb
ccbd eed
cfc eddd
cc aaaabbb
eeee ddddddddddd
dddd fd
ce ggh
df gfef
cbbb ccdb
ghhhh gggfff
ghhhh gfee
ghhh ggfef
ccbb cbcd
eeef gfe
cef edcd
cccb ceed
ggggf gfgfgfgf
ahah ahb
ggfff gggggf
ccc gf
ccc effe
hd ff
aaaabb aabbb
ggghhh gggff
effffff eedd
cbbcd cccd
aaaaaaaaab aaaab
eefgf ggf
edcdd ff
ghhg ddf
aaaaaaaaaaa bbbbbbbbb
aaaaaaaaaabbb ab
ee bbd
eeee eddb
cbbbb aaaaaaaab
eddd edeef
ccbb dcbb
eeef efeed
cef edcb
eded eeeef
ccccd eefff
ccccd eeddd
ghf gd
ga gbhb
hb haha
ggghhh ghgh
cdff ddd
eeeeed eedd
cba cff
gggggh gggff
gg edded
cc eeefff
edd cccccdd
dddd cccd
ce ghgd
cbbb ccbab
ggh gggfgf
efff eeeddd
ggff ggffff
eeed ededed
eeff eeefff
aabb ccd
ghhhhhh gghhh
aaaaaaab aaaaab
dee bbb
eefef gff
cdeff ggf
cbbbcd fff
cfhh fd
gggggggfff gf
ceffff d
dd ccef
gggg ggghhhhhhhhhhhhh
ed edddd
cd edded
eff edcb
ce cbbbb
ce ggfed
cccd egf
gfff gef
gfff gfgff
aaaab cf
fb ea
cbbbbb ccbbbb
cee cbcd
cce g
cce ccd
cccbbb aaabb
cbab c
ccccdd bbb
cced ccd
eede ced
edfdfdf dfdf
gggf efgf
aaaaaaaaaaaaaaaaaaaaaaaaaaaaaaaa aaaaaaaaaaaaabb
effff eeedd
ggff eeeef
ccbb dcd
ded gf
aaaaaaaaaaaa aaabbbbbbb
gggggf gfffff
cee ge
dff eed
ccdf hhh
gfed ccd
ghhhhhhh gfe
abbbbbb d
cbcdd ff
efeff ggf
efffffff d
eeffffffff fffffff
e ggghh
Ġ aaaaaabbb
Ġ fffffffff
cc abbd
eff ggffff
hhh ee
ggg dcbb
ce ggdb
gggggggg gffef
ghhhh ghhhhhhhh
eddd efe
cddd ffff
eeed ccbbbb
gfff eeeff
cdcd fd
cef ddf
cbd efff
ec effd
cce gged
ccdf ggggf
aaaaaaab aaabb
eddf ge
eeeedddd ded
hhhhhhhh gff
cd aa
cdd cbccd
eddd cccddd
de gggg
cccdd fd
gggh ggghgh
ccc eegf
eeeef eefff
ccdddd ddcd
dcb abd
def ddd
cbbbbbb cccd
aaaabb aaaaaab
ceed cbb
eeeedd eedd
edddddd eef
cbbab aaaab
eedcd fff
ababa bbbbbbbbbb
dbeb dbdb
eeeeffffffff fffff
cgbgbhb gbgb
a cbbbb
h ggfd
Ġ abab
Ġ hb
hhhhhhhh hggf
cd ghgf
ef hgf
eed ededed
ccb cdcdd
ghh db
ggh gggghhhh
cddd cccccd
ccbb cdeed
eeef eedddd
ced bbbbb
cbcb ccbbb
cdcd cccc
cef edbb
ded cbd
egf gggff
ccddd eeedd
eddddd eedd
cddddd cccd
ecc abb
gdd bbb
cbcbcb ccccb
ggdbb d
a hh
Ġ cbcd
Ġ aaabbbb
gg dddf
gf ecd
cdd ffd
df eddd
effff gfffff
efff gfffff
edf hhhh
cccdd fe
cdf edbb
hhhhh d
eeddd cdddd
ccccb aaaaab
ga eb
cab cdd
ceb cbd
ggggh ggffff
gcf ded
gfe cf
cece cdcdd
ccccbb cccd
hgh gff
cdded ee
cgb gahaha
cbdb eb
ggge cdf
ccccccdd ef
eefeed ff
cdcc bbbbbbbbb
c aaaaaaabbb
cc ebd
cb ccbbbbbbbb
gh ecf
eff efed
cbbbb aaaaaabb
df gee
ggh ggggghhh
ghhh gggggh
cdcd fff
de cff
eee cdddd
gghhhh ggghh
gghh gfeef
fb fa
ccc eeffff
dcb abbbb
eeeddd ee
ccef ddd
gfef hh
edcb aaaaaab
ggghhhh ff
ebeb fbfb
gaga fafb
abababab aab
eedef gggf
cbaa bbbbbbbb
egh gef
fh ghf
gghhhhhhhhhhhh ggf
gagaga fa
gddd ff
cbbbb cdeff
df gef
db aabbbb
cbbb ccdef
ccdd cccccd
eeef hh
hf g
gggh ggg
ged cbb
cccbb aa
ccccb ccccdd
ggggh ggggfff
ccbbbbb cccd
cdff gggf
edddddd b
cddf gggf
ggfffff eff
aabbbbb d
hchc hdhe
bb aaaaab
dd cbbcd
edd ceff
ccb aabbbbbb
gggggggg fffffffff
eddd edcd
eeed bab
eeff ggffff
gb hahb
ced cbbbb
ec eefff
eeeef efe
he hfhfh
eeeed ccddd
ccdddd ee
ccf ecb
ebeb dcd
gghf gff
aaaaaaaaaaab abb
cccf ggf
edeef eff
ghhgff ggf
cdcbbb ab
eefdf cgcgc
gghhhhhhhhhhhhhhhhhhhhhhhhhhhhhhhhhhhhhhhh hh
e cccddd
f eb
aa ff
gggg ggghhhhhhhhhhhhhh
edd ecb
cdd cbbbbbbb
eef gef
ggff ge
eeed c
ccdd cccccccc
gfgf gggggf
cef edef
cdb cab
ecd ccbb
ccccb cccbbb
ghhhhh gfdd
cff dcb
egg dd
cfc gcgd
cbcbcb cccccccc
ghhhhhhhhhhhhhhhhhhhhhhhhhhhhhhhhhhhhhhhhhhhhhhhhhhhhhhhhhhhhhhhh hhhhhhhhhhhhhhhhhhhhhhhh
Ġ ddcb
gggg hhhhhhhhhhhhhhhhhhhhhhhhhhhhhhhhhhhhhhhhhhhhhhhhhhhhhhhhhhhhhhhhhhhhhhhhhhhhhhhhhhhhhhhhhhhhhhhhhhhhhhhhhhhhhhhhhhhhhhhhhhhhhhhh
ccb ee
eddd ccbbbb
efef eeeff
cccbb cbcb
ec ffff
hd hchd
cde g
efgf edef
ggggggf eeff
ggghhhh ggggf
eddef eff
eefe gdgd
e hhhhhf
h eff
Ġ dfd
dd cbabb
ce cded
ce cddb
eddd bbbb
cddd cdddddd
eeff efffff
eeeeeeee ffffffff
gghh gedd
edddd ccbb
efd cbbb
eeeed effff
ede gggff
ghhhhhh gef
cbbbbbb cbbbb
eddf dd
ccccbb ccbb
ghgggg fffff
ecc eef
eefffff eef
cdee cbb
ggfef eff
cccbbbbb aab
efeff gfgf
ggggghh ggff
Ġbb abb
ebdb f
efefefef d
h efd
aa eh
ef ddf
cdd eedddd
eed ceff
cbbb cddddd
ghhhh ggg
cbbbbb ddd
cccbb cdddd
ec aaaaaaaab
cce cdcd
cbbbbbb aaaab
ghhhhhhh gghhh
eeefff eeed
ccccbb abbbb
eeeeed cccd
ccbbbbbb abbb
cbbbbbbbb aab
dbab df
aaaaaaaaaaaaaab aaab
cfe bbb
c eeeeeef
d cccb
gg eeeeff
cf ggfff
ghh gggggggggggg
ggh ghghghghghgh
edf egff
ca bbbd
edddd eeeff
ecd ccdd
ged eggf
aabbb abbbbb
hhhhhhh ge
cbbbbbb aaabb
cbab aaaab
ccccbbb aab
ggfed cbb
Ġd fff
cccbcb cbd
hehe hehehfh
cdc aaaa
ghhhhf ed
cdcdcd cccd
cgc gbgc
aabbbbbbb ab
fhh ge
cccccccbbbb bbbbbbb
cfdeedf c
Ġ cee
cc fffff
gh c
df geb
ge geed
db ea
efff ggg
eeff dcb
gfff gggggggg
cccccccc cccccc
eee ghhh
ggggf edf
cdb dcdd
gfd bbbbb
eeddd ccbb
ec g
ede ccd
ghgf ggff
dada dbdb
eegf dd
gggggfff ggf
cbbabb aab
gghhf ef
ggecb ab
hhh gb
db ecf
ggh gghhhhhhhh
aaa ccd
cddd eeeef
cddd cde
eeef ggg
gfff hh
eee ged
cccbb cf
hb hahahahb
eeffff gffff
gcf ceed
gfed cdd
cdff ecb
eeeddd eddd
ggef ee
gggggh gggggf
ggghhhhh gggf
ghg dde
ccccccb ccd
cdedd ddddd
ggedf gf
ccbbbbbbbbbbbbbbbb bbbbb
ce gdb
ge fffffff
efff ggffff
eee cccc
eee gffff
cccdd cbbbb
ccbbb aaabbb
ecd edf
ec eefd
gge cbbbb
ccccdd ccdd
eeeedd e
effgf gef
dbd cf
acb dbdb
hgg b
Ġ ddff
dd ceb
ddd efe
ggh ed
ggh gffef
cddd cdb
hf de
dcd ce
ddb cbd
ggghhh gghhh
eeeedd eeed
geff gggf
cbbbbbbb ccd
aaaaaaaaaaaaaaaaaaaaaaaaaaaaaaaaaaaaaaaaaaaaaaaaaaaaaaaaaaaaaaaaaaaaaaaaaaaaaaaaaaaaaaaaaaaaaaaaaaaaaaaaaaaaaaaaaaaaaaaaaaaaaaaa aaaaaaaaaaaaaaaaaaaaaaaaaaaaaaaaaaaaaaaaaaaaaaaaaaaaaaaa
cccccccccccccccc cccccccccccc
ccbd fff
gefef df
cecd ce
eeeeeeeffff fffff
a cccb
Ġ ggg
cc edfd
cc aad
edd eeefff
gff eeeef
cbbb cdccb
ghhhh gghhhhhh
eeef ged
de ccbbb
gggff eefff
gghh ggggfff
gggh gfgf
cdddd ccb
ede ceb
ede cedf
ccdddd eeed
efed ccdd
ceff ecbb
gghhhhh gfed
gggggggf eff
ccded cdd
gggghhh ggggf
abababab abaab
aaaaabbb d
ghhhhhhhhhhhhh ggf
fhh d
h gebb
cd edddddd
gggggggg ggghhhhhhh
aaaaaaaaaaaaaaaaaaaaaaaaaaaaaaaa aaaaaaaaaaaaaaabb
ggh ggghhhhhhhh
aaab aaabbb
eddd efggf
aaaaaaaaaaaa aaabab
abbbb cbbbb
edb aabbb
aba f
ceed ee
ebeb dcdd
gaga gbf
cba bbbbbbbbb
ghhhgf dd
egg edf
eeeeeeef efef
ghhhhhhhhhhhhhhhhhhhhhhhhhhhhhhhhhhhhhhhhhhhhhhhhhhhhhhhhhhhhhhhh hhhhhhhhhh
ghhhhhhhhhhhhhhhhhhhhhhhhhhhhhhhhhhhhhhhhhhhhhhhhhhhhhhhhhhhhhhhh hhhhhhhhhhhh
hahahahah ahaha
gbgbf ced
gggghhhhhhh gf
cc eddef
gh ggffffff
ce cfcfcfcf
gb da
edf efefef
gghhhh ghgh
gghhhh ghf
aaaab c
eeeeeeee eeeefff
eeeed ccccd
dff df
ddb aaabb
dde cf
dde gfd
caab de
ccce bb
ccbd ced
dded edd
gggggh ggggff
cbaaab aaab
ebf cfb
aaaaaaaaaa bbbbbbbbbb
aaaaaaaaaaaaaaaaaaaab ab
Ġhhhhhhhhhhhhhhhhhhhhhhhh hhhhhh
hh ggg
gggg ghhhhhhhhhhhhhhhhhhhhhhhh
cd hhh
cccc egf
cbb ccde
ddd eeee
aaaaaaaaaaaaaaaaaaaaaaaaaaaaaaaa bbb
ggh gedf
cddd ccccccd
cdcd bbbb
aabb ccbb
egf hghgh
eeddd eeeef
ccccd cbbbb
ccddd bbbb
eeeed eeeeeeee
ggggh gfef
gggggggggggggggg ggggggh
ddb abbb
ggghhh ggghh
eeeeef eeff
ggghhhh gfff
ggef gggf
ddef gggf
cbbbd eff
ceeed bb
gggggffff gf
dedb a
cd ghhh
eff gffef
cf efe
df edbb
aaa cbab
eddd cb
cdcd cdccd
gfgf gegf
cccb cccccdd
cdf edf
cdf eccd
ccbbb ccccdd
ccccb ccb
gggggggggggggggg ffff
ghhhhhhhhhhhhhhhh gf
ghggf gfgf
cccccb aaab
aaaabbb aaabb
hhhf ee
ebd cbda
aaaaaaaaaaaaaaaaaaaaaaaaaaaaaaaaaaaaaaaaaaaaaaaa aaaaaa
ceded eddd
ghghhh ghgh
eceb f
ggghhhhhhhhhhhhhhhhhhhhhhhhhhhhhhhh hhh
ggghhhhhhhhhhhhhhhhhhhhhhhhhhhhhhhh hhhhh
a dc
b ad
e gdgd
dd cccbbb
hhhh fb
gggg edef
eff eeffff
ccd eddb
eed efffff
ghhhh ggfd
eeed eeeeff
cdcd cedd
gef dee
ccccb cbcccc
ghhhhhh ghhhhhhh
eecb cf
cbc eeff
cccccccdd ed
geeef gf
hdhchc hdhd
cccc ccee
gh ecb
ggg dee
eed cee
ddd c
ghh ghghgh
effff efd
eddd cccccccc
ccdd ecb
cbcb cbbbbbbbbbb
ggggf eefff
ggggf gfffff
ded efff
edddd eeddd
ccbbbb cbbbbb
aabbb aaabbb
cce ggd
gege hf
dc aaaaa
ggfed fff
cbabb aaab
abaaab abb
ceffff ed
Ġ g
gggg ghhhhhhhhhhhhhhhhhhhhh
cd eddef
cccc bbbbbbbbbbbbbbbb
aaaaaaaaaaaaaaaa aaaaaaabbbbb
dddd eeff
db ddf
efff eeeeed
cccd cdded
gghhhh gggggf
gghhhh gfef
cdb cdf
cdb ddf
gghh gged
gfd ccf
cdddd eded
cccbb aaa
cdef b
ede ghh
efed edd
aaaaabb abbb
gghhhhh ged
edcd eeff
ggd fff
eeeefff gff
cgb hahahahahb
ggggghh gggf
ccbccd bb
ggeb aaab
aa fh
ee cbbd
cdd efef
eef eded
gd cbd
eee cded
ca bbbbbbbb
aaaab ef
cdb cbcbb
gef eeff
ecd eeef
gghhh gggggff
ccbbbb ccddd
ghhhhhh ghghghf
dcd ccb
cccccd ccb
gghhhhh ghhh
eeeeef ggff
Ġd eed
cgb haha
cdcccc cccb
cbccb cbcb
gffe gggf
Ġ ghgf
Ġ hg
ed egf
cd ccddddd
eedd egf
cbcb cccdd
ecd cccc
gggfff efff
cddddd ccd
cccccd cccccccc
cdcb ccbb
cbbcd cbbb
eaea faea
cbcbcbcb cbcbb
aaaaaaaaaaab d
ccdff ef
gbfb eb
h ca
Ġ cbab
cccc bbbbbbbbbbbbbbb
gh gggfffff
ggf efggf
ddd cccb
cccd ccbbbbb
eb aaaaaaaab
eddd egf
cddd eeee
cdb cf
cbbbbb abab
cdddd ccddd
dddddddd ed
aaaaab cf
cddddd eded
ccef gfff
aaaaaaaaaaaaaaaaaaaaaaaa bbbbb
ecdd bb
gcgc hchc
hhgf ee
gggggg eff
Ġhhhhhhhhhhhhhhhhhhhhhhhh hhhhhhh
Ġ aaaaaaaa
gg eddddd
cc ge
hhhh ggggf
efff eeeeff
eeedd edddd
gc he
cdddd eee
ddb df
eedb aabb
effef ee
cccccccd cdd
aaaabbbb abb
ghhhhhhhhhhhhhhhhhhhhhhhhhhhhhhhhhhhhhhhhhhhhhhhhhhhhhhhhhhhhhhhh hhhhhhhhhhhhhh
Ġ ccdddd
Ġ fffgf
hhhh gee
gggg geee
aab cf
ggh ggggggfff
ced eccb
aaaab aaabbb
edddd cbb
ggfff eeed
abbbb cdd
cccbb aaabbb
aaaaab cd
ggggh gggghh
aaaaaabb aabb
eefd eded
cbcc edd
cceff dd
gefd gf
efefd eded
ggggggghh gf
ggghhhhhhhhhhhhhhhhhhhhhhhhhhhhhhhh hhhhhh
ccd eeeeff
ce cdcb
df eeff
ghhhh ghgggg
cccd ccbcb
eedd cccbbb
eeef edf
eee ghgf
gghh gghhhhhh
ded eeee
eefff efffff
ecb cdff
aaaaaaaaaaaa abbbbbbbb
aaaaaaaaaaaaaaaaaaaaaaaaaaaaaaaaaaaaaaaaaaaaaaaaaaaaaaaaaaaaaaaa aaaaaaaaaaaab
ghf gfgf
cdef edb
cddddd eeed
gedd eef
eddcd eef
ghhhhhhhhhhhhhhhhhhhhhhhhhhhhhhhhhhhhhhhhhhhhhhhhhhhhhhhhhhhhhhhh hhhhh
cbaaa bbbbbbb
effffffffffff fffffff
edfdfdf dfd
ed cfb
ffff ggff
eed ccc
eed ccbbbbb
cbbbb ababb
ghh gggfd
aaaaaaaaaaaaaaaaaaaaaaaaaaaaaaaa aaaaabbb
ccdd cccbbb
eeff eded
ccbb cbbbbbbb
ecd eb
ghhhhh ghgggg
cccccd ccccd
ccef ggggf
ccccbbb cdd
ggfffff eef
Ġd edd
gcgc gcgdf
cccdf ef
cecd cdddd
daeaea eada
Ġ cccddd
cd cccf
cb aaaaaaabbbb
eff ebb
hhh gfgf
df cfb
ccb cddbb
ghh ghhhgf
ggh ghhf
cccd eded
gb g
cccb cdff
cdf ecc
gfd cce
dcb c
dbb c
cbcd eddd
gged egf
aaaaaaaaaabb ab
acaca dada
gg eddeff
cc g
cc eeddf
eed eb
ghhhh gggggggg
cccd ecd
cccd effed
eeff efgf
ccbb cbccd
cdcd cf
eeeeeeee eefffff
ccbbb cbccd
aaaaaaaaaaaaaaaaaaaaaaaaaaaaaaaaaaaaaaaaaaaaaaaaaaaaaaaaaaaaaaaa aaaaaaaaaaaaaab
cccbb aaaaaaab
ghhhhh ghhhhhhh
eeeed eeeff
ggffff gggff
cde ghgf
cece cfdf
gged efff
effgf edd
gghhhhhhh ff
ccbbbbbbbb ab
eeeeeeeeeeeeeeee f
ghgff gff
aca daca
aaaaaaaaaaaaaaaaaaaaaaaaaaaaaaaaaaaaaaaaaaaaaaaa aaaaa
ccced ff
ehh fb
bbb cbb
eff ghhh
cbbbb cdcb
ghhhh ghghghghghgh
gfff ggg
cccb cdcbb
gghhhh fe
eeeeeeee effffff
edddd cccccccc
ghhhhh ggggh
eeffff eeed
cde cddd
efe cce
gfgff efff
effgf dd
ggfgf ge
ggggggg ffffffffff
cbaabb aaab
gbfb fd
gahaha gaf
gbfd eedfc
cbb cbccb
eed efggf
cbbbb cccbbbb
db cbcbb
gfff hhh
ca cee
ded ecdd
cdddd cbbb
ccbbbb cdf
da cabb
ccccb cded
ede cecf
cbbbbbb cddd
eeeeff e
dfd fff
ghhgf edd
gcfd edde
e ghhhhf
h cfb
Ġ gee
cc eddcdd
cc efffed
cbbbb aaaabbb
gggggggg gggfffffff
aab c
efff dcbb
eeff ggggh
eeef ggggggf
ced cf
eee gfe
eeeeeeee eeeeeeedd
eeeff eeedd
hd gb
def gd
dbb dff
ddb ccd
cccddd eeed
gggggff efff
ccef ecd
dde cdd
gfgggg hhhhhhhh
ghggf ee
ccccbbb ccd
gffef dd
hhgf ggf
cedb abb
gghhhhhhhhhhhhhhhhhhhhhhhhhhhhhhhhhhhhhhhh hhhhh
hahahahahahbfec gahahahahahb
gg eddb
cc fffd
dd edcd
aaaa de
ef gffff
eed ecdd
gff gggggf
efff efeed
aaa cbb
ccdd cbab
cbcb dbb
cef gge
aaabb ccd
ccc eedbb
ghhhhh gdb
geff h
ghhgf de
gggggh ggggggf
cbdb f
ehh ff
bb cdf
bb cff
cd g
aaaaaaaaaaaaaaaa aaaabbbbbb
cbb aaaaaaaabbb
ge ged
efff edcb
ccbb aabbbbb
efef eeddd
aabb df
cdb dbdbdb
gghh ghgf
gc gce
ggfff eee
eeeff eee
cccbb cdf
ccc eefed
eeeef egf
ga gbgcf
cab dff
efe ccdf
gggggggggggggggg ggggggggf
eeeeff ggggf
ggfd cdef
ecbb cf
ggd gf
Ġ edcb
gggg edb
aaaaaaaa c
ef dddd
cccc cceed
cbbbb ccbbbbb
aab dff
gggf ggggh
ghhhh ggffff
ghhhh ggghhhhh
eedd cded
eeff ddf
eeef effffff
cdcd ccbcb
ecb ceed
gdf eff
gdf cfd
cee cfb
ggghh ghh
ggghh gfed
ggghh gfef
ddb abd
ghhhhhhh g
eefd edd
effef eef
egh ggff
cccbbbbbb abb
Ġbb aab
ceedd ff
Ġh gff
cbbbbbbbbbbbbbbbbbbbb bbbbbbb
hdhchc hdhe
aa cbaa
cb ccdddddd
cdd efggf
eed ffgf
ddd bbbbb
ccb ccbab
eb aaaaabb
eeed ccdf
ca cbca
cece cedd
eeeeed ccd
cccccb ccddd
cdded eddd
dded eef
hehe hfhfh
eegf eef
ccbaab ab
abababa bbbbbbbb
gced ee
Ġ aaaaaa
cbb cbabb
df ddf
ge geef
ccdd ced
ccbb aaaaaaaaaab
edf gggff
edf efeed
eeeeeeee eeddddd
ccbbb ccccbb
ecd eeff
ede bbb
gggfff gfgf
cce cccd
ghhhhhhhhhhhhhhhh f
cccccd bbb
cfcf cgd
edddddd cdd
gggggggggggg ghgh
gfgggg gghh
ac hh
eecd ced
dd cbccd
ffff gfff
gh ggghhgf
ggf ghh
aaaaaaaaaaaaaaaaaaaaaaaaaaaaaaaa aaaaaaabbb
ccdd efd
cbcb abbb
cccccccc ccbbbbbb
de hhhh
eeeed eeddd
cccbbbb aabb
cbbbbbb abbbbb
cccddd e
eeeeff eedd
eefef dfd
ghhhhhhhhhh ff
cbccb a
aaaaaaaaabb aab
cecd bbb
cccccccb d
b cf
aa ceed
cdd bbbbbb
ddd edb
ghhhh ghhhhhhhhh
eedd efe
ced cddd
ced cef
ccbbbb cccbb
ccbbbb aaaaab
gggggggggggggggg gggff
Ġb abbb
effed ccd
ggggfff ggff
cccccdd eff
cba cef
ghhhhhhhhhh gh
abbbbbb abbb
gffgf ggf
cdde cdcd
gggggg hhhhhhhhhhhhhhhhhhhhhhhh
gggggffff ffffffff
eeeeeeef d
gchb hahahahb
e gefd
Ġ he
gg eedff
dd ceff
ee gghh
edd ccbbbbbb
eeee ggff
ce ghggf
ccb ff
ccb cccdddd
abb de
gggf hf
gggf dcbb
ghhhh gged
effff edddd
ggh b
eeed ccccdd
edf dfdfdf
eefff eeefff
egf gegf
ccc eedddd
eeffff eddd
ghgf ghh
gfe ge
gfffff efff
dde ge
ceef gff
dbd cccb
ege gefef
caaab df
gggghhhhh gff
Ġbbb ab
ggghhhhhhhhhhhhhhhhhhhhhhhhhhhhhhhh hhhh
ee gffff
cd eefef
cd ccdef
cccc ceeff
ccd cdcdb
eed fffff
gggggggg gghhhhhhhh
cccd efffff
ghhh ggghhhhhh
eeef gfef
gfff gghh
cbbbbb cdddd
ggfff eddd
eeeff edddd
aaaaab de
cab ded
hd gcf
ggggff efef
cce gh
cbcd eeff
cdcdd eded
cdded bbb
gcgc gdgd
eecb aabb
gfgfgf gffffff
cdedd df
Ġ dddf
ee gge
gggg gghhhhhhhhhhhhhhhhhh
ef gge
cccc ceee
cbb ccccddd
ccd cbbd
aaaaaaaaaaaaaaaaaaaaaaaaaaaaaaaa aaaaaaaaaaaaa
gd gegf
ced eededf
cccb dff
gc aaaa
gghhh gfdd
eeeef efefefef
ghf hghgh
ghhhhhh ggghhh
cded cccdd
cff ebb
dde cfc
dc eeee
eeeeed eeedd
hfhf hghf
cbaab a
effed cdd
cced cdd
ddef edd
eeddddd eef
ddcb aaaab
aaaaaaaaaaabb ab
ababa cacaca
ghghfh ghgh
e gfdbb
cd cccef
fff def
ggh gghf
ggh ghhhgf
eb abbbb
ccbb cccccb
cccccccc cdcccc
cdb cbbbbb
cdb dbb
ccbbb cccbbbb
da cbd
ccccb cbbbbbbb
aaaaab aaaa
gggggf ggggff
hd hfh
ghhhhhh gffff
ggghh fe
cfb fbfbfb
cbcd ffff
ggfd cf
ceef edd
gggggggggggg ggghhh
eeeeef dd
cbdd fd
gffe gfgf
e ggggh
f hhhf
gggg ecd
cccc eddd
eed cdeff
ghhhh ggfed
gd edd
eedd eeeddd
ccbbb cf
ccbbb ccdddd
aaaaab aaaaaaab
gggggf ddd
efe g
ggghh gef
aba cabb
aba cababab
eeeffff gggf
ggghhhhhhhh f
cdcbb dd
edded edd
effe cccd
cbbcdd bbb
cbcccb ab
gghhhhhhhhhhh ggf
cfbgbgb gbgcf
cfcfcf ded
edfcgb hbhbhb
h gghhhh
Ġ aaaaaaaaaaaaaaaaaab
aa cbbb
cc aaaaaaaa
cc cece
cc eefffff
ef ec
cbb ddcbb
ccd eecbb
eedd eedddd
gb ad
gfff gfef
cccccccc bbbbbbbbb
ghf cd
gggggf eee
aaaaaab cef
dcb aaaaaaab
gggggggggggggggg hh
eedf ded
ghhhhhhh gghh
cdcb cf
caab aaab
dbd cddd
eddb db
ceeed ef
ghghf he
hhg ddf
ceceb f
eeeeeeeeeeeeeeeeeeeeeeeeeeeeeeee eeeeeeeeeeeeeeee
cbdbdb d
Ġaaaaaaaaaaaaaaaaaaaaaaaaaaaaaaaaaaaaaaaaaaaaaaaaaaaaaaaaaaaaaaaa aaaaaaaaaaaaaaaaaaaaaaaaaaaaaaaaaaaaaaaaaaaaaaaa
cadada dada
c aaaaabbbb
e gggd
Ġ gghhhh
Ġ bbbbbbbbbbbbb
cb ea
cdd cbabb
eff eeefff
cbb dfd
ggg eeb
df ddb
ccb aaaaaaabbb
db dee
ghh ggghgf
eeff gggh
ghhh ghhhf
abbb cbbb
aaaaaaaaaaaaaaaaaaaaaaaaaaaaaaaaaaaaaaaaaaaaaaaaaaaaaaaaaaaaaaaa aaaaaaaaaab
ccbbbb cccdd
eeeed ccbb
ga fbfb
aaabbb aaaabb
efed cdf
cbab cbab
gfgff ee
hfhf hfhfhgh
ghhhhhhhhh gfff
gfffffffff ef
gbfcf dee
c ffffff
h ggffff
gggg ghhhhhgf
ab aaaa
cbbbb cee
ce hhgf
aaaaaaaaaaaaaaaaaaaaaaaaaaaaaaaa aaaaaabbb
eeef ggffff
eeef edcd
cef def
ggggf gfgggg
cbbbbb cccbbb
aabbb cdd
ggghh ggggggf
dff eff
efed efff
hgh ef
dee ggf
gdd ee
effed eed
gffef gggf
aaaaaaaaaaaaaaaaaaaaaaaaaaaa bbbb
cgb hahahahahagcefb
eeeeeff ggf
aaaaaaaaaaab aaab
efefef effffff
ghghf hfh
faga fafa
abababa bbbbbbbbb
Ġ edcd
edd dddddddddddddddd
cbb cccccbb
aab aaaaaab
cccd efef
eb aacf
eeed eeeedd
eeff ged
cbcb dcdd
edf ggfff
edf def
edf gfed
eeeeeeee dedd
gfd eed
cbd ceb
ccc eddddd
ghhhhh gedd
gggggf gggggggg
cccbbbb abbbb
ggggh ggggggh
cccccd ccccb
ccccbb cddd
aaaaaaa ce
gggggggggggg gghhh
hfhf hfhfhf
edde ggff
caab ef
geb c
cbcccc cdcd
efffffff gfgf
egff eff
cbcbd cdcd
gbgc eddecfb
egege gege
d ffff
g edddddd
g dddb
cc eeeeef
cb cedbb
gh gghgggg
cbbbb aaabbbb
ccb cddf
ccb cdcccc
gd gcfb
eddd ccdddd
de ca
cccb dcb
gggh gggghhh
cbbbbb aaaabb
eeddd bbb
cbd ffff
ea ebdb
eeeeff efff
ghhf eff
eccd bb
egg edd
ababab aaaaaaaaaaaab
c eeeddddd
cc aaabbbb
ee ccccb
cccc cbbbd
cdd ffgf
ccd cbccd
ghh ghhhhhhhhhhhh
cccd cdf
cccb ccccbbb
ccccd ffff
hc hf
efffff eeedd
ghhhhhh gghhhh
aaabbb aaaaaab
cff ddd
gee ce
ghggf eef
Ġb aaaab
effef eed
eeddf ef
cdeedd b
gegff gegd
c gfh
cc edded
ef ba
fff dcb
ccb abbbbbbb
ggh gffd
eeff eddf
cccccccc cccccbb
gef edd
aaaaaaaaaaaa bbbbbbbbb
eeddd cdcd
ccccd cccddd
cbd cedd
aabbb aaaabb
cdef gfe
dcd efff
dcd eee
ggfd ccdf
fe gff
dc aaaaaaab
ccbcb abb
gggghh gghh
gggggh gghh
eeeefff eed
cbcccc ddddd
eede gff
ceddd ff
eddff ef
hff ef
cbccbb d
ghged ef
df egd
ge bbbb
ghhhh geb
cccd cded
eeed ce
eeff efd
gggff eeeef
eefff eedddd
ecd cee
efd efff
efd cdff
ghhhhh gggggggg
ede ghf
ggggh ghhhhhhhh
gggggggggggggggg ggfff
efed cddd
gggffff gfff
cddddd e
dfdf dfdfdf
ecc bbbbbbbb
ece cfd
eefd eff
ege he
edbb aaab
effe cdf
gggfed eff
gghhhhhhhhhh gff
eeeeeeef ed
gggggggggggggggggggggggggggggggg gggggggggggggggggggggggg
eefffffff gf
ghgfd ef
gghghgh ggf
caaaaa d
Ġ fffef
aa h
ee aa
gggg ghghghf
cdd cbbd
ccd cba
ccb cabb
effff gggfff
eddd eeefff
eeed cccddd
ghhh ghghgh
ced ccbb
cef ggfff
ca daca
cccdd ddb
ecd cef
cab aaaabb
ggggff eeeff
efffff eeeff
ccf db
aabbbb abbbb
eddddd efff
gege hehe
cece cddd
eeeedd ee
effffff gggf
eccd eef
cdeff eed
aaaaaaaaaaaaaaaaaaaaaaaaaaaaaaaaaaaaaaaaaaaaaaaaaaaaaaaaaaaaaaaaaaaaaaaaaaaaaaaaaaaaaaaaaaaaaaaa aaaaaaaaaaaaaaaaaaaaaaaa
gegfgf gff
cbb cdded
cbbbb ccccdd
ge gge
eb ded
eeed cbcd
ccdd edcd
de ggd
edf gfef
cdb ecf
cab aaaaab
gghhhhhhhh hhhf
cff bb
cccbbb cccbb
ggghhh ghhhh
abbbbb a
ggfd efff
ghgggg hhhhhhh
caab abb
hgf eff
gghhhhhhh gfff
cbc eeef
gghgh gggh
ghhhhhhhhhhhhhhhhhhhhhhhhhhhhhhhhhhhhhhhhhhhhhhhhhhhhhhhhhhhhhhhh hhhh
cccccccccccc ddddd
cfbgb hbhb
e gghgf
cc aaaaaaaaaab
cb caa
cb fgf
cbb cccbbbbb
ce ghg
ccb aaaaabbbb
cbbb ccccccd
eeed eeeeed
cef ecbbb
cdf hhgf
egf he
efd edddd
ceb fbf
hc hcf
dcd bbbb
dcd cccd
ccf edb
gee ced
efggf edd
gdd eff
abbbbbbbb abb
aabbbbb aaab
cddcb aaaab
gggfef gff
cccccbbbb bbbbbbbbbbb
cabbb abb
ceeedd f
ggghhhhhhhhhhhhhhhhhhhhhhhhhhhhhhhh hh
gahahagbfcedd f
cb eed
ab aaaaabb
ggg eeedd
ggg ecf
ccd cdcbb
ddd cde
ccb ccee
ccb cbbbbbbbbbb
gggggggg ghghgh
ghh gggggghh
eeff ggh
cbcb cddd
efef b
eeeeeeee eeeeee
gghh gfee
ccbbb cdcb
cbbbbb aaa
gee eddd
cddddd eddd
eeeffff eff
geff ggff
ceef df
gfgff gggf
ggfgf h
abbbab abbb
Ġ eddddd
Ġ ccccccd
Ġ aaaaaaaaaabb
cc ea
cc eefeed
cccc dfgf
cccc ccbbab
cdd ddddddddddd
gggggggg gggffffffff
db aaabd
eeed edddddd
ccdd cdb
gghhh ghhhhhhhh
ggffff edd
cfb fbfbf
ghgf h
eedf eef
aabbbb aaaab
gggggff gggff
ggfffff gggf
cdccb ccd
ccccbbbb d
cabbb a
cbaaaaab d
gde gb
gcfdeedfcgb hahahb
g cca
Ġ gge
Ġ hhhhgf
hh gggggf
gggg ghhhhhhhhhhhhhhhhhhhhhh
cbb cfff
ddd gf
cf gggff
db aacf
cbbb aaaaabbb
gd cdd
ggff gfd
eeed ccccb
de cde
de ghhf
edf dfe
gghhhh gffff
ccbbb cbbbbbbb
gc gef
ec eeedd
cccbbbb bbd
ghgf ghgf
ccdf ged
eeefff effff
eeeeff gggff
eeeedd bb
ghgggg gggh
gggggggggggg g
cbcccc cccdd
cdcccc ccddd
ccdcd cdddd
aaaaaaaabb aaab
cdc aaaaab
ggggggggggf gff
ggggghhhh ggf
abbbbbbbbbbbbbbbb bbbbbbb
c geb
g eeffgf
cb edd
cf efff
db cabb
aaa cdcb
gd gdfd
ggff gfe
ccdd efe
eedd ccdddd
ghhh ggd
ccbb cce
fd eef
cccbb cded
gggggf ggggggf
cee cccd
hc gcfdeedf
ddf edd
ggghh gghhhh
aaaaaaaab abbbb
edcb cddd
ddef eef
abababab abbbbbb
ghgff gggf
dcbb aaab
effffffff gf
gegd gf
ghhhhhhhhhhhhhhhhhhhhhhhhhhhhhhhhhhhhhhhhhhhhhhhhhhhhhhhhhhhhhhhh hhh
ggfee ggf
gggggghhh ggf
faga fa
Ġ eedddd
Ġ ggggfff
aaaa dd
ge cbab
eddd cccccd
eeff gghhh
gef ddb
fd edd
ccc ffed
aaaaab aabbb
cccbbbb bbbbbbbbbbbbbbb
cee dddddd
ccf gfe
gfed eed
ghggf e
cbbd ffff
effgf gggff
gffffff gfff
ccdef dd
eeeeddd eff
eecb cef
gggggfff d
cbcbcb cccd
daea dada
b aaaaab
g abb
h ec
Ġ abd
ee ccbbbb
aaaaaaaaaaaaaaaa aabbbbbbb
cbb cddef
hhh gedd
ggg edeef
aab cbbb
ghh gedb
ghh ghghghghghgh
eddd cddddd
ggff def
ggff ggggggf
cdcd cbb
gfgf g
edf egd
cdf ggd
aaaaaaaaaaaa aabbbbbbbb
egf ggh
cbd ccbbb
ggggh ghghhh
ggghh gg
gee bd
cdddddd de
ccbcb cccd
ccbcb cccb
cfd ab
cbbab df
ecc cbbbbb
gffffff eef
abababab aaaab
caaa bbbbbb
edddf ggf
gggggggh gff
gbfcedd ecgb
ggdb a
cccc aaab
cdd eeeeed
ce cccdd
aaa cbaa
de gef
efef egfgf
ggggf def
cdf ggfe
cdb ebfb
eeddd ccddd
cbd efe
cdef eeff
edb ced
cedd bd
efgf ede
cccbbb ccccd
aaaaaaab df
eeeedd cd
ecc fff
cccccdd edd
cba df
eefed bbb
eeeeeef ggf
cdc aaabb
aaaaaaaaaaaaaaaaaaaaaaaaaaaaaaaaaaaaaaaaaaaaaaaa bb
eeeeeddd ef
ghhfd bb
ccbbbbbbbbbbbbbbbb bbbbbb
gghhhhhhhhhhhhhhhhhhhhhhhhhhhhhhhhhhhhhhhh hhhhhhh
Ġ efffff
cbbbb cdeed
ccb cdded
efff gfe
ggff edef
ghhh gedf
hf gegf
cdf edcd
gghh ghhhhhhhh
gfd cff
fd fff
cbd eeed
gghhh gge
gcf eefd
gbgb gb
ccf hg
ggghhhhhhhh hhhgf
edcb aaaabb
dde bbb
ecbb a
gggggggggggg ghhh
gged ccd
gfgggg ggffff
gghhhhhh ge
cced ecd
hehe h
eeeeddd eef
eeeeeef eed
aaaaaaaaaaaaaaaaaaaaaaaaaaaaaaaaaaaaaaaaaaaaaaaa a
aaaabbbb d
cdcdcd ccccccd
ghhhhhhhhhhhhhhhhhhhhhhhhhhhhhhhhhhhhhhhhhhhhhhhhhhhhhhhhhhhhhhhh hhhhhh
cc effffff
cd cccdb
cbb ceee
ggg dc
ddd ccccd
df hg
ghh gghggf
effff ggggggf
cccd ffed
eded ecdcd
fffff eff
ded eefff
ecb dee
cccbb c
ghf gef
cde ced
cce gggff
eedf efd
cbbbbbb ccbb
cbab aa
cbab ced
ghhhhhhh gggh
gghhhhh ghhhh
gfgff eed
cbbcd eeed
eeeeeeeeeeeeeeee d
dcbb a
ffgf ggf
cbcbbb abb
effe bbb
cdcdcdcd cdcdd
gegd ge
cbce ggf
fhh fd
cededd edf
e ccccbb
Ġ cddddd
ddd ccddd
aab cef
ghh ecd
cbcb cccccccd
cdf gggggf
eeeeeeee eeeeeff
egf eee
ghhhhh gge
cde cdf
cbbbbbb cccb
ccdb dd
ebb aaab
cdcbb cdd
abababab abbbbbbb
cbcc eed
cdeef ggf
ebdb eb
ebf cfd
cbbccd bb
ehf b
cbbbbbbbbbbbbbbbbbbbb bbbbbb
gggghhhhhhhhhhhhhhhhhhhhhhhh hhh
Ġ ggghhh
Ġ eggf
aaaa ced
cdd eddcd
gh gghhhf
ddd cbcd
ghh gghhhhhhhhh
aaaaaaaaaaaaaaaaaaaaaaaaaaaaaaaa aabbb
aaaaaaaaaaaaaaaaaaaaaaaaaaaaaaaa aaaabbb
ghgh ghhhhhhhhhh
ghhhhh d
gghhhhhhhh gggf
edb dff
gdf dd
aaaaaab aaaaaaab
ccdddd ccd
cded fff
eeeedd efff
geff gfgf
gggggggggggg hhhhhh
ecc cbcb
gggghh ge
gghf ee
gghf ge
cgb gahahb
gfgfgf h
ccbbbbbbb d
eecd fff
cdbbb ab
edfdf de
hhg bb
cdcdddddd ddddd
gagaha gbfceddecfb
cccc dedb
db ceed
eddd eeeeed
eeed eedddd
edf hhf
eee ccccd
efef egef
cccdd effff
gggff eeedd
ceb eaea
ggggh ghgggggggg
efffff ggfff
cbab aaa
cdcb ced
cdcb aaaabb
gggfgf gffff
edff ggf
fh ff
ddcb aabb
aad hh
Ġ eeffff
cd ghhf
cb ege
aaaaaaaaaaaaaaaa aaabbbbbb
eeed efd
ccdd cde
ccbb cdeff
cdb dc
gge bbbb
cdcb cef
ghhgf hhh
cced fff
eeeeeed ff
hchc hdhd
gahah bf
gggggggff ggf
ededed eeeeeeee
dbdbdbdb dbdbdbdb
c eeeeeeee
dd caa
cccc ceedd
cdd cbaaab
gff dddd
ccb da
ccb ccccccdd
ccdd ccdf
eeff eeeedd
ced eefff
cccccccc ccccccddd
de ggfff
de cbaab
gfd ceff
ccbbbb cbcb
edb aaaaa
ede ggggf
ghgf hhh
cbbbbbb ccddd
eddf eff
ccded cccd
gffd edf
eh ghgh
gffed eff
cabab abbbbb
ghggff ed
ggghhhhhhhhhhhhhhhhhhhhhhhhhhhhhhhh h
gggghhhhhhhhhhhhhhhhhhhhhhhh hhhhhhh
g cbab
cc eeedddd
ee cccbb
ee cedd
aaaaaaaa bbbbbbbbbbb
ed bbbbb
gh gcab
ccd effffff
eef gggh
ddd eggf
ce ghhhhhhh
cccd bab
eedd cb
eedd eddddd
ccbb aaaaaa
eeef ghhhh
eeef eedf
cbcb ccbcb
cccb ceff
abab ad
efef dff
cccdd ccbbb
gghh ggfgf
aaabb cbbb
aaaaaaaaaaaaaaaaaaaaaaaaaaaaaaaaaaaaaaaaaaaaaaaaaaaaaaaaaaaaaaaa aaab
aaaaaaaaaaaaaaaaaaaaaaaaaaaaaaaaaaaaaaaaaaaaaaaaaaaaaaaaaaaaaaaa aaaaaaaab
eeddd ccccd
ec eeb
gggggf gggfff
gfed eeff
gggffff eed
hgh ghhhhhh
edddddd edd
eeeeef eeed
gghhhhhh ggfff
aaaaaaaaaaaaaaaaaaaaaaaaaaaaaaaaaaaaaaaaaaaaaaaaaaaaaaaaaaaaaaaaaaaaaaaaaaaaaaaaaaaaaaaaaaaaaaaaaaaaaaaaaaaaaaaaaaaaaaaaaaaaaaaa aaaaaaaaaaaaaaaaaaaaaaaaaaaaaaaaaaaaaaaaaaaaaaaaaaaaaaaaaaaaaaaaaaaaaaaaaaaaaaaaaaaaaaaaaaaaaaaaaaaaaaaaaaaaaaaaaaaaaaaaaaaaaaaaaaaaaaaaaaaaaaaaaaaaaaaaaaaaaaaaaaaaaaaaaaaaaaaaaaaaaaaaaaaaaaaa
efeed eded
egg ecd
ccbcd bbb
aaaaaaaaaaaaaaaaaaaaaaaaaaaaaaaaaaaaaaaaaaaaaaaaaaaaaaaaaaaa aab
dfdfdfdf dfd
cfcgbgb gbgcf
g cbc
g eeddef
ggg eeffff
eef ecbb
eef effffff
aab aabbb
ggh ggffd
ggff efd
eeef ghhh
gfff eefff
gfd cbbbb
gghhh gggghh
ggggff eeed
cccbbb a
ccccbb cccb
ccccccd eed
ebb ce
cced cbb
eefffff gggf
cedf dfef
effef efff
ghhhgf eff
ac fff
ggggffff d
ghgd bbb
cdbd cf
eced ff
gce a
edfdf cfcf
cfbf cfcf
ed aaa
ccd eeb
ddd cbab
aab ded
ggh gggggghh
cccd bbbbb
eddd effed
cccccccc c
eee cce
gfd ccef
eeeef efeff
cdef gggg
efe cddd
cccbbb cbbbbb
ggggggf dd
eeeeff dd
fe gef
ceef b
dee bab
gfgff dd
aaabbbb aabb
cdded eed
dded ee
dada caca
gggfffff gff
cceed bbb
ggged eff
ebf cgd
gceb d
gcfdeed fbgb
e ghhhhhf
cccc cab
ccd ccccccb
cbbbb cbbbbbbb
ce cddcd
ccb dbd
aab ddd
eddd cbbbbb
eedd bd
cccccccc ded
cccdd cdddd
ggggf gggggggg
abbbb aaaab
cccbbbb bbbbbbbbbbbbbbbb
efgf ecd
eeeddd cccd
dfd ab
gdb aaaab
aaabbbb abbb
aaaaaaaaaab abbb
eccd fd
eeedddd cdd
gegd ff
eddddddd ef
eeeeeeff ef
gggghhhhhh ggf
gahahbgcfdeedfcgb hahagbfceddecfb
e ggffff
e ccccdd
hh ghgh
edd eeeeed
ab aaaaaaaab
cdd caab
ce gggggf
ccbb cdccb
cccccccc def
efef eeeed
cccdd bbbb
gghhhh gggg
gef egd
egf gefef
eeeff eeeed
efd cddd
ga gbgbgcf
cdef gggggf
cccbbb ccddd
edcb aa
geb df
aabbbbb abbb
cdccd bb
ggggggfff ef
gfffgf gfff
cbaaaa d
gffffffffffff ffffff
eedfcgb hbhbhb
ggghhhhhhhhhhhhhhhhhhhhhhhhhhhhhhhh hhhhhhh
g edfd
cbbbb ccccbb
gggf ghhh
ghh gggggggggggggggg
ghh ffd
cccd cbab
ggff efe
eeed cdff
eeff h
cccccccc cbcb
cef ghhh
cef gfgf
cccb cdb
cccbbb aaaab
gggffff ggff
gged cdf
ece ggf
gggghh gggff
dded bbb
eddb aaab
ababb abb
cccf ef
aaaaaabbb aaab
eeeeeedd ef
fcf dee
Ġ aaaaaaaaaaaaaaaaaaaab
hh c
cc edddf
ee cbbcd
cccc dbd
cdd ec
gggggggg gghgggg
db ebdb
cbbb cccccdd
gggf hhh
cccccccc dddddddd
edf ghgf
ddddd eff
abbbb cbb
edb cee
aaaabb aaaa
ddb aaaaaab
ccccbb aaaab
hgh ghhhh
ggfd ccdd
edcd eee
gdgd gcf
ccbbbbbb ccd
gffef ggff
cdeff dd
ceeed ff
cddcb aabb
cabab aba
cfcfb fcf
ebe ccdb
Ġ gfffff
Ġ ggggggh
cbb dfgf
cf hhhgf
ccbb aaaabbbb
eeef eeffff
ghgh ghhhhhhhhhhhh
edf ddb
ca fb
cfb a
def ged
ccdf gfe
eeefff eeeff
cdcdd ee
ggggggff eef
cgb hahahahagbf
ggggghh ggggf
fh ggf
aaaaaaaaaaaaaaaab abb
hfgf hf
acaca da
ab aaaaaaab
ddd ffd
cbbb ccf
ggh ggghhhhhhh
ggh gggghhhhh
cddd ecd
ggff dcb
eeed cded
eedd eeffff
abbbb aabbb
ccccd edddd
ccccd ccbbbb
ecd cce
ccddd cccbb
ccbbbb aa
cccddd eeff
dfdf cf
eeeddd efff
Ġf eed
eeeeedd eff
eede gggf
gefef gf
efefef ded
cecf a
ggeef gff
gbfceddecfb gbgb
cbb cbbcd
eef gge
ddd cccc
eddd c
eeef effgf
ced cab
bbbbb cd
cef eddf
cccdd eeeed
gggh gee
aaaaaab aaa
dbb aaabb
cfcf cgc
eeeedd eeff
ceef de
cccbcb dbdb
cddef gggf
gghhhf ef
hegf egd
ebebd ccdb
aa ceb
hhhh gg
cdd ab
gh gghhhhhhhhhhh
hhh eb
ghhhh gdd
ggh ggggggg
ggh gghgh
efff eeeeeeee
eb cabb
cccccccc cccbbbbb
de bbbb
cccb aaaaaaaaab
gggff egf
cbbbbb def
abbbb ccd
ec eddecfb
gggggf eeeff
cee gef
efe cbbbb
dcd ccccd
efed cbb
ggghhh ggghhh
gfffff eeff
edcb cf
gggggggggggg gffffff
effd bbbb
ghghghgh ghgggg
edededed ededd
gggfd eff
ceeee fd
geeff ef
gahahahahaha gbefb
hh dd
cc eeded
ef c
ef dfd
ggg ddb
ghh ggghf
ggh geed
eb ee
eedd efef
eedd efffff
ccbb ccccccd
gffff eee
ca ccf
cdf hhhhhh
eeedd eefff
gghh gggggggf
ded cbbbb
cdddd eeddd
cdef efff
edb cff
eedddd ddf
aba c
ccbbbbb cbbb
eeeeef eeeed
ecdd ee
ggfed cbbb
eddef ggff
eddcd ced
edbb df
eeddddd ff
ghghhh ggf
caabb d
gggghhhhhhhhhhhhhhhhhhhhhhhh hhhhh
cb aaaaaaaabbbb
cdd ccf
cdd eddb
cbb ccce
cbb aaaaaabbbb
ggh gggfed
cccd cdddddd
cccd efggf
eedd ede
ccbb cedd
ccbb cdedd
ccbb deed
eeef gfgf
cbcb aaa
gfff ggffff
cef gffff
eeedd effff
eeedd eeeed
cbbbbb de
edddd eeeed
abbbb abbbbb
ccddd eee
cdddd eeeed
ggghh ggggh
cce gfff
ccdf gg
ggghhh fd
hgf eef
eeeeeed eeed
eegf ggf
egh gee
cccdb dbdb
gefd eded
cbce ffff
ceced eded
Ġhhhhhhhhhhhhhhhhhhhhhhhh hh
abababababab aaaab
e cccbbb
Ġ bbbd
cb aaaaabbbbb
bbb abbb
dddd eee
ggg hhhhhhhhhhhhhhhhhhhhhhhhhhhhhhhhhhhhhhhhhhhhhhhhhhhhhhhhhhhhhhhhhhhhhhhhhhhhhhhhhhhhhhhhhhhhhhhhhhhhhhhhhhhhhhhhhhhhhhhhhhhhhhhhhhhhhhhhhhhhhhhhhhhhhhhhhhhhhhhhhhhhhhhhhhhhhhhhhhhhhhhhhhhhhhhh
ce cbaab
gggggggg ghhhhhhhhhh
gggggggg fffgf
ghh ffe
efff edb
eb cde
eee cddf
aabb abbbbb
ccddd eeddd
he ab
ghf hfh
cff ecbb
gggffff ffed
gggggff ggggf
ccdb dcd
ggd aa
hhhf dd
aaaaaaaaaaaaaaaaaaaaaaaaaaaaaaaaaaaaaaaaaaaaaaaa aaa
gghggf ggf
cfc gdgd
cbabbb aab
g cebdb
Ġ eeefff
Ġ ddbb
cc eeedf
cd ccccccccd
eeee cddd
eeed ece
cbcb cccccd
ddddd eef
ccc aaaaaab
cfb ab
def de
cbbbbbb cbbbbb
cbcd ccb
eddddd bb
ggfd cde
gggggggggggg ghgggg
eefed eef
ccbab aab
eeeeeeed ef
cccccccdd ddddddd
effgff eff
ededed eddddd
cbaaabb aab
gcfdeed fd
ee dddddddddddd
gggf eeddd
gggf eeeef
ghhhh ghgf
eddd eeeeef
eeed ccdddd
ccdd edb
gffff gfgfgf
cccb aaaabbb
abbb dd
gggh gghhhhh
ggfff effff
eedddd bb
dbb ca
gege gfff
cdcb aabbb
hgh ghhhhhhhh
fafa fbfb
cbc eddd
eeffffff gff
ghge cd
c ghhhf
cc aaaaaaabb
hhhh ghhhh
cbb cbbd
cbbbb cce
df egff
cbbb cbccb
cbbb aabd
ggff gghh
ggff gfef
gb aaa
ced aab
cccb aaaaaaabb
abab aaabbb
cbd cee
eeeef gffff
efed cef
gggggff dd
gged cdd
ghhgf hh
gedd bb
gggghh ggfff
cccccdd eeff
cbcbb abbbbb
cccdddd ff
ccccdddd f
ccdbb a
hchd h
gffffffffffff fffffff
cecfb f
gghhhhhhhhhhhhhhhhhhhhhhhhhhhhhhhhhhhhhhhh hhh
Ġ ec
edd ccdef
bbb aa
gh ghhhhhhhhhhhhhhh
hhh gffff
hhh gc
eeff edeff
gfgf dd
cbbbbb cded
edddd eeeef
ged gf
ged bab
gdf cgd
ede ghhh
cedd cddd
gggfff gggfff
gggggggggggggggg ggggff
cbcd edb
gghhhhh gggggf
Ġf gfff
gfgff eef
eggf eff
ghhhhhhhhh ge
gcgc gdgdf
ggfef gfff
eeedddd eff
gggfffff d
efefef efffff
bbbbbbbbbbbbbbbbbbbbbbbbbbbbbbbb b
gfeef gff
ebf cfcf
ghfb ab
hchbhb hbhb
cbb ababab
ggg efffff
eed edcd
db dc
ggh fb
ggh ghhggf
ccdd cddddd
cccccccc cbcccc
cdb aaaabb
cccbb aabbbb
he gef
dbb ef
cdcdb dbd
gggggggff d
ccff b
cfcfcfcf df
e ccdddd
h ggggggf
ef hhhhh
bbb cddd
cbb aaabbbbbb
ccb aaabd
gggf eeee
ghh ggghhhhhhh
cccd cdef
eddd fffff
ccdd eedddd
eeef def
eeef eeeeff
ced edff
gfgf gggg
cccdd eeddd
cccdd ccccb
eeedd ccbbbb
eeedd dddddddddd
aaabb aabbbb
aaaaaaaaaaaaaaaaaaaaaaaaaaaaaaaaaaaaaaaaaaaaaaaaaaaaaaaaaaaaaaaa aaaaaaaaaaaaaaaab
egf ecb
cbd efed
efd ccf
ghhhhhh ggggff
efgf ggggf
gfe ccdf
cece cfd
cbccd eff
ffd cdf
ccded eef
cecf de
gdbb f
h gffgf
Ġ ccccbb
cc efffd
aaaaaaaaaaaaaaaa aaaaabbbbbb
cbbbb ccdddd
ccb aaaaaaaaaaaab
gggggggg hhhhhhhhhhhhhhhh
ge cff
ge caab
cbbb cedd
ghhh gghhhhhhhh
gb ac
de ghhgf
eeedd ccddd
ghhhhh ghhhhhhhhhh
ggggh ged
ddf eef
ddf hf
gggggggggggggggg gfff
dcd ccdb
cbbbbbb dd
ggghhh gggggf
ccccdd eedd
gggggff eeff
cbbd eee
eddb a
cccbcb cbcbcbcb
eefgf edd
aaaaaaabbb aab
cecf ef
gebb f
ggeb aa
gcfb eb
Ġhhhhhhhhhhhhhhhhhhhhhhhh hhh
e ggged
gh egf
ggg eegf
ddd edddd
ce cgb
ce hgd
ccb ccccbbbb
ccb aaaaaaaaaabb
cbbb cbbcd
gggf ecd
eddd cded
eeef ecb
de caaab
eded efff
gghh ggggggff
ccbbb dff
ecd eceb
eeeff eeeef
aaaaab aaabbb
hb hahahb
ggghhh gfd
dfdf de
ccef ged
cbbbbbbbb ccd
cdcbb a
ggfe ggff
gffd edd
ccde cccd
cbc eeee
cccccccd cdcd
cbcbbbb cbcb
edccd fff
eefe gef
cbbcb dbdb
ggggggfff ed
cdcccd ed
caaaab ab
gaha gaf
ggggfffff gf
caaabb ab
gcgcf cf
gghghf gf
c gahahaha
aa ded
cb egh
eeee gfff
cdd efffff
gh gghgff
cbb ceeed
eed cdee
df hhhhhhh
ccb abbab
cbbb cddf
eb cce
ccbb cdee
efef egege
ggggf ggggggf
ghhhhhhhh fd
cbbbbb aabbbb
ec aaaaabb
aaaaab aaaaaaaaaab
cab aaaaaa
ggggh gggggh
ghhhhhh fff
edddddd ff
ghhf hh
ggggfff gggff
ecf cgc
eddcd fff
gghf gd
caaa ce
gghhhhhhhhh ggff
gefd edf
ceeef gf
gahahahb gceddecfb
g eeeeddd
Ġ eeeddd
cd eeeffff
cccc efe
cdd eccd
dddd fe
ddd eeeef
gff ede
aab aaaa
db ddb
ghh ghgff
aaaaaaaaaaaaaaaaaaaaaaaaaaaaaaaa aaaaaaaabbb
effff eeeef
eb aaabbb
ced gd
cbcb cdf
gfgf gggggggg
aabb aaaaaaab
gfd eee
eeeff edef
efe ggff
cdff dcb
edddddd eded
cdcdd bb
gggggggggggg gg
gggggggggggg fffffff
abbbbbb aaab
eeeefff eef
gfh ghghgh
cbaaaab ab
abbbbbbbbbbbbbbbb bbbbbbbb
cbda da
gegff ge
gchbhbhb hcgd
gbfced ceb
c eeffffff
dd aaa
hhhh gfed
ef ghf
cccc ddddddddddd
cbb ceedd
gff hhh
cbbbb abbbbbbb
ggh ghhhgh
eb dee
cddd cdccb
ca dbb
ccbbb db
gfd cddd
cbbbbb aaabbb
eeddd eeffff
ccddd ccccb
ccc aabbb
ghhhhhh gggg
def h
ggghhh ghhhhh
eddf hhh
edcd ffff
gbf df
aaaabbb a
cbcc cf
gghhhhhhhhhh ggff
ghhhhhhhhhhhhhhhhhhhhhhhhhhhhhhhhhhhhhhhhhhhhhhhhhhhhhhhhhhhhhhhh hhhhhhh
aaaaaaaaaaaaaaaaaaaaaaaaaaaaaaaaaaaaaaaaaaaaaaaaaaaaaaaa aaaab
e bbbd
h dfb
bbbb aaabb
cd cbbbd
gh ggggggggff
gh gfffgf
eed ccccbb
ce ccf
ccb ccce
gggggggg gfe
cbbb cccbbbbb
cccd ede
cccd edcbb
eeef eeded
cbcb ccdcd
ggggf edddd
gghh ggfd
gghh gggghhh
gc abb
gfd efgf
cdddd ccccb
hc gdgd
aaaaaab dd
dcb ccdd
ccdf ecbb
effffff ggff
ggfed efff
cbcbb aabb
ddef eff
aaaaaaaaab abbb
hehe hehehf
aaaaaaaaaaaaaaaaaaaaaaaaaaaaaaaaaaaaaaaaaaaaaaaa aabb
Ġ eeeedd
gg eefed
gg bd
cd gge
gh ghhhhhhhhhhhhhhhhhhhh
ccd cdee
ccd bbd
gff eeee
cbbb cddb
eeff gfef
eeff ggggggff
gffff gggggf
edf ghf
edf gge
cccdd cdcd
ggggff eddd
ghhhhhh gee
ggghh ghhhhh
geff eff
cedf efd
eeeeefff gf
cca db
gghhhhhhhhhhhhh gf
eadb ccb
e gfgfgf
g ddddd
dddd efff
ghh ggghhhhhhhh
cccd ccccccd
ghhh gffd
eeef hhh
eeef eeeeef
ded ece
aaaaaaaaaaaaaaaaaaaaaaaaaaaaaaaaaaaaaaaaaaaaaaaaaaaaaaaaaaaaaaaa ab
ccccd cccccd
ec aaaaaaa
ghhhhhh ghhhhhh
cbbbbbb aabbb
gee bbb
ccccdd cddd
ceed ccdd
dde cbb
ggd ccf
ggfe cdf
abababab ababbbbb
cbbabb abb
hg eee
cc gb
cc eefgf
ee ghhgf
cdd eeeeff
cdd effed
cdd eggf
gh ghhhhf
ggg ffffffffffffffff
ccd cdeed
ddd cbbbbb
ce ccbd
df gggggf
cbbb cbcbbbb
aaab cdf
eeff ecbb
eeef gggggff
ced edef
cbcb de
gffff eefff
cef hhhhh
aaaaaaaaaaaa abd
hhhhhh ged
he gdgd
ggggh ggghgh
ddf gfff
ccdddd ccdd
cff ecd
dbb abbbb
ceed e
eeeffff eef
aaaaaaaab aaabb
cccccb cccbb
edde cfcfb
eedef eef
ebd bbbb
effe gdgd
ecfb f
cegf db
eghh ged
ebf ceb
ggfdd eff
effffffffff ef
hdf eefd
cb ebb
aaaaaaaaaaaaaaaa ba
eed cdb
gggggggg ffd
ge hghf
cbbb ccbcb
aaab ded
aaa db
eeed eddcd
ccbb abbbbbbb
ggggf ecb
ggggf eeeef
gghhhh gef
eeeeeeee eeded
gghh gfffff
ccbbb ccbbbbb
ccccb abbbb
ggffff dd
cdcb ccdd
dc aabbb
Ġb aabb
geb aaaaab
hgf h
ggfe cbbb
cdcccc ddddd
aaaaabbb aaaab
gggfffff ggf
eeeedddd ef
gfgfgfgf gfgff
ccbbab abbb
cgcgc gcf
cgbgbgbgb gbgc
Ġ eedf
ee gfef
cb cccddddd
gh ece
cbb cbaa
cbb cadada
ccd eddcd
ccd cccdddd
ccd cdcdcdcd
gff dcd
ghhhh ggfgf
cccd cccbbb
cccd ccccbb
eeed cde
eedd ecd
eedd ccbbbbbb
cbcb cab
cef gee
cdb aaaaaaab
gggh ghhhhhhhhh
efd gdgd
ccc aba
ccbbbb ccbbbb
dcb ced
ghgf edf
eeeffff gfff
ccef eff
cbbbbbbb ccdd
efggf gggf
ecc efff
gffef effff
gefef efef
gghgh ggfff
eecd bbb
Ġ cdff
Ġ aaaaaaaaaaaaaaaaaaaaaaab
cd eefgf
cccc ceddd
ggf hf
eed cbccd
cbbbb cbccd
ge ccb
ghh ffgf
ggh gggfd
aaab aaaaabb
eeff eddddd
eee gggggf
ccbbb f
egf eb
gghhh ggg
ec ffd
ccccb cbdb
hd gdgd
hc ha
efffff eefff
ccdddd cddd
efgf eefff
cccbbb cccbbb
edddddd eff
edcd efd
gfgggg gfffff
effd ccdd
ghhhhhhhhhh ghhh
abababab aba
eeddddd eff
deed bbb
eefffffff ef
hgg eff
geddd ff
g bba
Ġ aaaaaaaaaaaaaaaaab
cc cabbbb
hhhh gfef
cdd cdeed
gh ffed
ccd ccded
gggggggg hhhhhhhhhhhhhh
ggh ggghf
ggh ggeed
cccd eedddd
eedd cde
ccbb cccccdd
cbcb cbcd
eee cccb
eeedd ccccb
gggff ghhh
gghhh ggfed
cdddd cbbbb
ghhhhh gggfff
ga gahahb
eeffff effff
ede ggg
cedd ece
dbb db
ccdf db
cdcb cddd
edcb cccd
ceef eef
eeeeef gfff
gghf hgh
cdcccc bbbbbbb
ghhhgf ggf
gefd fff
gdfd gd
abbab aab
gcgcf df
Ġ gggghh
dd cdee
dd cbaaab
ddd ecb
cf cd
eedd eggf
ccbb cddddd
ccbb cbcbb
ced ecdb
edf efdd
abab aaaaaaaaaaaaaab
ccccd cccb
cccbb ded
ggffff ggfff
ggggff ggggff
efgf gggff
eddddd edddd
eddf cfb
cdcb aaaaaaab
dc aaaabb
gdd cf
gdd fb
effd cef
cba ca
aaaaaaaaaaaaaaaaaaaaaaaaaaaa aabbbb
ggggggh ghf
abababab ababbb
eeeddddd ef
gahahahah ahah
gagaga gb
cbbbbbbbbbbb ab
eeeeeeddd ed
c aaaaaaaaaaaaaab
dd ccccbb
ee gggggf
ee gggfff
cdd dfd
gh ggghhhhhhhhhh
dddd eeed
ggh ggeef
efff eddf
ccbb ccc
cbcb ccccccb
efef eeded
eded cccd
eded eefef
gfd ab
eeddd efed
ccbbbb cdef
ccccb ce
efe ccef
cded cbcd
aaaaaaaab aabb
eeeeff gffff
gghhhhh gd
cfd fff
cbbcd bbbb
cba f
ebd ced
fbf cecdd
hhhhf ef
ceceb fb
hh ec
gg eedddd
gg eefd
gg eecb
ef gfgf
edd ebfb
cdd ffed
ggf gggg
eed cbab
abb ccdd
gggggggg hhhhhhhhhhhhhhhhhhhhhhhhhhhhhhhhhhhhhhhhhhhhhhhhhhhhhhhhhhhhhhhh
ge hhh
db aaaaaaaa
ggff edddd
ccbb ccbbbbbb
eeedd eeeef
gghhh gfgf
def eee
eeefff eddd
cdcb cccd
aaaaabb aaaabb
ggfd cccd
ccdb f
cdddddd dded
effffff efff
gggggggf gffff
ghhhf de
ac ababa
cfff gf
bbab aab
gefd edd
eggh ff
hdhchc hd
h ghhhhhhhhhhhh
h ffgf
Ġ aaaaaaaaaaabb
aa caab
gg effd
dd caaab
ee ghhf
cdd cdff
cdd ccef
cdd cdee
cbb ccdcd
gggggggg gghgggggggg
gd gff
eeed edef
eedd ccdf
ggggf ggggh
cbbbbb cb
cbbbbb abbbbbb
egf eeef
cdddd ccbbb
ccccb dcd
ggghh ghgh
efgf ge
ceff eddd
cdcb aaaa
edcd cccd
gfgggg ghgh
geef df
aaaaaaaaaaaaaaaaaaaaaaaa abbbbb
eeb aabb
aaaabbb aaaaab
ecf ceb
gfgfgf gfffffff
effffffff ed
ghggff gf
aabab abbb
eefffffff ed
gggffffff ef
ggggffffffff ffff
a ff
b dd
edd ccbcb
cbb ccded
cbb aaabab
ggf eggf
ce ccccd
ccb cccccbbb
aab aaaabb
cbbb e
cccdd eeeff
ghhhhhhhh gfd
ecb aaabbb
hhhhh gfe
eeddd fd
eeeff ggggggf
efd aab
eeeef de
ggggff gffff
dbb cdf
cccddd cd
ccbbbbb aaabb
ggfffff gfff
ddef eed
cdcdb cbd
bbbbbbbbbbbbbbbbbbbbbbbbbbbbbbbb bb
cecece ceded
aa caa
cc hh
ef cab
cb cfe
eeee ccdd
gh ghhgff
cf hhhhf
gggggggg ggggggfgf
gggf edcb
efff g
eb ccdd
ccbb ddb
eeef eeeddd
efef dfef
ggggf db
cccbb aaaaaabb
ggghh gggfff
gggggggggggggggg gggggggggggf
ccbbbbb cbbbb
gfef df
aaaaaa cd
gggggggggggg gfgf
geb aabb
ege gff
ggggggff gggf
ggghhhhh ff
cbdd bbb
cccccbb aab
cfcfcfcf dedd
cgbgbhahb gbgcf
Ġ ccf
Ġ cbbbbbbb
Ġ cccccccccccccccc
dd effd
aaaa ababa
aaaa bbbbbbbbbbbbbb
ed cce
ce gghhh
ccb aad
cbbb ccccccb
cccccccc ccbcb
cef ggfed
cccb cced
cccb aaabbbb
eded ccdd
gghh gfgggg
cbd aca
ged cccd
edb aaaaabb
cccddd ccddd
eeeeed eeeeeeee
gged cef
cdddddd ddded
cccccb aabb
effgf ggff
ggef de
gggggh ggghhh
efffffff eff
gggggggff gff
ccccdddd ded
e ah
Ġ eeeeff
bbbb cccd
cb eee
cbb ccbaab
abb ce
cbbb aaaaaaaaaab
ghh gggggg
ghhh gb
ccbb abbd
cbcb ccdb
cef bb
cccb ccccddd
cbd ffed
ccc abd
eeeed eeeddd
cde gge
ghhhhhh gggggf
aaaaaab aaaaaab
ddf gfe
eedddd ccdd
aba bbbbbbbbbbbbbb
aaaaaaaab df
cdff eff
aaaaaaaaaaaaaaaaaaaaaaaa aabbbbb
cbbcd ccd
gghhhhhh gggff
dbd gf
cdded eeed
aaaaaaabb aaaab
aaaaabbb aabb
gfdd bb
ggged bbb
dddddddddddddddddddddddddddddddd dddddddddddddddd
cacaca da
ghhgh e
cccc fd
cccc efgf
ab aaaabb
cdd fffff
gh gghhhgf
ccd ccccddd
ddd cccbb
gggf gffef
efff eddddd
cddd cbab
eeff eccd
ccbb ccccbbb
ggggf de
aaaab dff
gggh ggggghh
ged efd
ea daea
ggggh gge
efe ccb
ggghh gffff
cccddd cdddd
gege gegdf
dde cdb
ghgggg gffff
Ġb db
gggggggf ggff
geb aaaa
bbd eff
deed edf
eeeeefff d
aaad gf
eeedb aab
ggffffffff fffffff
gggffffffff ffffff
cgh fb
gcgbgb hb
hdhc hdhd
ceddedf cfb
Ġ fffed
gg ce
gg eefe
ed cbcd
cd cccddddd
cb ccbbab
cccc ecd
cccc dfd
cccc ccedd
hhh a
ccb ccbbbbbbb
gggf gggh
ghhhh e
aaa bbbbbbbbbbbbbbbb
ccbb aaabbbbb
cdcd fe
cccb ccccccb
gghh gdd
ggfff gfffff
eeddd ffff
dcd ffff
cff df
ccf gge
gee cdb
aaaaaaab cef
gghhhhh ghgh
cbbbbbbb aabb
Ġf ggff
ghhgf ddd
cbaab ce
cdded eff
hehe hfhgh
ghg cd
egg eff
ggggffff ggf
ccccccccd cdcd
hfgf ggggf
hcgd ffd
hahahahahahb ffc
cd ccee
gf gfffff
ddd ccccb
cf dfe
eedd cccccdd
eeff ggggfff
ccbb cdcbbb
cbcb ce
cbcb dccb
cccccccc ccdddddd
eee cbbbbb
eeedd ccb
aaabb df
gfd gf
eeddd ccbbb
edb def
ccdddd e
cded cded
cce ghhf
ccf ebb
ddb ce
ghhhhhhh fe
eeefff gggff
ceef ddd
cddf ded
ecbb cdf
aaaaaaaaaaaaaaaaaaaaaaaa aaabab
ebeb ecd
ccbbbbbb aaab
eeeeedd ff
ggge cbbb
hggf gff
eeeeeeedd ddddddd
ghfd ef
hhhh gghhh
fff eddd
cbb cdde
eed cddf
gggf gfe
gggf efggf
ghh ghgg
gd hdhd
eedd ccccccd
eeef ecd
cccb cbbab
ggggf gggg
gghh ggggggh
egf gfffff
eeeff efef
eeeef edddd
ccccb cdf
efgf eeed
ghhhhhhhhhhhhhhhh hgh
ccbbbbb ccddd
dfd eedf
ccbbbbbb aabb
ccdef ggff
eedef ggff
eeeedddd f
efffef efff
hfhe hfhf
gegfgf ggf
dcc eb
edfb fb
gahahahb fceddecfb
c gfgf
cccc eded
ab aaabbb
gggggggg gfd
gggggggg ggffef
cbbb ccdcd
eeef dcb
ced efff
cccccccc cbbbbbbbb
cccb cccbbbbb
eee gggg
ca dadada
ggggf ggh
ggggf dbb
ccccd cccbb
efd cdef
ged cde
cee cdf
gggfff dd
gee ge
eddddd eeef
aaaaaaaab aba
ggghhhhhhhh hf
ecbb aabb
caca d
gfgggg ghf
hgf hh
aaaaaaaaaaaaaaaaaaaaaaaaaaaa aaabab
egh d
fh gff
gffe gfff
ccddf ggf
eg bb
cdce cdcd
gceb f
b df
cc gff
hhhh e
cdd ccccbbb
eff gggh
cbb cbcdd
ccd eefed
gggggggg hhhhhhhhhhhhh
ge gh
gggf ghgf
ggh gfgff
cccd eeeedd
eddd cbcd
gb gce
cbcb cabb
cccb dee
eeedd efed
gghh d
cbd cdccb
ged eee
gggggf eeed
ghhhhhhh gfef
eddddd ccdd
eeefff eefff
eddf eed
edef gggff
ccef eddd
eeeeed edf
gggggggf gggff
ggfgf eef
cdcbb aaab
cbcccc ccddd
efeff gfff
gffgf eef
cfdf de
cdbdb eb
cedddd f
a dbb
f hhhhhh
ff eb
ed cab
cd ccbbbbbbbb
cccc cceef
cbb aaaaaaaaaaaa
ce cbbd
gd egf
eeff ded
eeef ggfd
cbcb cbbab
cccccccc cccddddd
cccb cdedd
ggggf df
cdb fd
gef efffff
cbd cdbb
eeeff gggfff
cccbb ababb
ghhhhh geef
ghf ddd
cab aaba
ceb dce
gdf cfcf
ggffff ffd
ggggh gghhhh
aaaaaab aba
cff de
eeeeff gfgf
gfgggg gggffff
cdeff ee
eecb abbb
hhhf de
aaaaaaaaaaaab aab
cccccddd ef
gefd eef
dfgf b
ghhg eddf
gggghhhhhhhhhhhhhhhhhhhhhhhh hh
g ceced
Ġ ceff
Ġ gggffff
cd efffd
cdd cdcdd
bbb c
ce bba
gggggggg gfeef
ge gghf
cddd efe
cdcd eedd
ccbbbb df
edb ddd
ddf hhhh
cff hf
ggggggf gggggf
cccccd eddd
cfd eded
cccccb db
ece c
ece ceded
cccccdd bb
eedb aaa
ccded edd
cbcccc bbbbbb
eecb aa
egff ggf
cccdf gff
ccdff e
ghhhhhhhhhhhhhhhhhhhhhhhhhhhhhhhhhhhhhhhhhhhhhhhhhhhhhhhhhhhhhhhh hhhhhhhhh
caba db
cecfb fbfb
bbbb aaa
ed cde
ab aabbb
gh eef
cbb cbcc
cbb ccbcd
hhh gfdd
ccb cbba
gggf dddd
effff efffff
ccdd cbcdd
eeef ghgf
cdcd efff
cccb dccb
edddd ccbbb
ghhhhh gfeef
ga da
efgf eedd
gge hf
eedf ggff
ccdf gd
ghhhhhhh ghhhhhh
gfffff gggff
geff efe
edcd ccd
cbbbbbbb a
effffff eeef
ecdd e
ggef egf
caa de
cabb aaab
ad cf
cbaa df
gghgh ghhhhh
ghhhhhhhhhhh ggff
gghggf gggf
cdde ced
aaaaaaaaabb abb
eeeeeeeffff ffffff
edfdfdf ded
ahahahahahah ah
Ġ eeeeed
Ġ ebb
cbb aaabd
cbbb ccccddd
efff eeeffff
ghhh ghhf
ggggf effff
hd bb
gghhhhhhhh ff
gge gef
ceed eff
cdff b
eeeedd cccdd
ggfd cce
dfd eef
gggggggggggg ggghgh
cccccb dd
aaaaaaaaaab aaaaab
ghhhhhhhhhh ghhhhh
hehe hdhe
cccef gff
gggghhhh ggff
gedf ggf
ha hh
caaaaaab d
Ġ aaaaaaaaaaaaaaaaaaaaaab
cccc eggf
edd ccef
cdd eedb
ggg eefggf
ggf eeddd
ccd caab
eed cbcdd
cf ecc
cf gdd
ghh ggggffff
ccdd eeeeed
eeef dcd
abab aaaabb
ccbbb cccccd
cbd bbbbb
ccbbbb aabbbb
cdef ecd
efffff efef
cded ccddd
def edb
efed eeff
gege gdge
edcb cdef
ghgggg hhhhhh
ece bb
gaga gbgcf
cbbd eedd
aaaaaaaaaab aaaab
gghhhhhhh gggff
eecb dd
cbdb da
gfffffff gff
caaa df
ebdb ccbdb
ghhhhhf ef
hghgh ghf
gcfb fcf
cfh ged
ee cdee
hhh ghhhhhh
ddd cbd
ccb cccbbbbbb
ccb cddcd
db aaaabbb
ghh gfdbb
ghhh ee
cbcb ddf
eeeeeeee eefef
gdf ceb
dcb ded
ggggggf eeef
cbcd ccdd
eeeeff eeed
aaaaaa cef
cbccd cddd
effgf gfffff
ggef dd
eefffff gfff
ccbbbbbb ccdd
ghhhf eef
cbdb ca
cbccb dbdb
aaaaaaaaaaaaaaaaaaaaaaaaaaaaaaaaaaaaaaaaaaaaaaaa aaaabb
fh gdb
aaaaabbbb abb
gfgfgfgf gffff
gdfd efd
edfdf cf
ababbb abb
edddddddddd dddddd
c aaaaaaaaaaaaab
h gggggggg
gggg ghhhhhhhhhhhhhhhhhhhhhhh
gf a
gf gee
cb aaaaaaaaaaaaaaaab
ab e
gh gghhhhhhhhhh
gh ghhhhgf
cbb dc
ccd eddf
cbbb cbbbbbbbbb
cccd eeffff
ccbb aaaaaaaaaabb
ced cbab
cbcb dbcb
cccb ccf
edf eeff
ccbbb ceff
cbbbbb ccbbbbb
eefff edef
cbd cedf
ccc eefef
ccccb cbcbbb
cee ccdd
ggggff eee
cff dbbb
def hh
def gggff
ddb de
ggghhhhhhhh hgff
abbbbb abbbbb
aaaaaaa bbbbbbbbbbbb
cfd edd
hfhf gfgf
effgf ggggf
effef gggf
ggghhhhh ggggf
[...]
