{
  "version": "1.0",
  "truncation": null,
  "padding": null,
  "added_tokens": [
    {
      "id": 0,
      "content": "<s>",
      "single_word": false,
      "lstrip": false,
      "rstrip": false,
      "normalized": true,
      "special": true
    },
    {
      "id": 1,
      "content": "<pad>",
      "single_word": false,
      "lstrip": false,
      "rstrip": false,
      "normalized": true,
      "special": true
    },
    {
      "id": 2,
      "content": "</s>",
      "single_word": false,
      "lstrip": false,
      "rstrip": false,
      "normalized": true,
      "special": true
    },
    {
      "id": 3,
      "content": "<unk>",
      "single_word": false,
      "lstrip": false,
      "rstrip": false,
      "normalized": true,
      "special": true
    },
    {
      "id": 4,
      "content": "<mask>",
      "single_word": false,
      "lstrip": true,
      "rstrip": false,
      "normalized": true,
      "special": true
    }
  ],
  "normalizer": null,
  "pre_tokenizer": {
    "type": "ByteLevel",
    "add_prefix_space": false,
    "trim_offsets": true,
    "use_regex": true
  },
  "post_processor": {
    "type": "RobertaProcessing",
    "sep": [
      "</s>",
      2
    ],
    "cls": [
      "<s>",
      0
    ],
    "trim_offsets": true,
    "add_prefix_space": false
  },
  "decoder": {
    "type": "ByteLevel",
    "add_prefix_space": true,
    "trim_offsets": true,
    "use_regex": true
  },
  "model": {
    "type": "BPE",
    "dropout": null,
    "unk_token": null,
    "continuing_subword_prefix": "",
    "end_of_word_suffix": "",
    "fuse_unk": false,
    "vocab": {
      "<s>": 0,
      "<pad>": 1,
      "</s>": 2,
      "<unk>": 3,
      "<mask>": 4,
      "!": 5,
      "\"": 6,
      "#": 7,
      "$": 8,
      "%": 9,
      "&": 10,
      "'": 11,
      "(": 12,
      ")": 13,
      "*": 14,
      "+": 15,
      ",": 16,
      "-": 17,
      ".": 18,
      "/": 19,
      "0": 20,
      "1": 21,
      "2": 22,
      "3": 23,
      "4": 24,
      "5": 25,
      "6": 26,
      "7": 27,
      "8": 28,
      "9": 29,
      ":": 30,
      ";": 31,
      "<": 32,
      "=": 33,
      ">": 34,
      "?": 35,
      "@": 36,
      "A": 37,
      "B": 38,
      "C": 39,
      "D": 40,
      "E": 41,
      "F": 42,
      "G": 43,
      "H": 44,
      "I": 45,
      "J": 46,
      "K": 47,
      "L": 48,
      "M": 49,
      "N": 50,
      "O": 51,
      "P": 52,
      "Q": 53,
      "R": 54,
      "S": 55,
      "T": 56,
      "U": 57,
      "V": 58,
      "W": 59,
      "X": 60,
      "Y": 61,
      "Z": 62,
      "[": 63,
      "\\": 64,
      "]": 65,
      "^": 66,
      "_": 67,
      "`": 68,
      "a": 69,
      "b": 70,
      "c": 71,
      "d": 72,
      "e": 73,
      "f": 74,
      "g": 75,
      "h": 76,
      "i": 77,
      "j": 78,
      "k": 79,
      "l": 80,
      "m": 81,
      "n": 82,
      "o": 83,
      "p": 84,
      "q": 85,
      "r": 86,
      "s": 87,
      "t": 88,
      "u": 89,
      "v": 90,
      "w": 91,
      "x": 92,
      "y": 93,
      "z": 94,
      "{": 95,
      "|": 96,
      "}": 97,
      "~": 98,
      "¡": 99,
      "¢": 100,
      "£": 101,
      "¤": 102,
      "¥": 103,
      "¦": 104,
      "§": 105,
      "¨": 106,
      "©": 107,
      "ª": 108,
      "«": 109,
      "¬": 110,
      "®": 111,
      "¯": 112,
      "°": 113,
      "±": 114,
      "²": 115,
      "³": 116,
      "´": 117,
      "µ": 118,
      "¶": 119,
      "·": 120,
      "¸": 121,
      "¹": 122,
      "º": 123,
      "»": 124,
      "¼": 125,
      "½": 126,
      "¾": 127,
      "¿": 128,
      "À": 129,
      "Á": 130,
      "Â": 131,
      "Ã": 132,
      "Ä": 133,
      "Å": 134,
      "Æ": 135,
      "Ç": 136,
      "È": 137,
      "É": 138,
      "Ê": 139,
      "Ë": 140,
      "Ì": 141,
      "Í": 142,
      "Î": 143,
      "Ï": 144,
      "Ð": 145,
      "Ñ": 146,
      "Ò": 147,
      "Ó": 148,
      "Ô": 149,
      "Õ": 150,
      "Ö": 151,
      "×": 152,
      "Ø": 153,
      "Ù": 154,
      "Ú": 155,
      "Û": 156,
      "Ü": 157,
      "Ý": 158,
      "Þ": 159,
      "ß": 160,
      "à": 161,
      "á": 162,
      "â": 163,
      "ã": 164,
      "ä": 165,
      "å": 166,
      "æ": 167,
      "ç": 168,
      "è": 169,
      "é": 170,
      "ê": 171,
      "ë": 172,
      "ì": 173,
      "í": 174,
      "î": 175,
      "ï": 176,
      "ð": 177,
      "ñ": 178,
      "ò": 179,
      "ó": 180,
      "ô": 181,
      "õ": 182,
      "ö": 183,
      "÷": 184,
      "ø": 185,
      "ù": 186,
      "ú": 187,
      "û": 188,
      "ü": 189,
      "ý": 190,
      "þ": 191,
      "ÿ": 192,
      "Ā": 193,
      "ā": 194,
      "Ă": 195,
      "ă": 196,
      "Ą": 197,
      "ą": 198,
      "Ć": 199,
      "ć": 200,
      "Ĉ": 201,
      "ĉ": 202,
      "Ċ": 203,
      "ċ": 204,
      "Č": 205,
      "č": 206,
      "Ď": 207,
      "ď": 208,
      "Đ": 209,
      "đ": 210,
      "Ē": 211,
      "ē": 212,
      "Ĕ": 213,
      "ĕ": 214,
      "Ė": 215,
      "ė": 216,
      "Ę": 217,
      "ę": 218,
      "Ě": 219,
      "ě": 220,
      "Ĝ": 221,
      "ĝ": 222,
      "Ğ": 223,
      "ğ": 224,
      "Ġ": 225,
      "ġ": 226,
      "Ģ": 227,
      "ģ": 228,
      "Ĥ": 229,
      "ĥ": 230,
      "Ħ": 231,
      "ħ": 232,
      "Ĩ": 233,
      "ĩ": 234,
      "Ī": 235,
      "ī": 236,
      "Ĭ": 237,
      "ĭ": 238,
      "Į": 239,
      "į": 240,
      "İ": 241,
      "ı": 242,
      "Ĳ": 243,
      "ĳ": 244,
      "Ĵ": 245,
      "ĵ": 246,
      "Ķ": 247,
      "ķ": 248,
      "ĸ": 249,
      "Ĺ": 250,
      "ĺ": 251,
      "Ļ": 252,
      "ļ": 253,
      "Ľ": 254,
      "ľ": 255,
      "Ŀ": 256,
      "ŀ": 257,
      "Ł": 258,
      "ł": 259,
      "Ń": 260,
      "aa": 261,
      "hh": 262,
      "bb": 263,
      "gg": 264,
      "cc": 265,
      "ff": 266,
      "dd": 267,
      "ee": 268,
      "aaaa": 269,
      "hhhh": 270,
      "bbbb": 271,
      "gggg": 272,
      "aaaaaaaa": 273,
      "hhhhhhhh": 274,
      "ed": 275,
      "cd": 276,
      "ef": 277,
      "gf": 278,
      "cb": 279,
      "cccc": 280,
      "ffff": 281,
      "edd": 282,
      "ab": 283,
      "eeee": 284,
      "cdd": 285,
      "bbb": 286,
      "fff": 287,
      "gh": 288,
      "aaaaaaaaaaaaaaaa": 289,
      "hhhhhhhhhhhhhhhh": 290,
      "dddd": 291,
      "eff": 292,
      "cbb": 293,
      "hhh": 294,
      "ggg": 295,
      "ggf": 296,
      "ccd": 297,
      "eed": 298,
      "eef": 299,
      "ddd": 300,
      "cf": 301,
      "gff": 302,
      "cbbbb": 303,
      "ce": 304,
      "df": 305,
      "ccb": 306,
      "abb": 307,
      "gggggggg": 308,
      "aab": 309,
      "ge": 310,
      "db": 311,
      "cbbb": 312,
      "bbbbbbbb": 313,
      "gggf": 314,
      "ghh": 315,
      "ghhhh": 316,
      "aaaaaaaaaaaaaaaaaaaaaaaaaaaaaaaa": 317,
      "hhhhhhhhhhhhhhhhhhhhhhhhhhhhhhhh": 318,
      "effff": 319,
      "ggh": 320,
      "aaab": 321,
      "efff": 322,
      "cccd": 323,
      "aaa": 324,
      "eb": 325,
      "gd": 326,
      "eddd": 327,
      "cddd": 328,
      "ggff": 329,
      "eeed": 330,
      "ccdd": 331,
      "eedd": 332,
      "eeff": 333,
      "ghhh": 334,
      "gb": 335,
      "ccbb": 336,
      "eeef": 337,
      "ced": 338,
      "bbbbb": 339,
      "cbcb": 340,
      "gffff": 341,
      "gfff": 342,
      "ah": 343,
      "cccccccc": 344,
      "cdcd": 345,
      "gfgf": 346,
      "ghgh": 347,
      "cef": 348,
      "de": 349,
      "cccb": 350,
      "edf": 351,
      "hf": 352,
      "eee": 353,
      "ca": 354,
      "abab": 355,
      "efef": 356,
      "aabb": 357,
      "cccdd": 358,
      "ggggf": 359,
      "cdf": 360,
      "eded": 361,
      "ghhhhhhhh": 362,
      "gghhhh": 363,
      "eeedd": 364,
      "aaaab": 365,
      "abbb": 366,
      "fffff": 367,
      "gggff": 368,
      "bbbbbb": 369,
      "cdb": 370,
      "eeeeeeee": 371,
      "gghh": 372,
      "gef": 373,
      "ccbbb": 374,
      "fb": 375,
      "gggh": 376,
      "gc": 377,
      "aaabb": 378,
      "ded": 379,
      "ahah": 380,
      "gfd": 381,
      "cbbbbb": 382,
      "eefff": 383,
      "ecb": 384,
      "aaaaaaaaaaaa": 385,
      "edddd": 386,
      "ggfff": 387,
      "ddddd": 388,
      "hhhhh": 389,
      "hhhhhhhhhhhhhhhhhhhhhhhhhhhhhhhhhhhhhhhhhhhhhhhhhhhhhhhhhhhhhhhh": 390,
      "aaaaaaaaaaaaaaaaaaaaaaaaaaaaaaaaaaaaaaaaaaaaaaaaaaaaaaaaaaaaaaaa": 391,
      "egf": 392,
      "abbbb": 393,
      "eeddd": 394,
      "fd": 395,
      "ccccd": 396,
      "ecd": 397,
      "cbd": 398,
      "gghhh": 399,
      "ccddd": 400,
      "eeeff": 401,
      "efd": 402,
      "ged": 403,
      "ffffffff": 404,
      "cdddd": 405,
      "cccbb": 406,
      "ec": 407,
      "hhhhhh": 408,
      "dddddddd": 409,
      "ccc": 410,
      "eeeef": 411,
      "he": 412,
      "ccbbbb": 413,
      "da": 414,
      "ccccb": 415,
      "ghhhhh": 416,
      "aaaaab": 417,
      "ghf": 418,
      "aabbb": 419,
      "eeeed": 420,
      "ga": 421,
      "hb": 422,
      "gggggf": 423,
      "eeffff": 424,
      "cab": 425,
      "hd": 426,
      "ea": 427,
      "ceb": 428,
      "cdef": 429,
      "gghhhhhhhh": 430,
      "cccbbbb": 431,
      "edb": 432,
      "gdf": 433,
      "ggffff": 434,
      "cee": 435,
      "cde": 436,
      "hhhhhhh": 437,
      "ede": 438,
      "fa": 439,
      "ggggh": 440,
      "efe": 441,
      "hc": 442,
      "ggggff": 443,
      "gcf": 444,
      "efffff": 445,
      "ghhhhhh": 446,
      "aaaaaab": 447,
      "ddf": 448,
      "ggghh": 449,
      "cedd": 450,
      "eedddd": 451,
      "bbbbbbbbbbbbbbbb": 452,
      "gggfff": 453,
      "ccdddd": 454,
      "dcb": 455,
      "gggggggggggggggg": 456,
      "efgf": 457,
      "cded": 458,
      "cfb": 459,
      "aaabbb": 460,
      "cce": 461,
      "gge": 462,
      "gbgb": 463,
      "ghgf": 464,
      "eedf": 465,
      "dcd": 466,
      "cff": 467,
      "ccf": 468,
      "def": 469,
      "ghhhhhhhhhhhhhhhh": 470,
      "dff": 471,
      "dbb": 472,
      "cbbbbbb": 473,
      "cccbbb": 474,
      "ggggggf": 475,
      "gfe": 476,
      "efed": 477,
      "aaaabb": 478,
      "aabbbb": 479,
      "cbab": 480,
      "cbcd": 481,
      "ccdf": 482,
      "gee": 483,
      "aaaaa": 484,
      "ddb": 485,
      "ceff": 486,
      "aaaaaaab": 487,
      "ggghhh": 488,
      "aba": 489,
      "gfed": 490,
      "ghhhhhhh": 491,
      "eddddd": 492,
      "ccccdd": 493,
      "gggffff": 494,
      "gfffff": 495,
      "cccddd": 496,
      "eeefff": 497,
      "gege": 498,
      "dbdb": 499,
      "cddddd": 500,
      "eddf": 501,
      "ceed": 502,
      "eeeffff": 503,
      "cccccd": 504,
      "bbbbbbb": 505,
      "edef": 506,
      "aaaaaaaab": 507,
      "ccbbbbb": 508,
      "cdff": 509,
      "dfdf": 510,
      "cfcf": 511,
      "eeeeff": 512,
      "gggggff": 513,
      "cece": 514,
      "ccccbb": 515,
      "cdcb": 516,
      "eeeddd": 517,
      "eeeedd": 518,
      "aaaaabb": 519,
      "hgh": 520,
      "ccef": 521,
      "ggghhhhhhhh": 522,
      "edddddd": 523,
      "cdcdd": 524,
      "gfef": 525,
      "abbbbb": 526,
      "ggfd": 527,
      "edcb": 528,
      "geff": 529,
      "dde": 530,
      "ccdb": 531,
      "fe": 532,
      "gghhhhh": 533,
      "bbbbbbbbb": 534,
      "ceef": 535,
      "edcd": 536,
      "dee": 537,
      "cbbbbbbb": 538,
      "aaaaaa": 539,
      "aaaaaaa": 540,
      "ghgggg": 541,
      "dfd": 542,
      "hhhhhhhhhhhhhhhhhhhhhhhh": 543,
      "cddf": 544,
      "ecbb": 545,
      "dc": 546,
      "eeeeed": 547,
      "gggggggggggg": 548,
      "ffffff": 549,
      "gged": 550,
      "cdddddd": 551,
      "caca": 552,
      "gfgggg": 553,
      "ccbcb": 554,
      "cfd": 555,
      "ghggf": 556,
      "Ġf": 557,
      "eeeeef": 558,
      "ghhf": 559,
      "ggd": 560,
      "effffff": 561,
      "cccccb": 562,
      "gfgff": 563,
      "ccccccd": 564,
      "geef": 565,
      "ghhgf": 566,
      "hhf": 567,
      "hfhf": 568,
      "edde": 569,
      "ggghhhh": 570,
      "Ġb": 571,
      "caab": 572,
      "aaaaaaaaaaaaaaaaaaaaaaaa": 573,
      "cbbcd": 574,
      "cbbab": 575,
      "gggggggf": 576,
      "efggf": 577,
      "cddb": 578,
      "ecc": 579,
      "ebb": 580,
      "cbaab": 581,
      "ebeb": 582,
      "ece": 583,
      "gdb": 584,
      "eeded": 585,
      "gdd": 586,
      "gaga": 587,
      "gghhhhhh": 588,
      "aaaaaabb": 589,
      "geb": 590,
      "hgf": 591,
      "effed": 592,
      "eefef": 593,
      "hhhhhhhhhhhhhhhhhhhhhhhhhhhhhhhhhhhhhhhhhhhhhhhhhhhhhhhhhhhhhhhhhhhhhhhhhhhhhhhhhhhhhhhhhhhhhhhhhhhhhhhhhhhhhhhhhhhhhhhhhhhhhhhh": 594,
      "cbccd": 595,
      "hbhb": 596,
      "ggggfff": 597,
      "gdgd": 598,
      "eeb": 599,
      "gedd": 600,
      "gggghh": 601,
      "cbbd": 602,
      "cced": 603,
      "cccccdd": 604,
      "effd": 605,
      "aaabbbb": 606,
      "aaaaaaaaaaaaaaaaaaaaaaaaaaaaaaaaaaaaaaaaaaaaaaaaaaaaaaaaaaaaaaaaaaaaaaaaaaaaaaaaaaaaaaaaaaaaaaaaaaaaaaaaaaaaaaaaaaaaaaaaaaaaaaaa": 607,
      "bbbbbbbbbb": 608,
      "gbf": 609,
      "effgf": 610,
      "ecdd": 611,
      "ahahahah": 612,
      "eefd": 613,
      "aaaabbb": 614,
      "cccccccccccccccc": 615,
      "ggef": 616,
      "gffffff": 617,
      "dbd": 618,
      "aaaaaaaaaab": 619,
      "eefffff": 620,
      "cba": 621,
      "eedb": 622,
      "ccbbbbbb": 623,
      "cedf": 624,
      "ccce": 625,
      "ccccbbb": 626,
      "cdbb": 627,
      "ghhhhhhhhhh": 628,
      "ggfffff": 629,
      "ggfed": 630,
      "eccd": 631,
      "cbcbb": 632,
      "ecf": 633,
      "ggfgf": 634,
      "caa": 635,
      "eddef": 636,
      "ege": 637,
      "eddcd": 638,
      "ddef": 639,
      "gghf": 640,
      "ffd": 641,
      "gffef": 642,
      "cdded": 643,
      "aaaaaaaaab": 644,
      "cbbbbbbbb": 645,
      "ahb": 646,
      "gghhhhhhh": 647,
      "ccdef": 648,
      "cabb": 649,
      "eggf": 650,
      "ghhhhhhhhhhhhhhhhhhhhhhhhhhhhhhhh": 651,
      "ccbd": 652,
      "dded": 653,
      "fbfb": 654,
      "geed": 655,
      "abbbbbb": 656,
      "ccccddd": 657,
      "ccded": 658,
      "aaaaaaabb": 659,
      "cdee": 660,
      "eddb": 661,
      "ghhhhhhhhh": 662,
      "Ġd": 663,
      "cdeed": 664,
      "ggggggff": 665,
      "aaaaaaaaaaaaaaaaaaaaaaaaaaaa": 666,
      "gcgc": 667,
      "cccbcb": 668,
      "ggggggh": 669,
      "gggggh": 670,
      "eeeefff": 671,
      "aha": 672,
      "cdccb": 673,
      "ggfef": 674,
      "abd": 675,
      "ccbbbbbbbb": 676,
      "eefed": 677,
      "gggghhh": 678,
      "cdcbb": 679,
      "effef": 680,
      "ggggggggf": 681,
      "fafa": 682,
      "ggfe": 683,
      "abababab": 684,
      "cgb": 685,
      "gffd": 686,
      "dada": 687,
      "ggghhhhh": 688,
      "abbbbbbbb": 689,
      "eeeeeed": 690,
      "aabbbbb": 691,
      "cbcccc": 692,
      "ababb": 693,
      "edded": 694,
      "ghhhf": 695,
      "cdeff": 696,
      "hchc": 697,
      "hehe": 698,
      "cdcccc": 699,
      "gegf": 700,
      "cccdddd": 701,
      "eeeeddd": 702,
      "gghhhhhhhhhhhhhhhh": 703,
      "ggghgh": 704,
      "eecb": 705,
      "abbbbbbb": 706,
      "dddddd": 707,
      "bbd": 708,
      "gfgfgf": 709,
      "cbdb": 710,
      "cccbbbbb": 711,
      "fffffff": 712,
      "eefgf": 713,
      "ccde": 714,
      "aaaaabbb": 715,
      "cbcdd": 716,
      "eeedddd": 717,
      "caaab": 718,
      "eeeeedd": 719,
      "hdhd": 720,
      "eegf": 721,
      "eaea": 722,
      "eeeeeeeeeeeeeeee": 723,
      "eedef": 724,
      "dddddddddddddddd": 725,
      "ghhhhhhhhhhhhhhhhhhhhhhhh": 726,
      "cbabb": 727,
      "ccdcd": 728,
      "eede": 729,
      "ghhhgf": 730,
      "gghgf": 731,
      "ad": 732,
      "ghgff": 733,
      "ghhhhhhhhhhhh": 734,
      "hhhf": 735,
      "edbb": 736,
      "eeeeeef": 737,
      "ccddddd": 738,
      "eeddddd": 739,
      "ghg": 740,
      "hhgf": 741,
      "hfh": 742,
      "efeff": 743,
      "cbcbcbcb": 744,
      "efffffff": 745,
      "ccccccb": 746,
      "cbc": 747,
      "cccef": 748,
      "aaaaaaaaaaaab": 749,
      "ghghghgh": 750,
      "cbdd": 751,
      "ebd": 752,
      "gggghhhhhhhh": 753,
      "eh": 754,
      "ffed": 755,
      "gefef": 756,
      "dcbb": 757,
      "ffgf": 758,
      "ac": 759,
      "cbaaab": 760,
      "cbccb": 761,
      "gggggfff": 762,
      "egff": 763,
      "ccbbbbbbb": 764,
      "eeeeeff": 765,
      "cefff": 766,
      "eccb": 767,
      "cccdf": 768,
      "cbcbbb": 769,
      "ggggggg": 770,
      "dddf": 771,
      "cdccd": 772,
      "efeed": 773,
      "cccccccd": 774,
      "cdedd": 775,
      "cccccbb": 776,
      "ccee": 777,
      "ggee": 778,
      "edededed": 779,
      "gggfgf": 780,
      "aaaaaaaabb": 781,
      "egd": 782,
      "cbaa": 783,
      "gghgh": 784,
      "gahah": 785,
      "ccbab": 786,
      "deed": 787,
      "egh": 788,
      "gfdd": 789,
      "ghhhhhhhhhhh": 790,
      "ededd": 791,
      "aaaaaaaaaaab": 792,
      "eeedf": 793,
      "aaabbbbb": 794,
      "aca": 795,
      "cbcbbbb": 796,
      "cddef": 797,
      "cdc": 798,
      "cbcc": 799,
      "gffgf": 800,
      "ffffffffffffffff": 801,
      "ddbb": 802,
      "egg": 803,
      "cdcdb": 804,
      "cbbabb": 805,
      "edff": 806,
      "aaaaaaaaaaaaaaaaaaaaaaaaaaaaaaaaaaaaaaaaaaaaaaaa": 807,
      "ggggffff": 808,
      "cccf": 809,
      "ggggghh": 810,
      "hahah": 811,
      "gfffffff": 812,
      "ccced": 813,
      "gfh": 814,
      "gghggf": 815,
      "ccdff": 816,
      "dfe": 817,
      "gggfffff": 818,
      "dfef": 819,
      "effe": 820,
      "cfc": 821,
      "ddff": 822,
      "fh": 823,
      "cdeef": 824,
      "edeef": 825,
      "gggggggff": 826,
      "gggfd": 827,
      "aaaabbbb": 828,
      "ababab": 829,
      "acb": 830,
      "ggghhhhhh": 831,
      "aaaaaabbb": 832,
      "ggge": 833,
      "aabd": 834,
      "caaa": 835,
      "bab": 836,
      "eeffffff": 837,
      "cbbbbbbbbb": 838,
      "efefef": 839,
      "edcbb": 840,
      "cceff": 841,
      "cbbbd": 842,
      "eeeedddd": 843,
      "cdde": 844,
      "ccccccdd": 845,
      "eecd": 846,
      "ccccdddd": 847,
      "gggggg": 848,
      "gffe": 849,
      "ccccbbbb": 850,
      "ccff": 851,
      "fbf": 852,
      "bbbbbbbbbbbbbbbbbbbbbbbbbbbbbbbb": 853,
      "gggghhhh": 854,
      "ghge": 855,
      "eeddf": 856,
      "edccd": 857,
      "eefe": 858,
      "ddcd": 859,
      "ceeed": 860,
      "dbab": 861,
      "cccdb": 862,
      "ceee": 863,
      "cfff": 864,
      "ccbcd": 865,
      "edddf": 866,
      "gcfd": 867,
      "cccbbbbbb": 868,
      "gffed": 869,
      "hggf": 870,
      "cdcdcdcd": 871,
      "aaaaaaaaabb": 872,
      "ghghgh": 873,
      "Ġbb": 874,
      "cedb": 875,
      "edfd": 876,
      "ghhhhhhhhhhhhhh": 877,
      "ggffffff": 878,
      "gggggggh": 879,
      "eeeeeeed": 880,
      "bbbbbbbbbbb": 881,
      "eeefef": 882,
      "effffffff": 883,
      "aaaaaaaaaaaaaab": 884,
      "ccbccd": 885,
      "cceed": 886,
      "cecd": 887,
      "eeeeffff": 888,
      "ddcb": 889,
      "cbbcdd": 890,
      "aad": 891,
      "ghhggf": 892,
      "eddcdd": 893,
      "efffef": 894,
      "eeefffff": 895,
      "gfeef": 896,
      "gggfed": 897,
      "ecfb": 898,
      "ghghf": 899,
      "ccddf": 900,
      "aabbbbbb": 901,
      "gggggffff": 902,
      "dbbb": 903,
      "cccccccdd": 904,
      "gfee": 905,
      "eeeee": 906,
      "effgff": 907,
      "ceddd": 908,
      "gedf": 909,
      "Ġff": 910,
      "eddff": 911,
      "ebdb": 912,
      "cddcb": 913,
      "gefff": 914,
      "cabab": 915,
      "ggged": 916,
      "gggfef": 917,
      "gghhhhhhhhh": 918,
      "ghgg": 919,
      "gfggf": 920,
      "cbbcb": 921,
      "gegd": 922,
      "cccccbbb": 923,
      "deff": 924,
      "ehh": 925,
      "ggghhhhhhh": 926,
      "gggef": 927,
      "cccccddd": 928,
      "cbbaab": 929,
      "eeeddddd": 930,
      "aaaaaaabbb": 931,
      "bbab": 932,
      "eefggf": 933,
      "ghhgff": 934,
      "eedcd": 935,
      "cgbgb": 936,
      "cecf": 937,
      "cddcd": 938,
      "gghhhhhhhhhh": 939,
      "ceded": 940,
      "ggggghhh": 941,
      "cbba": 942,
      "hhhhhhhhhhhhhhhhhhhhhhhhhhhhhhhhhhhhhhhh": 943,
      "ggggggfff": 944,
      "ceeff": 945,
      "hg": 946,
      "ccbaab": 947,
      "eeeeeeef": 948,
      "cccccbbbb": 949,
      "ccab": 950,
      "ceedd": 951,
      "aaaaaaaaaabb": 952,
      "ghgd": 953,
      "cegf": 954,
      "ffe": 955,
      "cbbbcd": 956,
      "gefd": 957,
      "ededed": 958,
      "dddb": 959,
      "efdd": 960,
      "eeeeee": 961,
      "aaabab": 962,
      "dcdd": 963,
      "aaaaabbbb": 964,
      "efffed": 965,
      "ghhhhf": 966,
      "gfgfgfgf": 967,
      "eddeff": 968,
      "efee": 969,
      "efgff": 970,
      "ebab": 971,
      "gggggggggggggggggggggggggggggggg": 972,
      "cdcdcd": 973,
      "ccdeed": 974,
      "hhhgf": 975,
      "eddded": 976,
      "cccddddd": 977,
      "eefeed": 978,
      "eghh": 979,
      "eeeeeedd": 980,
      "gghhgf": 981,
      "dfgf": 982,
      "cdfff": 983,
      "bbbd": 984,
      "cbaabb": 985,
      "cfgf": 986,
      "ebf": 987,
      "effggf": 988,
      "geee": 989,
      "eddddddd": 990,
      "ghhhhhhhhhhhhh": 991,
      "eeeded": 992,
      "eeeeeeff": 993,
      "eeeeefff": 994,
      "cbcbcb": 995,
      "cdbd": 996,
      "ccbbab": 997,
      "ccdcdd": 998,
      "cgc": 999,
      "ggghhhhhhhhhhhhhhhh": 1000,
      "eced": 1001,
      "cccdef": 1002,
      "ghhhhgf": 1003,
      "ghggff": 1004,
      "ghff": 1005,
      "bd": 1006,
      "aabbbbbbb": 1007,
      "cfe": 1008,
      "efffd": 1009,
      "cddbb": 1010,
      "ggeef": 1011,
      "cccccccb": 1012,
      "aac": 1013,
      "ccdeff": 1014,
      "geeef": 1015,
      "eedddddd": 1016,
      "edeff": 1017,
      "ggggggggff": 1018,
      "bbbbbbbbbbbb": 1019,
      "cfdf": 1020,
      "edcdd": 1021,
      "cbdf": 1022,
      "ha": 1023,
      "eecbb": 1024,
      "gggfe": 1025,
      "eeeeeddd": 1026,
      "cdcccd": 1027,
      "cceef": 1028,
      "gggd": 1029,
      "gggggghh": 1030,
      "cbce": 1031,
      "eddeed": 1032,
      "Ġdd": 1033,
      "ccccccbb": 1034,
      "cdbbb": 1035,
      "cbccdd": 1036,
      "cca": 1037,
      "ddddddd": 1038,
      "aabab": 1039,
      "aaabbbbbb": 1040,
      "ggfdd": 1041,
      "cabbb": 1042,
      "ggffef": 1043,
      "cdcbbb": 1044,
      "cbaaaab": 1045,
      "fgf": 1046,
      "gggghhhhh": 1047,
      "cbbbbbbbbbb": 1048,
      "gfffgf": 1049,
      "caaaab": 1050,
      "ccdddddd": 1051,
      "fffd": 1052,
      "ghghhh": 1053,
      "cbcf": 1054,
      "cbbccd": 1055,
      "edddef": 1056,
      "ffffffffff": 1057,
      "Ġh": 1058,
      "eeffgf": 1059,
      "eedeef": 1060,
      "ghhhhhhhhhhhhhhhhhhhhhhhhhhhhhhhhhhhhhhhhhhhhhhhhhhhhhhhhhhhhhhhh": 1061,
      "ggggggggh": 1062,
      "ccedd": 1063,
      "efeef": 1064,
      "cefd": 1065,
      "gdfd": 1066,
      "abbd": 1067,
      "gcgd": 1068,
      "eeffed": 1069,
      "ggggggggggf": 1070,
      "ccccbbbbb": 1071,
      "eefffffff": 1072,
      "aaaaaaaaaaaaab": 1073,
      "cbaaa": 1074,
      "cbbbab": 1075,
      "dedb": 1076,
      "hff": 1077,
      "gffffffff": 1078,
      "hahahahah": 1079,
      "cddff": 1080,
      "eg": 1081,
      "hgg": 1082,
      "ghhhhhf": 1083,
      "cccccc": 1084,
      "cccbbbbbbb": 1085,
      "ggggfgf": 1086,
      "gdbb": 1087,
      "aaaaaaaaaa": 1088,
      "cddcbb": 1089,
      "gbgcf": 1090,
      "ggfeef": 1091,
      "ghghh": 1092,
      "ccbcbb": 1093,
      "hhhhhhhhhhhhhhhhhhhhhhhhhhhhhhhhhhhhhhhhhhhhhhhh": 1094,
      "gffeff": 1095,
      "ceeee": 1096,
      "gbfcedd": 1097,
      "efdf": 1098,
      "gggggggggf": 1099,
      "cdcddd": 1100,
      "aaaaaaaaa": 1101,
      "gggffffff": 1102,
      "gghgggg": 1103,
      "eedff": 1104,
      "ccdee": 1105,
      "aaaaaaaabbb": 1106,
      "ddcbb": 1107,
      "ggedd": 1108,
      "cbcccb": 1109,
      "eeefd": 1110,
      "gghhhhhhhhhhhh": 1111,
      "eeddef": 1112,
      "ggfee": 1113,
      "ccdbb": 1114,
      "gebb": 1115,
      "eefeff": 1116,
      "ggdb": 1117,
      "fhh": 1118,
      "eedbb": 1119,
      "cgd": 1120,
      "gedb": 1121,
      "ecbbb": 1122,
      "ccbcdd": 1123,
      "ceced": 1124,
      "ccddb": 1125,
      "gahahahah": 1126,
      "ccdded": 1127,
      "eededd": 1128,
      "hhhhhhhhhh": 1129,
      "eeeeeffff": 1130,
      "abbbab": 1131,
      "geeff": 1132,
      "gghhhhhhhhhhh": 1133,
      "eeeeeeedd": 1134,
      "aaaabbbbb": 1135,
      "efedd": 1136,
      "cddedd": 1137,
      "ebfb": 1138,
      "efefefef": 1139,
      "edee": 1140,
      "ggghf": 1141,
      "cbcccd": 1142,
      "ggeb": 1143,
      "ccdccb": 1144,
      "cdbdb": 1145,
      "ghgggf": 1146,
      "aaaaaaaaaaabb": 1147,
      "caba": 1148,
      "ccdcbb": 1149,
      "hghf": 1150,
      "dbaab": 1151,
      "ghhge": 1152,
      "hge": 1153,
      "dccb": 1154,
      "ghhhggf": 1155,
      "aaaaaabbbb": 1156,
      "gffggf": 1157,
      "cdce": 1158,
      "ccdcb": 1159,
      "hhhhf": 1160,
      "gghhf": 1161,
      "gegef": 1162,
      "egggf": 1163,
      "cdccbb": 1164,
      "ddeff": 1165,
      "efffgf": 1166,
      "ggeff": 1167,
      "ba": 1168,
      "ghhg": 1169,
      "abbab": 1170,
      "ggfffffff": 1171,
      "cccded": 1172,
      "eedeff": 1173,
      "ghhhhhhhhhhhhhhh": 1174,
      "ccdedd": 1175,
      "aaaaaaaaaaaaaaaaaaaaaaaaaaaaaaaaaaaaaaaaaaaaaaaaaaaaaaaaaaaaaaaaaaaaaaaaaaaaaaaaaaaaaaaaaaaaaaaa": 1176,
      "cbf": 1177,
      "dba": 1178,
      "ababa": 1179,
      "ggffd": 1180,
      "gghhhhhhhhhhhhhhhhhhhhhhhh": 1181,
      "cdeeed": 1182,
      "cbbbbbbbbbbbb": 1183,
      "aaabd": 1184,
      "gaha": 1185,
      "ggffgf": 1186,
      "aaaaaaaaaaaaaaaab": 1187,
      "ceeef": 1188,
      "eceb": 1189,
      "gfdbb": 1190,
      "ddee": 1191,
      "cbccbb": 1192,
      "eeffd": 1193,
      "cfhh": 1194,
      "cddddddd": 1195,
      "gggggggfff": 1196,
      "eddeef": 1197,
      "caabb": 1198,
      "gghgff": 1199,
      "ccccccccd": 1200,
      "cbbccb": 1201,
      "cgf": 1202,
      "hgd": 1203,
      "dfb": 1204,
      "cdcc": 1205,
      "ggecb": 1206,
      "cdefff": 1207,
      "eedcb": 1208,
      "hahb": 1209,
      "cdfgf": 1210,
      "ggggfffff": 1211,
      "gbgbf": 1212,
      "eeggf": 1213,
      "cdeedd": 1214,
      "eeeeded": 1215,
      "hghgh": 1216,
      "eeffffffff": 1217,
      "gggggghhh": 1218,
      "ccccccccb": 1219,
      "ggghgf": 1220,
      "cbbaaab": 1221,
      "aaad": 1222,
      "cbcbd": 1223,
      "ddcdd": 1224,
      "eeeffffff": 1225,
      "Ġbbb": 1226,
      "hchd": 1227,
      "cbbbcb": 1228,
      "edfef": 1229,
      "ggffed": 1230,
      "geedd": 1231,
      "ecdb": 1232,
      "effeef": 1233,
      "bba": 1234,
      "hhhhhhhhh": 1235,
      "ccbabb": 1236,
      "ccccccddd": 1237,
      "ccbbd": 1238,
      "dddef": 1239,
      "ggfgff": 1240,
      "ebbb": 1241,
      "gagaga": 1242,
      "effedd": 1243,
      "ccaab": 1244,
      "edeed": 1245,
      "cbbcbb": 1246,
      "gbfb": 1247,
      "hhhhhhhhhhhhhhhhhhhhhhhhhhhhhhhhhhhhhhhhhhhhhhhhhhhhhhhh": 1248,
      "aaaaaaaaaaaabb": 1249,
      "eba": 1250,
      "aaaaaaaaaaa": 1251,
      "gcfb": 1252,
      "gggghhhhhh": 1253,
      "efgggf": 1254,
      "ghggh": 1255,
      "aaaaaaaaaaaaaaab": 1256,
      "cccdddddd": 1257,
      "cccdcd": 1258,
      "abaaab": 1259,
      "ccdeef": 1260,
      "gce": 1261,
      "ggfedd": 1262,
      "daca": 1263,
      "ghhff": 1264,
      "ggfeff": 1265,
      "eeedddddd": 1266,
      "cddeef": 1267,
      "cbbdd": 1268,
      "dfed": 1269,
      "hfhe": 1270,
      "abaab": 1271,
      "ghhhhhgf": 1272,
      "hbhbhb": 1273,
      "dbcb": 1274,
      "ghhhgff": 1275,
      "ccbbbbbbbbb": 1276,
      "edfdf": 1277,
      "ecccd": 1278,
      "ggggghhhh": 1279,
      "ghfd": 1280,
      "gghhhgf": 1281,
      "aaaaaaaaabbb": 1282,
      "ddded": 1283,
      "eedccd": 1284,
      "caaaa": 1285,
      "eedcbb": 1286,
      "aabbbbbbbb": 1287,
      "gcfdeedf": 1288,
      "eeedef": 1289,
      "eeeefffff": 1290,
      "ggdd": 1291,
      "cccbd": 1292,
      "aaaaaaabbbb": 1293,
      "gfffef": 1294,
      "cbabbb": 1295,
      "hhg": 1296,
      "ggggggffff": 1297,
      "gggfgff": 1298,
      "hhhhhhhhhhhh": 1299,
      "hgff": 1300,
      "ggggg": 1301,
      "gggee": 1302,
      "eeefed": 1303,
      "efefd": 1304,
      "ccddef": 1305,
      "ghgggh": 1306,
      "eeffef": 1307,
      "ccba": 1308,
      "aacf": 1309,
      "cdfd": 1310,
      "gecb": 1311,
      "eeedb": 1312,
      "ccccccbbb": 1313,
      "eebb": 1314,
      "ghhhhhhhhhhhhhhhhhh": 1315,
      "fffef": 1316,
      "ggffffffff": 1317,
      "dddddddddd": 1318,
      "ghgfd": 1319,
      "Ġhh": 1320,
      "ehhh": 1321,
      "eefgff": 1322,
      "aaaaabbbbb": 1323,
      "gghhhf": 1324,
      "cccccdddd": 1325,
      "effeff": 1326,
      "ceggf": 1327,
      "ghged": 1328,
      "ffef": 1329,
      "eggh": 1330,
      "eeddb": 1331,
      "gahaha": 1332,
      "cdddf": 1333,
      "eeefgf": 1334,
      "fffed": 1335,
      "ccdccd": 1336,
      "cbaaabb": 1337,
      "efffffffff": 1338,
      "cefed": 1339,
      "ggfggf": 1340,
      "ceffff": 1341,
      "edddddddd": 1342,
      "cbbbbbbbbbbb": 1343,
      "ddbbb": 1344,
      "cccbbbbbbbb": 1345,
      "ghggggf": 1346,
      "ghgggggggg": 1347,
      "cddeed": 1348,
      "degf": 1349,
      "eddedd": 1350,
      "cdddb": 1351,
      "ghhgd": 1352,
      "hhhhhf": 1353,
      "egef": 1354,
      "ccbcbbb": 1355,
      "gggggfgf": 1356,
      "eeeeeeeef": 1357,
      "cddded": 1358,
      "ggghhhhhhhhhh": 1359,
      "cefgf": 1360,
      "gbgc": 1361,
      "ggggggghh": 1362,
      "ghgfff": 1363,
      "eeddddddd": 1364,
      "ccbbcd": 1365,
      "gegfgf": 1366,
      "ceceb": 1367,
      "abbcb": 1368,
      "ccbaaab": 1369,
      "hfgf": 1370,
      "abbbbbbbbb": 1371,
      "cddeff": 1372,
      "eedded": 1373,
      "ababbb": 1374,
      "cddccd": 1375,
      "ggghggf": 1376,
      "geddd": 1377,
      "cccccccccccc": 1378,
      "ebaab": 1379,
      "fffgf": 1380,
      "cbbdf": 1381,
      "eddbb": 1382,
      "hhhhhhhhhhh": 1383,
      "cdced": 1384,
      "eddee": 1385,
      "eddccd": 1386,
      "eeegf": 1387,
      "ecddd": 1388,
      "cec": 1389,
      "ggghhhhhhhhh": 1390,
      "ecab": 1391,
      "dddddddddddddddddddddddddddddddd": 1392,
      "effdd": 1393,
      "eghhh": 1394,
      "gghhhhhhhhhhhhhh": 1395,
      "eeeeeefff": 1396,
      "hhhhhhhhhhhhh": 1397,
      "cbbabbb": 1398,
      "ecdf": 1399,
      "ccbdd": 1400,
      "effeed": 1401,
      "eefee": 1402,
      "ecdcd": 1403,
      "ghhgggg": 1404,
      "daea": 1405,
      "ggeed": 1406,
      "ccbcbcb": 1407,
      "cad": 1408,
      "cccbab": 1409,
      "cbbbbab": 1410,
      "caaabb": 1411,
      "ccccbbbbbb": 1412,
      "eggg": 1413,
      "eeeeeeddd": 1414,
      "cccccccccccccccccccccccccccccccc": 1415,
      "hahahb": 1416,
      "cbcef": 1417,
      "caaaaab": 1418,
      "ecbab": 1419,
      "effee": 1420,
      "ccddddddd": 1421,
      "hhhhhhhhhhhhhhhhhhhhhhhhhhhhhhhhhhhhhhhhhhhhhhhhhhhhhhhhhhhhhhhhhhhhhhhhhhhhhhhhhhhhhhhhhhhhhhhhhhhhhhhhhhhhhhhhhhhhhhhhhhhhhhhhhhhhhhhhhhhhhhhhhhhhhhhhhhhhhhhhhhhhhhhhhhhhhhhhhhhhhhhhhhhhhhhh": 1422,
      "cddee": 1423,
      "gghghgh": 1424,
      "efefff": 1425,
      "ccbbabb": 1426,
      "gghhhhhhhhhhhhh": 1427,
      "cbaaaaab": 1428,
      "hhhhgf": 1429,
      "aaaaaaaaaabbb": 1430,
      "aaaaaaaaaaaaaaaaaab": 1431,
      "ccccdf": 1432,
      "cbbbccd": 1433,
      "eeeeedddd": 1434,
      "ggggfd": 1435,
      "gghggff": 1436,
      "egfgf": 1437,
      "eedddf": 1438,
      "aaaaabab": 1439,
      "gddd": 1440,
      "gdge": 1441,
      "cedbb": 1442,
      "bbbbbbbbbbbbb": 1443,
      "gggggggggggf": 1444,
      "cdccdd": 1445,
      "cfcfcfcf": 1446,
      "dbeb": 1447,
      "eefeef": 1448,
      "gffdd": 1449,
      "hfhgh": 1450,
      "gffee": 1451,
      "eedeed": 1452,
      "ceeedd": 1453,
      "edbbb": 1454,
      "gggghhhhhhh": 1455,
      "cbbbcbb": 1456,
      "ecbd": 1457,
      "hdhe": 1458,
      "cccee": 1459,
      "eeeeeeeff": 1460,
      "gggggggggff": 1461,
      "efb": 1462,
      "cacaca": 1463,
      "eefdd": 1464,
      "cdeee": 1465,
      "fc": 1466,
      "cddcdd": 1467,
      "ggggfed": 1468,
      "gggggggffff": 1469,
      "aaabbbbbbb": 1470,
      "ghhhgh": 1471,
      "cdeddd": 1472,
      "effgggf": 1473,
      "eedee": 1474,
      "Ġaaaaaaaaaaaaaaaaaaaaaaaaaaaaaaaaaaaaaaaaaaaaaaaaaaaaaaaaaaaaaaaaaaaaaaaaaaaaaaaaaaaaaaaaaaaaaaaaaaaaaaaaaaaaaaaaaaaaaaaaaaaaaaaa": 1475,
      "cbbbabb": 1476,
      "cfh": 1477,
      "cbde": 1478,
      "dce": 1479,
      "Ġfff": 1480,
      "dedd": 1481,
      "gfgggf": 1482,
      "cbcddd": 1483,
      "eeeeddddd": 1484,
      "gffeef": 1485,
      "cccde": 1486,
      "fcf": 1487,
      "ccbcccc": 1488,
      "cdeeff": 1489,
      "dcc": 1490,
      "cbca": 1491,
      "gdfdf": 1492,
      "cbcdf": 1493,
      "ccbccdd": 1494,
      "gggffef": 1495,
      "dfff": 1496,
      "aabbab": 1497,
      "gfffffffff": 1498,
      "faea": 1499,
      "cbbbcdd": 1500,
      "ghhfd": 1501,
      "cbbce": 1502,
      "cdddddddd": 1503,
      "dccd": 1504,
      "dbdbdb": 1505,
      "hhhhhhhhhhhhhh": 1506,
      "ecccc": 1507,
      "ggedf": 1508,
      "eccbb": 1509,
      "abaca": 1510,
      "gghgggf": 1511,
      "ghhgh": 1512,
      "geeee": 1513,
      "cbbbaab": 1514,
      "cedddd": 1515,
      "cccdff": 1516,
      "deef": 1517,
      "gfgfff": 1518,
      "ggffggf": 1519,
      "gghhggf": 1520,
      "abbaab": 1521,
      "ddddddddddd": 1522,
      "hhge": 1523,
      "dbaa": 1524,
      "ccbccb": 1525,
      "gghgg": 1526,
      "gcgb": 1527,
      "gfeff": 1528,
      "gffeed": 1529,
      "hhgd": 1530,
      "ceeb": 1531,
      "cfef": 1532,
      "eccdd": 1533,
      "cccccccbb": 1534,
      "ggggghhhhh": 1535,
      "aaaaaaaaaaaaaaaaaaaaaaaaaaaaaaaaaaaaaaaaaaaaaaaaaaaaaaaa": 1536,
      "ggggggggfff": 1537,
      "eefedd": 1538,
      "gbfd": 1539,
      "ggggggggggggf": 1540,
      "ghhhhhhhhhhhhhhhhhhhh": 1541,
      "cccddf": 1542,
      "decd": 1543,
      "dfggf": 1544,
      "ccccded": 1545,
      "cdddef": 1546,
      "aaaabbbbbb": 1547,
      "eeddcd": 1548,
      "cfbgbgb": 1549,
      "gfedd": 1550,
      "eedcdd": 1551,
      "ccbcc": 1552,
      "gggghhhhhhhhhhhhhhhh": 1553,
      "dddff": 1554,
      "aaaaaaaabbbb": 1555,
      "aabbaab": 1556,
      "dddddddddddd": 1557,
      "geeed": 1558,
      "geffff": 1559,
      "eeccd": 1560,
      "gghff": 1561,
      "acf": 1562,
      "cdddcd": 1563,
      "Ġef": 1564,
      "geh": 1565,
      "ghhgggf": 1566,
      "ddccd": 1567,
      "cbbccbb": 1568,
      "edddff": 1569,
      "efffeff": 1570,
      "ccabb": 1571,
      "gggggfffff": 1572,
      "eeeeeeeeeeeeeeeeeeeeeeeeeeeeeeee": 1573,
      "Ġgf": 1574,
      "aaaaaaaaaaaaaaaaaaaab": 1575,
      "eeeefef": 1576,
      "Ġddd": 1577,
      "aaaaaaaaaaaaabb": 1578,
      "cceee": 1579,
      "cccbccd": 1580,
      "gfdef": 1581,
      "gcgcf": 1582,
      "hhgff": 1583,
      "cceeed": 1584,
      "aacd": 1585,
      "efdbb": 1586,
      "gggffffffff": 1587,
      "ccccddddd": 1588,
      "ggecd": 1589,
      "gghghf": 1590,
      "ecece": 1591,
      "eggff": 1592,
      "cbddd": 1593,
      "ggggfef": 1594,
      "ccefff": 1595,
      "ggfgggf": 1596,
      "acd": 1597,
      "gghghhh": 1598,
      "aaaaaaaaaaaaaabb": 1599,
      "gfffed": 1600,
      "abf": 1601,
      "abbbbbbbbbbbbbbbb": 1602,
      "ccceff": 1603,
      "ecgb": 1604,
      "Ġhhh": 1605,
      "ababbbbb": 1606,
      "gehe": 1607,
      "ghgghh": 1608,
      "dadb": 1609,
      "aaabaaab": 1610,
      "Ġed": 1611,
      "aaaaaabbbbb": 1612,
      "ghgef": 1613,
      "eeeedf": 1614,
      "ggghhhhhhhhhhh": 1615,
      "ghhhhhhhhhhhhhhhhhhhhhhhhhhhhhhhhhhhhhhhhhhhhhhhh": 1616,
      "eefgggf": 1617,
      "egggg": 1618,
      "cecdb": 1619,
      "gcd": 1620,
      "eecdd": 1621,
      "cccdcdd": 1622,
      "eddcbb": 1623,
      "cdcbbbb": 1624,
      "gffgff": 1625,
      "ghhhhggf": 1626,
      "aaac": 1627,
      "abababb": 1628,
      "ccbbbbbbbbbb": 1629,
      "ccegf": 1630,
      "eddddf": 1631,
      "cdbab": 1632,
      "cccccbbbbb": 1633,
      "eddccb": 1634,
      "cbaaaa": 1635,
      "aabaab": 1636,
      "cbbaabb": 1637,
      "cbda": 1638,
      "cbcbbbbb": 1639,
      "cecdd": 1640,
      "ebaa": 1641,
      "gahb": 1642,
      "ghhggff": 1643,
      "ghhhhhhhhhhhhhhhhhhh": 1644,
      "gggggghhhh": 1645,
      "eeeeeeeed": 1646,
      "egfff": 1647,
      "bbabb": 1648,
      "aaabbbbbbbb": 1649,
      "cfbgb": 1650,
      "cababb": 1651,
      "cfbfb": 1652,
      "ddeed": 1653,
      "egfd": 1654,
      "ddeef": 1655,
      "dbaaab": 1656,
      "Ġhhhhhhhhhhhhhhhhhhhhhhhhhhhhhhhhhhhhhhhhhhhhhhhhhhhhhhhhhhhhhhhhhhhhhhhhhhhhhhhhhhhhhhhhhhhhhhhhhhhhhhhhhhhhhhhhhhhhhhhhhhhhhhhh": 1657,
      "eddddddddd": 1658,
      "ghhhhhhf": 1659,
      "edbab": 1660,
      "fafb": 1661,
      "ccdcccd": 1662,
      "gfb": 1663,
      "cddccb": 1664,
      "efh": 1665,
      "ggghhhhhhhhhhhhhhhhhhhhhhhh": 1666,
      "eegff": 1667,
      "ddccb": 1668,
      "ccccde": 1669,
      "dbf": 1670,
      "efggff": 1671,
      "ghe": 1672,
      "cbbbcbbb": 1673,
      "ghghhhh": 1674,
      "eeffgff": 1675,
      "hchb": 1676,
      "ggghhgf": 1677,
      "aaababb": 1678,
      "cbaabbb": 1679,
      "cbbcf": 1680,
      "gggfggf": 1681,
      "af": 1682,
      "cdfed": 1683,
      "ggggggghhh": 1684,
      "cddbbb": 1685,
      "ceefff": 1686,
      "bbcd": 1687,
      "gegdf": 1688,
      "gfffgff": 1689,
      "effffffffffff": 1690,
      "gbfceddecfb": 1691,
      "cbbaaaab": 1692,
      "edddedd": 1693,
      "gdgdf": 1694,
      "eeccb": 1695,
      "gefdf": 1696,
      "cegg": 1697,
      "ecaab": 1698,
      "eeefffffff": 1699,
      "gdff": 1700,
      "eefefef": 1701,
      "ccbbaab": 1702,
      "dcf": 1703,
      "ggggggggggff": 1704,
      "cdcdcdd": 1705,
      "cccccccbbbb": 1706,
      "ghhhhhhhhhhhhhhhhh": 1707,
      "ecbbbb": 1708,
      "dfdfd": 1709,
      "Ġbbbb": 1710,
      "gegff": 1711,
      "ghhghh": 1712,
      "gggeef": 1713,
      "ecef": 1714,
      "eeeede": 1715,
      "gfffggf": 1716,
      "efffeed": 1717,
      "fagaga": 1718,
      "ccaaab": 1719,
      "gedef": 1720,
      "ccbaa": 1721,
      "gggfffffff": 1722,
      "cceb": 1723,
      "ghhhhhhgf": 1724,
      "abbbbbbbbbb": 1725,
      "eeeddf": 1726,
      "ghhhge": 1727,
      "ehf": 1728,
      "gggfeef": 1729,
      "effffffffff": 1730,
      "ghhhff": 1731,
      "eddcccd": 1732,
      "Ġhhhhhhhhhhhhhhhhhhhhhhhhhhhhhhhhhhhhhhhhhhhhhhhhhhhhhhhhhhhhhhhh": 1733,
      "ceedb": 1734,
      "eededf": 1735,
      "aaaaaaaaaaabbb": 1736,
      "ggb": 1737,
      "cabbbb": 1738,
      "cbbcbbb": 1739,
      "efeeef": 1740,
      "ddddf": 1741,
      "gghhhhhhhhhhhhhhh": 1742,
      "cccff": 1743,
      "hegf": 1744,
      "ggghhhhhhhhhhhh": 1745,
      "ccbbbd": 1746,
      "ghhhhhhhhhhhhhhhhhhhhh": 1747,
      "gggffed": 1748,
      "caaaaaab": 1749,
      "fffffffff": 1750,
      "cfggf": 1751,
      "eeeeefef": 1752,
      "gghghh": 1753,
      "dfdfdf": 1754,
      "ddedd": 1755,
      "eefffed": 1756,
      "eeeefd": 1757,
      "aaabaab": 1758,
      "cbdff": 1759,
      "cccbcd": 1760,
      "cdddcdd": 1761,
      "ceeddd": 1762,
      "aace": 1763,
      "gghhhhhhhhhhhhhhhhhhhhhhhhhhhhhhhh": 1764,
      "ccccccdddd": 1765,
      "gghhgff": 1766,
      "aaaaaaaaaaaaa": 1767,
      "eedeeed": 1768,
      "effgfff": 1769,
      "dfhh": 1770,
      "cbaaaaaab": 1771,
      "ccdfff": 1772,
      "edddcd": 1773,
      "efeedd": 1774,
      "eeeeeded": 1775,
      "cbe": 1776,
      "eefdf": 1777,
      "gfgfgff": 1778,
      "cccccdcd": 1779,
      "cfed": 1780,
      "aaaabab": 1781,
      "dcbbb": 1782,
      "dcbab": 1783,
      "effffed": 1784,
      "gggfgggf": 1785,
      "ccceed": 1786,
      "aaaaaaaaaaaaaaaaaaaaaaaaaaaaaaaaaaaaaaaaaaaaaaaaaaaaaaaaaaaa": 1787,
      "ccbdb": 1788,
      "ggfeed": 1789,
      "gffffgf": 1790,
      "edddeff": 1791,
      "haha": 1792,
      "abbbabb": 1793,
      "gggggggghh": 1794,
      "gghgggh": 1795,
      "aaaaaaaaaaaaaaaaab": 1796,
      "ggggffffff": 1797,
      "edfb": 1798,
      "cebeb": 1799,
      "efffeef": 1800,
      "cgh": 1801,
      "gahahaha": 1802,
      "eeefeff": 1803,
      "ccbaabb": 1804,
      "cccdded": 1805,
      "cceedd": 1806,
      "ggfffgf": 1807,
      "ghhhhhhhhhhhhhhhhhhhhhh": 1808,
      "ccefd": 1809,
      "eeededd": 1810,
      "Ġab": 1811,
      "edddeed": 1812,
      "ghhged": 1813,
      "aaaaabbbbbb": 1814,
      "cdbcb": 1815,
      "gddf": 1816,
      "cbbbbd": 1817,
      "efhh": 1818,
      "cbcbdb": 1819,
      "cebfb": 1820,
      "efgg": 1821,
      "gggffgf": 1822,
      "cdcdf": 1823,
      "cccdeff": 1824,
      "faga": 1825,
      "ghhgg": 1826,
      "ccbcccb": 1827,
      "cdecb": 1828,
      "gfffd": 1829,
      "cccdeed": 1830,
      "ccddff": 1831,
      "dedbb": 1832,
      "gggeff": 1833,
      "abbbbbbbbbbb": 1834,
      "eeeeffffff": 1835,
      "cbcccbb": 1836,
      "ccfd": 1837,
      "aaaaaaabbbbb": 1838,
      "ccccbbbbbbb": 1839,
      "abababa": 1840,
      "geddf": 1841,
      "daeaea": 1842,
      "cccbbbbbbbbb": 1843,
      "edddeef": 1844,
      "eddde": 1845,
      "effffgf": 1846,
      "cfcfcf": 1847,
      "ccdbbb": 1848,
      "ghhgghh": 1849,
      "cbbbbbbbbbbbbbbbbbbbb": 1850,
      "bbbbbbbbbbbbbb": 1851,
      "cbbbdd": 1852,
      "gggfee": 1853,
      "ecff": 1854,
      "ch": 1855,
      "cdcccb": 1856,
      "egege": 1857,
      "ghhhghhh": 1858,
      "gfdb": 1859,
      "ghhhhhhhhhhhhhhhhhhhhhhh": 1860,
      "cdccbbb": 1861,
      "ccbbcdd": 1862,
      "aaaaaaaaabbbb": 1863,
      "baab": 1864,
      "cccccccddd": 1865,
      "dfh": 1866,
      "efde": 1867,
      "eeefggf": 1868,
      "ccaa": 1869,
      "cebdb": 1870,
      "Ġhhhhhhhhhhhhhhhh": 1871,
      "ace": 1872,
      "ggffeff": 1873,
      "aaaaaaaaaaaabbb": 1874,
      "ghhgfff": 1875,
      "bf": 1876,
      "cceeff": 1877,
      "eeefeed": 1878,
      "ccbbbbbbbbbbbbbbbb": 1879,
      "ggebb": 1880,
      "aaaaaaaaaaaaaaaaaaaaaaaaaaaaaaaaaaaaaaaaaaaaaaaaaaaaaaaaaaaaaaaaaaaaaaaaaaaaaaaa": 1881,
      "gggggfd": 1882,
      "eddcddd": 1883,
      "cbcccccccc": 1884,
      "cecdcd": 1885,
      "ggggge": 1886,
      "cfhhh": 1887,
      "acaca": 1888,
      "ccdeeed": 1889,
      "cbccccb": 1890,
      "ccccdef": 1891,
      "hahahahb": 1892,
      "ccccccbbbb": 1893,
      "ceddecfb": 1894,
      "cbced": 1895,
      "ghghghf": 1896,
      "eeeeeeffff": 1897,
      "ddfff": 1898,
      "ccbbbbbbbbbbb": 1899,
      "gbb": 1900,
      "hfhfh": 1901,
      "ghhggh": 1902,
      "adb": 1903,
      "eeddff": 1904,
      "cdcdddd": 1905,
      "cbbcef": 1906,
      "ghhgfd": 1907,
      "ecee": 1908,
      "eeddded": 1909,
      "gggggggggggggggggggggggg": 1910,
      "eeeeeedddd": 1911,
      "aaaabd": 1912,
      "hhff": 1913,
      "ggffe": 1914,
      "effffef": 1915,
      "gghhhggf": 1916,
      "eafafa": 1917,
      "cddddddddd": 1918,
      "gggfedd": 1919,
      "efffe": 1920,
      "edfgf": 1921,
      "eeeffed": 1922,
      "gced": 1923,
      "cddcbbb": 1924,
      "gghhhhgf": 1925,
      "gcgdf": 1926,
      "cbbcccb": 1927,
      "ecdff": 1928,
      "ccdcddd": 1929,
      "efffedd": 1930,
      "cccccbcb": 1931,
      "eefffef": 1932,
      "cbbbbabb": 1933,
      "ghhghhh": 1934,
      "ggggghhhhhh": 1935,
      "gecd": 1936,
      "cffd": 1937,
      "ccdeedd": 1938,
      "ccddbb": 1939,
      "gcb": 1940,
      "gghggggf": 1941,
      "ggdbb": 1942,
      "cdfggf": 1943,
      "aaaaaaaaaaaaaaabb": 1944,
      "ggggghgggg": 1945,
      "ccdddddddd": 1946,
      "edddded": 1947,
      "ghghhhhh": 1948,
      "ababbbb": 1949,
      "ghhhhgff": 1950,
      "cbccbbb": 1951,
      "eeeeeeeffff": 1952,
      "ceedf": 1953,
      "cdefed": 1954,
      "gghhhhhhhhhhhhhhhhhhhhhhhhhhhhhhhhhhhhhhhhhhhhhhhhhhhhhhhhhhhhhhhh": 1955,
      "dddbb": 1956,
      "abbbaab": 1957,
      "cbbaaabb": 1958,
      "eeedeef": 1959,
      "fdbb": 1960,
      "cddddf": 1961,
      "hhggf": 1962,
      "cdcccdd": 1963,
      "cebb": 1964,
      "eeeffgf": 1965,
      "cbbbccb": 1966,
      "cccbaab": 1967,
      "ccdccbb": 1968,
      "cbaaaabb": 1969,
      "cdedb": 1970,
      "eeddeff": 1971,
      "cdeeee": 1972,
      "eeddcdd": 1973,
      "cbccccd": 1974,
      "aaaaaaaaaaaaaaaaaaaaaab": 1975,
      "cdbbbb": 1976,
      "hehehe": 1977,
      "ccceef": 1978,
      "gghgggggggg": 1979,
      "gggged": 1980,
      "ccddedd": 1981,
      "cdeeef": 1982,
      "hcgd": 1983,
      "eeffggf": 1984,
      "gggffd": 1985,
      "ccdcdcd": 1986,
      "debb": 1987,
      "ecdef": 1988,
      "cccccccbbb": 1989,
      "gggfeff": 1990,
      "eededed": 1991,
      "cedff": 1992,
      "gggghggf": 1993,
      "ghggfff": 1994,
      "aaaaaaaaaaaaaaaaaaab": 1995,
      "aaaaaaaaaaaaaa": 1996,
      "cdcccccccc": 1997,
      "aaaaaaaaaaaaaaaaaaaaaaab": 1998,
      "cbbcddd": 1999,
      "gefe": 2000,
      "gde": 2001,
      "efffgff": 2002,
      "ggeee": 2003,
      "cea": 2004,
      "cbbabbbb": 2005,
      "hhhhhhhhhhhhhhh": 2006,
      "eeeeefffff": 2007,
      "cbabbbb": 2008,
      "gggedd": 2009,
      "ccbcbbbb": 2010,
      "caaaaa": 2011,
      "cfcfb": 2012,
      "efffggf": 2013,
      "ccfff": 2014,
      "ghhhhhhhhhhhhhhhhhhhhhhhhhhhhhhhhhhhhhhhhhhhhhhhhhhhhhhhh": 2015,
      "eeffeef": 2016,
      "ddcbbb": 2017,
      "hghhh": 2018,
      "gffffffffffff": 2019,
      "cffff": 2020,
      "ccbaaaab": 2021,
      "aabf": 2022,
      "cbdbdb": 2023,
      "eeeeeee": 2024,
      "ggggggfgf": 2025,
      "ccccf": 2026,
      "ccbcccd": 2027,
      "geedf": 2028,
      "aababb": 2029,
      "Ġhhhh": 2030,
      "eddeeed": 2031,
      "gffffef": 2032,
      "cbbccdd": 2033,
      "hahaha": 2034,
      "cbccddd": 2035,
      "edededededededed": 2036,
      "hhhff": 2037,
      "cbbaa": 2038,
      "cdddbb": 2039,
      "efdb": 2040,
      "gbhb": 2041,
      "ccbccbb": 2042,
      "cbbde": 2043,
      "cccedd": 2044,
      "ccdefff": 2045,
      "cddcccd": 2046,
      "ddde": 2047,
      "aabbbab": 2048,
      "gggghgf": 2049,
      "cge": 2050,
      "ggffgff": 2051,
      "cececece": 2052,
      "cdcf": 2053,
      "dab": 2054,
      "cdddded": 2055,
      "hhhggf": 2056,
      "ccccdb": 2057,
      "Ġaaaaaaaaaaaaaaaaaaaaaaaaaaaaaaaa": 2058,
      "ggggggfffff": 2059,
      "gggfdd": 2060,
      "eeffedd": 2061,
      "ccedf": 2062,
      "gghhhhf": 2063,
      "ggghhf": 2064,
      "ccdcbbb": 2065,
      "eedddddddd": 2066,
      "hhhhhgf": 2067,
      "ccaaa": 2068,
      "deggf": 2069,
      "dfee": 2070,
      "ggggghhhhhhh": 2071,
      "eeedff": 2072,
      "ggeeef": 2073,
      "ccccccccdd": 2074,
      "cbbc": 2075,
      "ggec": 2076,
      "cededd": 2077,
      "ggeeff": 2078,
      "gdgc": 2079,
      "gffffffffff": 2080,
      "ceddb": 2081,
      "eedeeff": 2082,
      "edcbbb": 2083,
      "geeeff": 2084,
      "gddb": 2085,
      "gfge": 2086,
      "cbcbbbbbb": 2087,
      "edededd": 2088,
      "cbbcccd": 2089,
      "Ġe": 2090,
      "ecbaab": 2091,
      "dbabb": 2092,
      "ccdddb": 2093,
      "ghhgggh": 2094,
      "aaaaaaaaaaaaaaaaaaaaab": 2095,
      "efffee": 2096,
      "cbbcccc": 2097,
      "ccddeef": 2098,
      "dffd": 2099,
      "ccdde": 2100,
      "cccbbab": 2101,
      "ghgggff": 2102,
      "hehd": 2103,
      "cccab": 2104,
      "cdefd": 2105,
      "cefe": 2106,
      "ggggghgh": 2107,
      "eeeeeeefff": 2108,
      "gceb": 2109,
      "geeb": 2110,
      "efffdd": 2111,
      "eedfd": 2112,
      "dfdd": 2113,
      "aaaaaaaaaabbbb": 2114,
      "ffffffffffffffffffffffffffffffff": 2115,
      "bbbbbbbbbbbbbbbbbbbbbbbbbbbbbbbbbbbbbbbbbbbbbbbbbbbbbbbbbbbbbbbb": 2116,
      "cdccccd": 2117,
      "gffedd": 2118,
      "eefffd": 2119,
      "eedddef": 2120,
      "eada": 2121,
      "aaaaaaaaaaaaaaaaaaaaaaaaaaaaaaaaaaaaaaaaaaaaaaaaaaaaaaaaaaaaaaaaaaaaaaaaaaaaaaaaaaaaaaaaaaaaaaaaaaaaaaaaaaaaaaaaaaaaaaaaaaaaaaaaaaaaaaaaaaaaaaaaaaaaaaaaaaaaaaaaaaaaaaaaaaaaaaaaaaaaaaaaaaaaaaaa": 2122,
      "cdffff": 2123,
      "eedcbbb": 2124,
      "cfdd": 2125,
      "cbbbbbbbbbbbbb": 2126,
      "ccdddf": 2127,
      "gede": 2128,
      "ceeeed": 2129,
      "aaacf": 2130,
      "eedcccd": 2131,
      "ccccef": 2132,
      "ggghhhhhhhhhhhhhh": 2133,
      "ggde": 2134,
      "gcfdeedfcgb": 2135,
      "eefggff": 2136,
      "ceddf": 2137,
      "aaabbab": 2138,
      "cabd": 2139,
      "cedfd": 2140,
      "ggdf": 2141,
      "cccccddddd": 2142,
      "gggggggggfff": 2143,
      "eeede": 2144,
      "ecedd": 2145,
      "ghhggggf": 2146,
      "ghhhhhggf": 2147,
      "efefeff": 2148,
      "eeeeeeeddd": 2149,
      "eedde": 2150,
      "hahahahahahb": 2151,
      "ghhhhhhhhhhhhhhhhhhhhhhhhhhhhhhhhhhhhhhhhhhhhhhhhhhhhhhhhhhhhhhhhhhhhhhhhhhhhhhhhhhhhhhhhhhhhhhhhhhhhhhhhhhhhhhhhhhhhhhhhhhhhhhhh": 2152,
      "eeffeff": 2153,
      "eededdd": 2154,
      "ccbbbab": 2155,
      "gbgbgcf": 2156,
      "ebdd": 2157,
      "gggggghhhhh": 2158,
      "cccccbbbbbb": 2159,
      "edfe": 2160,
      "bbbab": 2161,
      "ccefe": 2162,
      "eefeeef": 2163,
      "gdgdgd": 2164,
      "efgfed": 2165,
      "aaaaaaaaaaaaaaaabb": 2166,
      "ddbab": 2167,
      "hhhgff": 2168,
      "cbcccdd": 2169,
      "bbbbbbbbbbbbbbb": 2170,
      "eddddef": 2171,
      "eeeddddddd": 2172,
      "eeeeffffffff": 2173,
      "cdbaab": 2174,
      "gghggh": 2175,
      "ggghhhhhhhhhhhhh": 2176,
      "ghgee": 2177,
      "ccbbccd": 2178,
      "ghggghh": 2179,
      "eefffffffff": 2180,
      "eefefff": 2181,
      "aaaabbbbbbb": 2182,
      "abbabb": 2183,
      "cddeeed": 2184,
      "ccddeff": 2185,
      "gggggfed": 2186,
      "cfge": 2187,
      "Ġffff": 2188,
      "ggede": 2189,
      "aaaad": 2190,
      "ccefed": 2191,
      "gefeff": 2192,
      "gcef": 2193,
      "eec": 2194,
      "ceffd": 2195,
      "gggfgfgf": 2196,
      "aaaba": 2197,
      "gggghf": 2198,
      "ccbba": 2199,
      "ggggggggffff": 2200,
      "eeefe": 2201,
      "eeeeeddddd": 2202,
      "ghhhgd": 2203,
      "ccddccd": 2204,
      "eedbbb": 2205,
      "cdeffff": 2206,
      "cdddccd": 2207,
      "cede": 2208,
      "aaf": 2209,
      "cehh": 2210,
      "cbaaaaaaab": 2211,
      "ghd": 2212,
      "gahahb": 2213,
      "ghgghhh": 2214,
      "cgcgc": 2215,
      "cac": 2216,
      "ghhhhhhhgf": 2217,
      "cbbbbaab": 2218,
      "aaabbaab": 2219,
      "dfde": 2220,
      "hggff": 2221,
      "efdff": 2222,
      "ggfgfgf": 2223,
      "eeeb": 2224,
      "gghge": 2225,
      "eeeddef": 2226,
      "eeffe": 2227,
      "gahahahb": 2228,
      "cbbcdf": 2229,
      "dbdbd": 2230,
      "bbbbab": 2231,
      "cccddb": 2232,
      "dedff": 2233,
      "gffgggf": 2234,
      "ghggg": 2235,
      "bbf": 2236,
      "dbcd": 2237,
      "ggggef": 2238,
      "cbabd": 2239,
      "cbcbcbb": 2240,
      "gded": 2241,
      "gegegf": 2242,
      "ahahahahahahahah": 2243,
      "cbbbaaab": 2244,
      "eegggf": 2245,
      "ccccc": 2246,
      "eeecd": 2247,
      "cfa": 2248,
      "cecfb": 2249,
      "aaaaaaaabbbbb": 2250,
      "eddfff": 2251,
      "eefeedd": 2252,
      "ghhgef": 2253,
      "cbbbbbab": 2254,
      "cdedbb": 2255,
      "eeeefed": 2256,
      "ccedb": 2257,
      "aaaaaabbbbbb": 2258,
      "gdfb": 2259,
      "gghhhhhhhhhhhhhhhhhh": 2260,
      "cbbf": 2261,
      "ggggfgff": 2262,
      "gchb": 2263,
      "ccecd": 2264,
      "cccdcccd": 2265,
      "gggggggggggh": 2266,
      "gdef": 2267,
      "cbbaaaaab": 2268,
      "cceddd": 2269,
      "Ġdddd": 2270,
      "hdf": 2271,
      "cccddddddd": 2272,
      "ebaaab": 2273,
      "aabbbbbbbbb": 2274,
      "gggge": 2275,
      "eeedeff": 2276,
      "cfde": 2277,
      "cbbbbcd": 2278,
      "Ġaab": 2279,
      "gggggggghhh": 2280,
      "eefffgf": 2281,
      "cddccdd": 2282,
      "ccbabbb": 2283,
      "egfed": 2284,
      "ghghhhhhh": 2285,
      "cddeddd": 2286,
      "gafb": 2287,
      "fbfbfb": 2288,
      "ddfd": 2289,
      "ghfff": 2290,
      "ghhfe": 2291,
      "cbdef": 2292,
      "eecbbb": 2293,
      "ggggghhhhhhhh": 2294,
      "gggggggggggff": 2295,
      "ggffeef": 2296,
      "gfffe": 2297,
      "aaaaaaaaaaaaaaaaaaaaaaaab": 2298,
      "gedbb": 2299,
      "hfd": 2300,
      "hhhhhhf": 2301,
      "eecccd": 2302,
      "cbcee": 2303,
      "dbbd": 2304,
      "ccbbbbbbbbbbbb": 2305,
      "cbbbccbb": 2306,
      "ebebeb": 2307,
      "cccddef": 2308,
      "hcgdf": 2309,
      "ghhhhhhhf": 2310,
      "eeddeed": 2311,
      "cacb": 2312,
      "ghggggh": 2313,
      "ccddcd": 2314,
      "Ġa": 2315,
      "aaaaaaaaaaaaaaa": 2316,
      "cbbaaa": 2317,
      "eeffeed": 2318,
      "cddfff": 2319,
      "ccbce": 2320,
      "gegege": 2321,
      "caaaabb": 2322,
      "baa": 2323,
      "ccfgf": 2324,
      "edfdfdf": 2325,
      "cbded": 2326,
      "caaaaaaab": 2327,
      "ccbcbd": 2328,
      "ghhhggff": 2329,
      "hhhge": 2330,
      "eddefff": 2331,
      "hhfd": 2332,
      "cefggf": 2333,
      "eeeedddddd": 2334,
      "cccbbbbbbbbbb": 2335,
      "cbbccbbb": 2336,
      "gggffggf": 2337,
      "eeeffffffff": 2338,
      "effggff": 2339,
      "eeedded": 2340,
      "aaaaaaaaaaaaaaaaaaaaaaaaaaab": 2341,
      "efeffff": 2342,
      "ghhgghhh": 2343,
      "cbcde": 2344,
      "ghgggggf": 2345,
      "fbgb": 2346,
      "ggggggghhhh": 2347,
      "ghhhg": 2348,
      "ggghgff": 2349,
      "cdccccb": 2350,
      "cecedd": 2351,
      "aabbaaab": 2352,
      "ghhhgggf": 2353,
      "eedfcgb": 2354,
      "cddde": 2355,
      "ddfgf": 2356,
      "ccccccccbb": 2357,
      "ggghhhgf": 2358,
      "gggggffffff": 2359,
      "cbbcc": 2360,
      "ggggggggggh": 2361,
      "gfedef": 2362,
      "cbaaabbb": 2363,
      "ababbbbbb": 2364,
      "ggegf": 2365,
      "eeedbb": 2366,
      "ccdccdd": 2367,
      "gfgef": 2368,
      "aabbd": 2369,
      "eedfff": 2370,
      "ggggggggggggggf": 2371,
      "cbdbb": 2372,
      "hghh": 2373,
      "ghhhfd": 2374,
      "ceeeef": 2375,
      "aaba": 2376,
      "ccdcccc": 2377,
      "ababababab": 2378,
      "eeeggf": 2379,
      "ghhhhhhhhhhhhhhhhhhhhhhhhhhh": 2380,
      "cbcded": 2381,
      "effeeef": 2382,
      "dcdff": 2383,
      "ggggged": 2384,
      "cccdccb": 2385,
      "ccdcdb": 2386,
      "cadb": 2387,
      "edccb": 2388,
      "hdhchc": 2389,
      "cbbba": 2390,
      "cccdbb": 2391,
      "cghh": 2392,
      "ghgfef": 2393,
      "gggggggggggggf": 2394,
      "ghhhhge": 2395,
      "cdfe": 2396,
      "dbcf": 2397,
      "cg": 2398,
      "cdeeedd": 2399,
      "cgg": 2400,
      "cccdedd": 2401,
      "eedccb": 2402,
      "eedccdd": 2403,
      "hdhdhe": 2404,
      "effffd": 2405,
      "cccdee": 2406,
      "edbd": 2407,
      "cbbddd": 2408,
      "cebd": 2409,
      "eeddeef": 2410,
      "aabaaab": 2411,
      "gehf": 2412,
      "Ġdf": 2413,
      "edfed": 2414,
      "Ġfd": 2415,
      "edddcdd": 2416,
      "ccbbaaab": 2417,
      "Ġggf": 2418,
      "Ġbbbbb": 2419,
      "cdcdddddd": 2420,
      "gfdbbb": 2421,
      "geefff": 2422,
      "edddee": 2423,
      "cccbcdd": 2424,
      "eeeeeeeeff": 2425,
      "ggggfe": 2426,
      "caabbb": 2427,
      "abbbbbbbbbbbb": 2428,
      "ghfb": 2429,
      "ecded": 2430,
      "ggffgggf": 2431,
      "aabbabb": 2432,
      "ghgge": 2433,
      "eeedcd": 2434,
      "dbaaaab": 2435,
      "Ġaaaaaaaaaaaaaaaaaaaaaaaaaaaaaaaaaaaaaaaaaaaaaaaaaaaaaaaaaaaaaaaa": 2436,
      "aadf": 2437,
      "gedff": 2438,
      "ccecb": 2439,
      "gghhhhhf": 2440,
      "gahahahahaha": 2441,
      "cbbbbbbbbbbbbbb": 2442,
      "ghgdb": 2443,
      "cdeb": 2444,
      "cccbcbb": 2445,
      "ccdeeff": 2446,
      "ccbaaa": 2447,
      "bbdf": 2448,
      "ddddb": 2449,
      "ggggffef": 2450,
      "efffefff": 2451,
      "efffffffffff": 2452,
      "ggfffed": 2453,
      "ggffee": 2454,
      "dededd": 2455,
      "aaaaaaaaaaaaaabbb": 2456,
      "cege": 2457,
      "gfggh": 2458,
      "fbfbf": 2459,
      "ggfffef": 2460,
      "edbaab": 2461,
      "eeefgff": 2462,
      "ghfh": 2463,
      "gghhhgff": 2464,
      "Ġhhhhh": 2465,
      "eeeedef": 2466,
      "gggfgfff": 2467,
      "ebe": 2468,
      "gfhf": 2469,
      "cfgg": 2470,
      "cbbbdf": 2471,
      "dcaab": 2472,
      "edfde": 2473,
      "ccddded": 2474,
      "effeeff": 2475,
      "ccddcbb": 2476,
      "dbbab": 2477,
      "ffb": 2478,
      "gggghhhhhhhhhh": 2479,
      "cbaaaaa": 2480,
      "cbcff": 2481,
      "aaaaaaaaaaaaabbb": 2482,
      "cddddb": 2483,
      "ccbcddd": 2484,
      "ggghhhf": 2485,
      "cddeeff": 2486,
      "eddeedd": 2487,
      "defed": 2488,
      "ccccbbbbbbbb": 2489,
      "eeeeeeeeed": 2490,
      "aaaaaaabbbbbb": 2491,
      "ghhhhhhhhhhhhhhhhhhhhhhhhhhhhh": 2492,
      "cccdccd": 2493,
      "eddecfb": 2494,
      "ebea": 2495,
      "dddeff": 2496,
      "gggecb": 2497,
      "edddddddddd": 2498,
      "ghghhhhhhhh": 2499,
      "efge": 2500,
      "gfdff": 2501,
      "ghhgfe": 2502,
      "ccccccbbbbb": 2503,
      "eeefeef": 2504,
      "ccddcdd": 2505,
      "hgggf": 2506,
      "fffe": 2507,
      "cgcf": 2508,
      "ceeeff": 2509,
      "cedee": 2510,
      "ccccdddddd": 2511,
      "gcab": 2512,
      "gggffeff": 2513,
      "ehhhh": 2514,
      "gggeed": 2515,
      "gghgghh": 2516,
      "aaaaabd": 2517,
      "dbaaa": 2518,
      "cggf": 2519,
      "chh": 2520,
      "eeefefef": 2521,
      "ccdeee": 2522,
      "cbbbcbbbb": 2523,
      "ghhhgghh": 2524,
      "ccddeed": 2525,
      "egfgff": 2526,
      "gghhhhhhhhhhhhhhhhhhhh": 2527,
      "cbef": 2528,
      "gggggef": 2529,
      "aaaabaaab": 2530,
      "bbbbd": 2531,
      "cdefgf": 2532,
      "gebab": 2533,
      "gfffgggf": 2534,
      "gghhhhhgf": 2535,
      "fagagaga": 2536,
      "eeeefffffff": 2537,
      "ggeddd": 2538,
      "ccbaaabb": 2539,
      "hdgd": 2540,
      "ccefgf": 2541,
      "ggffeed": 2542,
      "ccccdcd": 2543,
      "eeeffef": 2544,
      "gghhhhhhhhhhhhhhhhhhhhhhhhhhhhhhhhhhhhhhhh": 2545,
      "aaabbbab": 2546,
      "cccdeef": 2547,
      "bbbcd": 2548,
      "ecde": 2549,
      "cbcdb": 2550,
      "cfee": 2551,
      "cddccbb": 2552,
      "bbaab": 2553,
      "cccbabb": 2554,
      "ccca": 2555,
      "ccdeddd": 2556,
      "aaaaabbbbbbb": 2557,
      "edddb": 2558,
      "cfcfd": 2559,
      "abbbbab": 2560,
      "ggggffffffff": 2561,
      "hchbhb": 2562,
      "dedef": 2563,
      "aaaaaaaaaaabbbb": 2564,
      "ghggggff": 2565,
      "ccdfd": 2566,
      "bbbbbbbbbbbbbbbbb": 2567,
      "ecaa": 2568,
      "edfff": 2569,
      "aaaaaabab": 2570,
      "cddeedd": 2571,
      "cbaaaaabb": 2572,
      "ggggggggggfff": 2573,
      "ghhhhhgff": 2574,
      "eeffgggf": 2575,
      "ccbbbbab": 2576,
      "gggghhhhhhhhh": 2577,
      "eddccbb": 2578,
      "ggefff": 2579,
      "eeedeed": 2580,
      "ghhhghh": 2581,
      "gggggggfffff": 2582,
      "Ġhhhhhhhhhhhhhhhhhhhhhhhh": 2583,
      "dfgff": 2584,
      "cccbcbbb": 2585,
      "geded": 2586,
      "cdddff": 2587,
      "ceghh": 2588,
      "gagb": 2589,
      "abbcbb": 2590,
      "ggggggghgh": 2591,
      "cedef": 2592,
      "ccccbd": 2593,
      "gfdcd": 2594,
      "ggffdd": 2595,
      "ggggggggggggh": 2596,
      "ccccccccccd": 2597,
      "gghghhhh": 2598,
      "dbdbdbdb": 2599,
      "eab": 2600,
      "ggggfggf": 2601,
      "cccced": 2602,
      "ccbbbcd": 2603,
      "eddcb": 2604,
      "gggggghhhhhh": 2605,
      "ggghhhhhhhhhhhhhhhhhhhhhhhhhhhhhhhh": 2606,
      "cegff": 2607,
      "gegdgd": 2608,
      "ggggfgfgf": 2609,
      "dfeff": 2610,
      "gfffeff": 2611,
      "cecbb": 2612,
      "eghhhh": 2613,
      "eeffdd": 2614,
      "eeefee": 2615,
      "ccccccccddd": 2616,
      "efdef": 2617,
      "ceccb": 2618,
      "gefgf": 2619,
      "eddccdd": 2620,
      "abbbbbbbbbbbbb": 2621,
      "efefe": 2622,
      "cdffd": 2623,
      "ceh": 2624,
      "dfge": 2625,
      "eeffee": 2626,
      "eeeeeeeedd": 2627,
      "ccbbdd": 2628,
      "ggedb": 2629,
      "gggfeed": 2630,
      "gbfcf": 2631,
      "abacaca": 2632,
      "eeedccd": 2633,
      "ggfffffffff": 2634,
      "cccbbd": 2635,
      "cefffff": 2636,
      "cbdcd": 2637,
      "cefef": 2638,
      "cccccdef": 2639,
      "geeeef": 2640,
      "dfhhh": 2641,
      "ebcb": 2642,
      "ceffed": 2643,
      "gghgfff": 2644,
      "dadada": 2645,
      "ggggggggggggff": 2646,
      "ggghhggf": 2647,
      "eeeffd": 2648,
      "cbbcbbbb": 2649,
      "gffefff": 2650,
      "eddbbb": 2651,
      "dddee": 2652,
      "ecaaab": 2653,
      "ecdcdd": 2654,
      "ccbbabbb": 2655,
      "dfdfdfdf": 2656,
      "cbcbcbbbb": 2657,
      "ghfgf": 2658,
      "ghhhhhhggf": 2659,
      "gghggfff": 2660,
      "edfggf": 2661,
      "cfbf": 2662,
      "dcbaab": 2663,
      "ghgffff": 2664,
      "dbdd": 2665,
      "ggggfffffff": 2666,
      "cbcdff": 2667,
      "ggghhhhhhhhhhhhhhh": 2668,
      "dddcd": 2669,
      "eceff": 2670,
      "cbbabab": 2671,
      "aaacd": 2672,
      "ggedef": 2673,
      "gggdd": 2674,
      "abbaaab": 2675,
      "Ġhhhhhh": 2676,
      "eeeeedddddd": 2677,
      "eeedeeed": 2678,
      "aaabbaaab": 2679,
      "gggfffgf": 2680,
      "eddcdcd": 2681,
      "cceggf": 2682,
      "aaaaaaaaaaaaaaaaaabb": 2683,
      "cbbbbbd": 2684,
      "aaaaaaaaabbbbb": 2685,
      "cbbaabbb": 2686,
      "hef": 2687,
      "cceeee": 2688,
      "cecb": 2689,
      "cccdcdcd": 2690,
      "effgfgf": 2691,
      "dbdf": 2692,
      "aaaaaaaaaaaaaaaaaaaaaaaaab": 2693,
      "cebf": 2694,
      "gggggfef": 2695,
      "cegggf": 2696,
      "eghf": 2697,
      "cbcbcbbb": 2698,
      "hfb": 2699,
      "gcgbgb": 2700,
      "gfffffffffff": 2701,
      "hfhfhf": 2702,
      "eeeeeffffff": 2703,
      "ghhhhff": 2704,
      "ggggghgf": 2705,
      "gghhhhggf": 2706,
      "eeddccd": 2707,
      "ghhhhhhhhhhhhhhhhhhhhhhhhh": 2708,
      "eddeeff": 2709,
      "geeddd": 2710,
      "ededf": 2711,
      "gaf": 2712,
      "eddcccc": 2713,
      "ccbbccb": 2714,
      "ecba": 2715,
      "eddedf": 2716,
      "ghhhhhhhhhhhhhhhhhhhhhhhhhhhhhhh": 2717,
      "gghhhhhhhhhhhhhhhhh": 2718,
      "ccdfgf": 2719,
      "cbbbcccb": 2720,
      "hhhgd": 2721,
      "gfffgfff": 2722,
      "ggghhhhhhhhhhhhhhhhhhhhhhhhhhhhhhhhhhhhhhhhhhhhhhhhhhhhhhhhhhhhhhhh": 2723,
      "ghghggf": 2724,
      "aaaabaab": 2725,
      "eeeefgf": 2726,
      "ggggfeef": 2727,
      "fffdd": 2728,
      "cbbced": 2729,
      "ccbbbccd": 2730,
      "cbcccbbb": 2731,
      "efefdf": 2732,
      "eeeddb": 2733,
      "cbbbbcdd": 2734,
      "efgfef": 2735,
      "ggggghggf": 2736,
      "cdegf": 2737,
      "cbbbccdd": 2738,
      "ffdd": 2739,
      "ededb": 2740,
      "gghhhhhhhhhhhhhhhhhhh": 2741,
      "edddeddd": 2742,
      "ghhhgfd": 2743,
      "ghhhghhhh": 2744,
      "eceef": 2745,
      "gggffe": 2746,
      "gffffed": 2747,
      "aaaaaaaaaaaaaaaaabb": 2748,
      "cccbbabb": 2749,
      "cdddeff": 2750,
      "cccccdf": 2751,
      "ccbdf": 2752,
      "aaaababb": 2753,
      "cegh": 2754,
      "eegd": 2755,
      "gcfcf": 2756,
      "cabaab": 2757,
      "gcfdeed": 2758,
      "gggghhhhhhhhhhhhhhhhhhhhhhhh": 2759,
      "cdgf": 2760,
      "ccbbccbb": 2761,
      "cbbbabbb": 2762,
      "aaabbbbbbbbb": 2763,
      "cdba": 2764,
      "eeefedd": 2765,
      "eeedcdd": 2766,
      "gecbb": 2767,
      "eeddedd": 2768,
      "aaaaaaaaaaaaaaaaaaaaaaaaaaaaaaab": 2769,
      "dgf": 2770,
      "cbbbbccd": 2771,
      "ccddee": 2772,
      "dede": 2773,
      "cdddcddd": 2774,
      "gefde": 2775,
      "aabdd": 2776,
      "cccce": 2777,
      "egfh": 2778,
      "dddeef": 2779,
      "edddccd": 2780,
      "ccdddef": 2781,
      "ebebdb": 2782,
      "gghgfd": 2783,
      "ccbaaaaab": 2784,
      "ggfffggf": 2785,
      "gegegege": 2786,
      "ggggfgggf": 2787,
      "ggffedd": 2788,
      "bbcf": 2789,
      "eeefdd": 2790,
      "cefdd": 2791,
      "decbb": 2792,
      "cda": 2793,
      "bbbdd": 2794,
      "ffgff": 2795,
      "Ġhhhhhhhh": 2796,
      "ecbabb": 2797,
      "eeddee": 2798,
      "cdbcbcb": 2799,
      "hhhhhhgf": 2800,
      "gedddd": 2801,
      "fef": 2802,
      "ghhhgfff": 2803,
      "caaaaaa": 2804,
      "cccccbbbbbbb": 2805,
      "ccccdcdd": 2806,
      "hgfd": 2807,
      "cgbgbgbgb": 2808,
      "eedefff": 2809,
      "cababab": 2810,
      "ccaaaab": 2811,
      "decb": 2812,
      "ccbcdf": 2813,
      "dad": 2814,
      "ccede": 2815,
      "effefff": 2816,
      "ghhhhhhhhhhhhhhhhhhhhhhhhhh": 2817,
      "eeegff": 2818,
      "hhhfd": 2819,
      "cccccccccdd": 2820,
      "gafa": 2821,
      "cccccded": 2822,
      "cccccdddddd": 2823,
      "caaaaaaaab": 2824,
      "ccbbbabb": 2825,
      "ghggghhh": 2826,
      "cefgff": 2827,
      "cfgd": 2828,
      "cceeef": 2829,
      "cdeeddd": 2830,
      "aaaaaaaaaaaaaaaaaaaaaaaaaab": 2831,
      "Ġgff": 2832,
      "edcccd": 2833,
      "ccceee": 2834,
      "cdddeef": 2835,
      "aaabbd": 2836,
      "eeededed": 2837,
      "ghhhged": 2838,
      "ededdd": 2839,
      "ghghghghghgh": 2840,
      "bbdd": 2841,
      "efffffd": 2842,
      "cbcbcbcbcbcbcbcb": 2843,
      "eeeeeeeeef": 2844,
      "effffgff": 2845,
      "cfcgb": 2846,
      "cbaabbbb": 2847,
      "cddddef": 2848,
      "chb": 2849,
      "ccccbab": 2850,
      "heh": 2851,
      "ghhghf": 2852,
      "ghhghhhh": 2853,
      "fbeb": 2854,
      "cbbaaaaaab": 2855,
      "abababbb": 2856,
      "gghhhhhgh": 2857,
      "ggffggff": 2858,
      "aaaaaaaaaaaabbbb": 2859,
      "cbcdef": 2860,
      "deeb": 2861,
      "ffffgf": 2862,
      "gghhhhhhhhhhhhhhhhhhhhh": 2863,
      "cegfd": 2864,
      "hfhghgh": 2865,
      "gggggghhhhhhh": 2866,
      "cdddedd": 2867,
      "Ġde": 2868,
      "eedeedd": 2869,
      "ffggf": 2870,
      "cdfef": 2871,
      "ggggggghhhhh": 2872,
      "gggggggggffff": 2873,
      "cceded": 2874,
      "eddddb": 2875,
      "caaabbb": 2876,
      "ccbbbbbbbbbbbbb": 2877,
      "egge": 2878,
      "ghhhhhhhhf": 2879,
      "gcc": 2880,
      "cbaaaaaaaab": 2881,
      "eefgfff": 2882,
      "cbbcccbb": 2883,
      "cededed": 2884,
      "ccccccccbbb": 2885,
      "ggfffgff": 2886,
      "efffgggf": 2887,
      "ggghggff": 2888,
      "gchchc": 2889,
      "hahahahaha": 2890,
      "edfeff": 2891,
      "eeecdd": 2892,
      "abbbaaab": 2893,
      "fffffffffff": 2894,
      "efffffgf": 2895,
      "gggggggggggggggggggggggggggg": 2896,
      "aabbbaab": 2897,
      "ggggd": 2898,
      "Ġcd": 2899,
      "hdhdhd": 2900,
      "cdfb": 2901,
      "ccccdff": 2902,
      "eghgf": 2903,
      "cbbbcccd": 2904,
      "eeghh": 2905,
      "cbcbccd": 2906,
      "cbbdff": 2907,
      "dfdb": 2908,
      "hehf": 2909,
      "eedfdf": 2910,
      "edeeed": 2911,
      "cccbdb": 2912,
      "cbbbaabb": 2913,
      "cdddcccd": 2914,
      "eeeeeefffff": 2915,
      "cccbaaab": 2916,
      "eece": 2917,
      "aaaabbbbbbbb": 2918,
      "ghhhhhhhhgf": 2919,
      "aaaaaaaaaaaaaaaaaaaabb": 2920,
      "effeddd": 2921,
      "aaace": 2922,
      "ghgeef": 2923,
      "ccbbcbb": 2924,
      "ddcccd": 2925,
      "effffggf": 2926,
      "cccefff": 2927,
      "eedfb": 2928,
      "gggggggggggggggggggggggggggggggggggggggggggggggggggggggggggggggg": 2929,
      "cdcbab": 2930,
      "hhhhhhhhhhhhhhhhhh": 2931,
      "ccbddd": 2932,
      "gggffgff": 2933,
      "efedef": 2934,
      "ghhhgghhh": 2935,
      "cbbbbbabb": 2936,
      "ffffd": 2937,
      "ecddceb": 2938,
      "eeeccd": 2939,
      "cccccccccccd": 2940,
      "ghhhggh": 2941,
      "cabbbbb": 2942,
      "ceefd": 2943,
      "fhhh": 2944,
      "gdde": 2945,
      "eadb": 2946,
      "hged": 2947,
      "cdddeed": 2948,
      "cdddcbb": 2949,
      "Ġeff": 2950,
      "aabbbbbbbbbb": 2951,
      "ceddddd": 2952,
      "caad": 2953,
      "ccbcccbb": 2954,
      "ghhhgg": 2955,
      "ggghgggf": 2956,
      "cccbcccb": 2957,
      "ffffef": 2958,
      "ddbd": 2959,
      "cbcab": 2960,
      "Ġaaab": 2961,
      "eeefgggf": 2962,
      "eccf": 2963,
      "ddccbb": 2964,
      "ddddef": 2965,
      "aaaaba": 2966,
      "eedede": 2967,
      "edeeff": 2968,
      "cddfd": 2969,
      "gcfdf": 2970,
      "abba": 2971,
      "gdgf": 2972,
      "cddbab": 2973,
      "egfef": 2974,
      "dbaabb": 2975,
      "cccaab": 2976,
      "ecbcd": 2977,
      "cbbbce": 2978,
      "cdcddf": 2979,
      "ccbccccd": 2980,
      "ccddcccd": 2981,
      "cccbbbbbbbbbbb": 2982,
      "hfhfhgh": 2983,
      "edddeeed": 2984,
      "cdeggf": 2985,
      "eecc": 2986,
      "cdfgff": 2987,
      "ggghhgff": 2988,
      "cddcbbbb": 2989,
      "cgdf": 2990,
      "gahahahaha": 2991,
      "effeedd": 2992,
      "gghhhhhhhhhhhhhhhhhhhhhh": 2993,
      "cbcbcbd": 2994,
      "ccdccbbb": 2995,
      "cbcdddd": 2996,
      "abbba": 2997,
      "eeefefff": 2998,
      "gggggghhhhhhhh": 2999,
      "hhd": 3000,
      "dbce": 3001,
      "eefeeff": 3002,
      "eeecbb": 3003,
      "decf": 3004,
      "ggfgfff": 3005,
      "dbba": 3006,
      "ghgdd": 3007,
      "ebaaa": 3008,
      "dddddddddddddddddddddddddddddddddddddddddddddddddddddddddddddddd": 3009,
      "dfgg": 3010,
      "gghghhhhh": 3011,
      "cefee": 3012,
      "ggghgggh": 3013,
      "efffffef": 3014,
      "ccceeed": 3015,
      "cecedf": 3016,
      "caaaaabb": 3017,
      "edeggf": 3018,
      "eddcbbb": 3019,
      "gghhgggf": 3020,
      "ecbaaab": 3021,
      "cceeedd": 3022,
      "aaaaaaaaaabbbbb": 3023,
      "gchbhb": 3024,
      "Ġee": 3025,
      "cedbbb": 3026,
      "cfhhhh": 3027,
      "cbbaaaabb": 3028,
      "Ġaaaaaaaaaaaaaaaa": 3029,
      "edfdd": 3030,
      "dcba": 3031,
      "gggggfgff": 3032,
      "gghgggff": 3033,
      "ddddddddddddd": 3034,
      "ghgfgf": 3035,
      "gghghgggg": 3036,
      "ghhhgggg": 3037,
      "gdbbb": 3038,
      "eeddbb": 3039,
      "gghhge": 3040,
      "Ġhhhhhhh": 3041,
      "gggghhhhhhhhhhh": 3042,
      "ggggfeff": 3043,
      "edccdd": 3044,
      "cbbded": 3045,
      "abbbabbb": 3046,
      "gffffd": 3047,
      "hcf": 3048,
      "eddeddd": 3049,
      "bbbbbbbbbbbbbbbbbb": 3050,
      "gahahahahahb": 3051,
      "cccccccccccccccccccccccc": 3052,
      "ccbcbbbbb": 3053,
      "cccccef": 3054,
      "cdbaa": 3055,
      "gffge": 3056,
      "gggghhgf": 3057,
      "aaaaaaaaaaaaaaaaaaaaaaaaaaaaab": 3058,
      "cdeeeed": 3059,
      "ecfd": 3060,
      "eeedee": 3061,
      "eedccbb": 3062,
      "gba": 3063,
      "ecce": 3064,
      "gdgcgc": 3065,
      "gghhggff": 3066,
      "cdbdbdb": 3067,
      "ccbcef": 3068,
      "eeffgfff": 3069,
      "eeefeeef": 3070,
      "eebbb": 3071,
      "dfded": 3072,
      "eebab": 3073,
      "aaaaaaaabab": 3074,
      "eeddcccd": 3075,
      "aabdf": 3076,
      "eefefd": 3077,
      "ghhhgggh": 3078,
      "cccbdd": 3079,
      "ccbbbcdd": 3080,
      "eefffeff": 3081,
      "aaaaaaaaaaaaaaaaaaaaaaaaaaaaaaaaaaaaaaaaaaaa": 3082,
      "efebb": 3083,
      "hdhc": 3084,
      "ccddcb": 3085,
      "gfgfgfgfgf": 3086,
      "hahahaha": 3087,
      "aaaaaaaaaaaaaaaaaaaaaaaaaaaaaaaaaaaaaaaaaaaaaaaaaaaaaaaaaaaaaaaaaaaaaaaaaaaaaaaaaaaaaaaaaaaaaaaaaaaaaaaaaaaaaaaa": 3088,
      "geffd": 3089,
      "cdcbbbbb": 3090,
      "efefed": 3091,
      "hgef": 3092,
      "dbc": 3093,
      "ggfffd": 3094,
      "ccccbccd": 3095,
      "aaaaaaabab": 3096,
      "hhgef": 3097,
      "cccccccdddd": 3098,
      "ggggffed": 3099,
      "ababaca": 3100,
      "cdcdef": 3101,
      "cecfd": 3102,
      "ecbbd": 3103,
      "hhfe": 3104,
      "cebebeb": 3105,
      "ghghhhhhhh": 3106,
      "abababababab": 3107,
      "ghhhhhhhhhgf": 3108,
      "eedcddd": 3109,
      "cccbccdd": 3110,
      "eefeeed": 3111,
      "cecddd": 3112,
      "gfgfgfff": 3113,
      "aaaaababb": 3114,
      "fbfcf": 3115,
      "ccccddf": 3116,
      "cbbcbcb": 3117,
      "geefd": 3118,
      "ccccccc": 3119,
      "ggghghf": 3120,
      "eeeeedf": 3121,
      "eeeeeeded": 3122,
      "ghhggghh": 3123,
      "hhhhggf": 3124,
      "aaaaaaaaaaaaaaaaaaaaaaaaaaaab": 3125,
      "ghggggggf": 3126,
      "ccbbcb": 3127,
      "aaaaad": 3128,
      "ededef": 3129,
      "ccedcb": 3130,
      "eddcccdd": 3131,
      "cdcccbb": 3132,
      "eegg": 3133,
      "efffeedd": 3134,
      "cfgfd": 3135,
      "gfgfggf": 3136,
      "ccaabb": 3137,
      "cbbbccbbb": 3138,
      "ededff": 3139,
      "cbbbcddd": 3140,
      "efffeeff": 3141,
      "gghhhhhhhhhhhhhhhhhhhhhhh": 3142,
      "eggggf": 3143,
      "Ġabb": 3144,
      "cccccccbcb": 3145,
      "cedfe": 3146,
      "ffffed": 3147,
      "eeecb": 3148,
      "hgfe": 3149,
      "geffgf": 3150,
      "eege": 3151,
      "cbbbbcb": 3152,
      "ccbbaabb": 3153,
      "cddcddd": 3154,
      "ceedbb": 3155,
      "ceegf": 3156,
      "effggggf": 3157,
      "eddfgf": 3158,
      "aae": 3159,
      "eeeeeefef": 3160,
      "ghhfff": 3161,
      "edddeeff": 3162,
      "ebbd": 3163,
      "ccccbbbbbbbbb": 3164,
      "ebabb": 3165,
      "hahbhb": 3166,
      "ceedddd": 3167,
      "ccdbd": 3168,
      "aaaaaaaaaaaaaaaaaaaa": 3169,
      "cccdcbb": 3170,
      "ccbccbbb": 3171,
      "dffed": 3172,
      "cfgff": 3173,
      "cbbbcbcb": 3174,
      "cefdb": 3175,
      "eeeeefed": 3176,
      "cdbeb": 3177,
      "ggfeeff": 3178,
      "effgggff": 3179,
      "efffeeef": 3180,
      "Ġbbbbbb": 3181,
      "ccccce": 3182,
      "cbbbbaaab": 3183,
      "ghhgfef": 3184,
      "edede": 3185,
      "gghgggggf": 3186,
      "gfffffef": 3187,
      "eeeffgff": 3188,
      "eeefdf": 3189,
      "ababaaab": 3190,
      "ghhhghgh": 3191,
      "effddd": 3192,
      "gefdd": 3193,
      "eeddddddddd": 3194,
      "ggggffgf": 3195,
      "gca": 3196,
      "gfffeef": 3197,
      "gghhff": 3198,
      "gdbab": 3199,
      "eecf": 3200,
      "ccbccddd": 3201,
      "ccdcccdd": 3202,
      "ggeedd": 3203,
      "cbed": 3204,
      "cababbb": 3205,
      "faeb": 3206,
      "cdccddd": 3207,
      "cdeefff": 3208,
      "ggfde": 3209,
      "efhhh": 3210,
      "ccbaabbb": 3211,
      "gghggggh": 3212,
      "ggggghf": 3213,
      "cceffff": 3214,
      "cbbabbbbb": 3215,
      "eddddddddddd": 3216,
      "gggfffffffff": 3217,
      "cdcbaab": 3218,
      "ghhgee": 3219,
      "ddc": 3220,
      "edfefef": 3221,
      "aaaaaaaabbbbbb": 3222,
      "Ġhhhhhhhhhhhhhhhhhhhhhhhhhhhhhhhh": 3223,
      "dcaa": 3224,
      "cdedddd": 3225,
      "cdffed": 3226,
      "fffee": 3227,
      "ddbbbb": 3228,
      "cehhh": 3229,
      "ghhgfed": 3230,
      "gggffgggf": 3231,
      "aaaaaaaaaaaaaaaaaaabb": 3232,
      "cbbbcef": 3233,
      "ghhhhhhhhhhhhhhhhhhhhhhhhhhhh": 3234,
      "efeeed": 3235,
      "ccdbdb": 3236,
      "eeedddddddd": 3237,
      "bbbbbbbbbbbbbbbbbbb": 3238,
      "gedde": 3239,
      "ddefff": 3240,
      "dfgggf": 3241,
      "cccba": 3242,
      "eedddff": 3243,
      "efege": 3244,
      "cbcce": 3245,
      "eedeeef": 3246,
      "ceggg": 3247,
      "efffffed": 3248,
      "gggggggggggfff": 3249,
      "cccdcddd": 3250,
      "cddefff": 3251,
      "cfdeedf": 3252,
      "ggggfee": 3253,
      "cbeb": 3254,
      "ggggggffffff": 3255,
      "ghgedd": 3256,
      "eefeffff": 3257,
      "caabd": 3258,
      "gghhhhhhgf": 3259,
      "ghgghhhh": 3260,
      "gggggggghhhh": 3261,
      "cecfcf": 3262,
      "gghghggf": 3263,
      "aaaaaaaaaaaaaaabbb": 3264,
      "hhhhhhhhhhhhhhhhhhhh": 3265,
      "eeeefeff": 3266,
      "cedeed": 3267,
      "cbbbcdf": 3268,
      "ggghhhggf": 3269,
      "hgggh": 3270,
      "ggggghhhhhhhhh": 3271,
      "ddbaab": 3272,
      "edba": 3273,
      "gggghhhhhhhhhhhh": 3274,
      "cbcbbbbbbb": 3275,
      "cddeee": 3276,
      "dddeed": 3277,
      "ghgeb": 3278,
      "Ġeef": 3279,
      "cdccbbbb": 3280,
      "Ġfe": 3281,
      "efded": 3282,
      "eeccbb": 3283,
      "ecdbb": 3284,
      "Ġded": 3285,
      "ccbcf": 3286,
      "ebcf": 3287,
      "ggggggggfffff": 3288,
      "ceebb": 3289,
      "dffgf": 3290,
      "fffeff": 3291,
      "cccccbcd": 3292,
      "ccccccbbbbbb": 3293,
      "ddecfb": 3294,
      "ggfdb": 3295,
      "ccccdded": 3296,
      "eged": 3297,
      "gghgd": 3298,
      "ccbbbaab": 3299,
      "cbcbab": 3300,
      "cada": 3301,
      "egegf": 3302,
      "gghggghh": 3303,
      "ecccdd": 3304,
      "hhged": 3305,
      "dbbbb": 3306,
      "ehhf": 3307,
      "ccbde": 3308,
      "ccccccddddd": 3309,
      "ggggfedd": 3310,
      "cdddddddddd": 3311,
      "aaaaaaaaaaaaaaaaaaaaaaaaaaaaaaaaaaaaaaaaaaaaaaaaaaaaaaaaaaaaaaaaaaaaaaaaaaaaaaaaaaaaaaaaaaaaaaaaaaaaaaaaaaaaaaaaaaaaaaaaaaaaaaaaaaaaaaaaaaaaaaaaaaaaaaaaaaaaaaaaaaaaaaaaaaaaaaaaaaaaaaaaaaaaaaaaaaaaaaaaaaaaaaaaaaaaaaaaaaaaaaaaaaaaaaaaaaaaaaaaaaaaaaaaaaaaaaaa": 3312,
      "hgge": 3313,
      "gggggfffffff": 3314,
      "aabbaabb": 3315,
      "ccbc": 3316,
      "ghhgggff": 3317,
      "cbccbbbb": 3318,
      "hgb": 3319,
      "Ġdb": 3320,
      "geffegd": 3321,
      "ccdfed": 3322,
      "ggfge": 3323,
      "eeebb": 3324,
      "gggggggggghh": 3325,
      "aaaaaabd": 3326,
      "effffeff": 3327,
      "cbbbbbbab": 3328,
      "eeeededd": 3329,
      "ccccdeff": 3330,
      "eeeeddddddd": 3331,
      "gchbhbhb": 3332,
      "hghhhh": 3333,
      "fed": 3334,
      "hgggg": 3335,
      "fffggf": 3336,
      "ccdeeef": 3337,
      "eeeeeeedddd": 3338,
      "gdee": 3339,
      "cbceff": 3340,
      "ggeddf": 3341,
      "cfcgbgb": 3342,
      "hahahahahb": 3343,
      "ccbcccdd": 3344,
      "eeefffffffff": 3345,
      "aaaac": 3346,
      "efgfff": 3347,
      "bbbdf": 3348,
      "ecccb": 3349,
      "eccbbb": 3350,
      "aabbbabb": 3351,
      "cbbababb": 3352,
      "eededddd": 3353,
      "gec": 3354,
      "ghhhhhhgff": 3355,
      "gffffgff": 3356,
      "ccddeeff": 3357,
      "cdecd": 3358,
      "ccddddddddd": 3359,
      "ccdcbbbb": 3360,
      "ededeef": 3361,
      "eeffffed": 3362,
      "aaaaabbbbbbbb": 3363,
      "edddeedd": 3364,
      "deced": 3365,
      "ccccccccdddd": 3366,
      "ecbdf": 3367,
      "aaaabbab": 3368,
      "gggedf": 3369,
      "cbaaaaaabb": 3370,
      "cdcdcddd": 3371,
      "eeffffgf": 3372,
      "aaabaaaab": 3373,
      "gggeee": 3374,
      "eddeeef": 3375,
      "eeeeeeddddd": 3376,
      "ghgfed": 3377,
      "efefgf": 3378,
      "gdddd": 3379,
      "abbbd": 3380,
      "cffed": 3381,
      "Ġfffff": 3382,
      "ddce": 3383,
      "edddfff": 3384,
      "ggdcb": 3385,
      "ggfdf": 3386,
      "gcefb": 3387,
      "aaaaaabbbbbbb": 3388,
      "cadada": 3389,
      "efegfgf": 3390,
      "eeeedeef": 3391,
      "gbfced": 3392,
      "cbdddd": 3393,
      "ghghhhhhhhhhh": 3394,
      "gggfggff": 3395,
      "cdcddddd": 3396,
      "gfffggff": 3397,
      "ggfddd": 3398,
      "gggffeef": 3399,
      "abbbbabb": 3400,
      "eddfd": 3401,
      "ebaaaab": 3402,
      "gghhgghh": 3403,
      "aaaaabaab": 3404,
      "gagaha": 3405,
      "acab": 3406,
      "edfded": 3407,
      "ghhggfff": 3408,
      "aaaaaaaaaaaaaaaaaaaaabb": 3409,
      "ccbcccccccc": 3410,
      "gggffeed": 3411,
      "cbddf": 3412,
      "effeeed": 3413,
      "gggggggggggggff": 3414,
      "ededededed": 3415,
      "cbabbbbb": 3416,
      "cdfhh": 3417,
      "eeggff": 3418,
      "ccccbcbcb": 3419,
      "cdcef": 3420,
      "hhhhhhhf": 3421,
      "Ġhhhhhhhhhhhhhhhhhhhhhhhhhhhhhhhhhhhhhhhhhhhhhhhhhhhhhhhhhhhhhhhhhhhhhhhhhhhhhhhhhhhhhhhhhhhhhhhhhhhhhhhhhhhhhhhhhhhhhhhhhhhhhhhhhhhhhhhhhhhhhhhhhhhhhhhhhhhhhhhhhhhhhhhhhhhhhhhhhhhhhhhhhhhhhhhhhhhhhhhhhhhhhhhhhhhhhhhhhhhhhhhhhhhhhhhhhhhhhhhhhhhhhhhhhhhhhhhhhhhhhhhhhhhhhhhhhhhhhhhhhhhhhhhhhhhhhhhhhhhhhhhhhhhhhhhhhhhhhhhh": 3422,
      "efddd": 3423,
      "aaaaaaaaaaaaaaaabbb": 3424,
      "ccddeeed": 3425,
      "gffggff": 3426,
      "cdcdcdcdd": 3427,
      "gffdf": 3428,
      "cbdbd": 3429,
      "cbbdb": 3430,
      "cbaaaaaa": 3431,
      "ghhhggggf": 3432,
      "cfhf": 3433,
      "gdeb": 3434,
      "fhf": 3435,
      "gggeeef": 3436,
      "Ġcdd": 3437,
      "ddedf": 3438,
      "decdb": 3439,
      "fffeef": 3440,
      "ccbbcbbb": 3441,
      "ccddbbb": 3442,
      "ggefd": 3443,
      "ggghhhhgf": 3444,
      "ggggggghhhhhh": 3445,
      "ccccccbcb": 3446,
      "eeeeddf": 3447,
      "cdedf": 3448,
      "cbbbbbbbbbbbbbbb": 3449,
      "gghhhhhhhhhhhhhhhhhhhhhhhhhhhhhhhhhhhhhhhhhhhhhhhh": 3450,
      "ggggffd": 3451,
      "ggddf": 3452,
      "gghhhhgff": 3453,
      "efegf": 3454,
      "ccccccccccccd": 3455,
      "eefffeed": 3456,
      "ccccddddddd": 3457,
      "ggggggggggffff": 3458,
      "ghhhhfd": 3459,
      "cdddbbb": 3460,
      "cdebb": 3461,
      "ccbbbbbbbbbbbbbb": 3462,
      "gggggge": 3463,
      "ceccd": 3464,
      "ggfeeef": 3465,
      "edddcccd": 3466,
      "aaaaaaaaaabab": 3467,
      "eeeeeeeeddd": 3468,
      "gebbb": 3469,
      "cccdddddddd": 3470,
      "ggdcd": 3471,
      "ebbbb": 3472,
      "ccaaabb": 3473,
      "eedbab": 3474,
      "ghhhhggff": 3475,
      "decdd": 3476,
      "ecaaa": 3477,
      "edddddf": 3478,
      "ddeee": 3479,
      "hehdhd": 3480,
      "aaaaaaabbbbbbb": 3481,
      "edddbb": 3482,
      "Ġccd": 3483,
      "gcfdee": 3484,
      "egggff": 3485,
      "gghgghhh": 3486,
      "eeffeeff": 3487,
      "eceed": 3488,
      "cedeef": 3489,
      "eeedcbb": 3490,
      "ghggffff": 3491,
      "ggggee": 3492,
      "cccddff": 3493,
      "gghg": 3494,
      "cdfgggf": 3495,
      "eeeegf": 3496,
      "eeeeeeeefff": 3497,
      "gfffffgf": 3498,
      "ggggggggghh": 3499,
      "eaeb": 3500,
      "ccdcccb": 3501,
      "edfdfd": 3502,
      "cbbbaaaab": 3503,
      "edddefff": 3504,
      "eefffeef": 3505,
      "eddeee": 3506,
      "ghhhhgggf": 3507,
      "aaabbbbbbbbbb": 3508,
      "cfdfd": 3509,
      "dddbbb": 3510,
      "gcdb": 3511,
      "cdddee": 3512,
      "ghhhgfe": 3513,
      "gefb": 3514,
      "cdcbcd": 3515,
      "ccbabbbb": 3516,
      "ccddccdd": 3517,
      "dfgfd": 3518,
      "ghhhhgd": 3519,
      "cbdee": 3520,
      "ggggggggggggggggf": 3521,
      "efecb": 3522,
      "ccceedd": 3523,
      "cccccccccccccccccccccccccccccccccccccccccccccccccccccccccccccccc": 3524,
      "ccbccccb": 3525,
      "ebc": 3526,
      "cbcdcd": 3527,
      "ggfb": 3528,
      "eeefeedd": 3529,
      "cegd": 3530,
      "ccbbaaaab": 3531,
      "efeeff": 3532,
      "ffee": 3533,
      "eccdf": 3534,
      "Ġeed": 3535,
      "Ġedd": 3536,
      "gefffff": 3537,
      "ggggfdd": 3538,
      "cddddcd": 3539,
      "dcdbb": 3540,
      "eddddded": 3541,
      "eeeefefef": 3542,
      "ggggghhhhhhhhhh": 3543,
      "cfded": 3544,
      "cbbbbbaab": 3545,
      "hhhhhhhhhhhhhhhhhhh": 3546,
      "ccbaaaaaab": 3547,
      "cdecbb": 3548,
      "gfffee": 3549,
      "cccabb": 3550,
      "ccbbbbd": 3551,
      "ebcd": 3552,
      "gbfbf": 3553,
      "ceddecf": 3554,
      "gghhhhhggf": 3555,
      "gghgfe": 3556,
      "gcedd": 3557,
      "acbb": 3558,
      "aaabbabb": 3559,
      "eeeedb": 3560,
      "cefedd": 3561,
      "bbbbbab": 3562,
      "gghhhggff": 3563,
      "eedcbbbb": 3564,
      "adf": 3565,
      "ababababb": 3566,
      "cccbbbbbbbbbbbb": 3567,
      "ebdccdb": 3568,
      "gdbd": 3569,
      "cdfge": 3570,
      "ddcc": 3571,
      "acbd": 3572,
      "gefegf": 3573,
      "cbccdddd": 3574,
      "geeedd": 3575,
      "eeeeedef": 3576,
      "cfdfdf": 3577,
      "cddeded": 3578,
      "hfff": 3579,
      "eedddeef": 3580,
      "edbaaab": 3581,
      "gbd": 3582,
      "geggf": 3583,
      "Ġaaaaaaaaaaaaaaaaaaaaaaaaaaaaaaaaaaaaaaaaaaaaaaaaaaaaaaaaaaaaaaaaaaaaaaaaaaaaaaaaaaaaaaaaaaaaaaaaaaaaaaaaaaaaaaaaaaaaaaaaaaaaaaaaaaaaaaaaaaaaaaaaaaaaaaaaaaaaaaaaaaaaaaaaaaaaaaaaaaaaaaaaaaaaaaaaaaaaaaaaaaaaaaaaaaaaaaaaaaaaaaaaaaaaaaaaaaaaaaaaaaaaaaaaaaaaaaaaaaaaaaaaaaaaaaaaaaaaaaaaaaaaaaaaaaaaaaaaaaaaaaaaaaaaaaaaaaaaaaaa": 3584,
      "ghhhfe": 3585,
      "dec": 3586,
      "eefffgff": 3587,
      "ccdcc": 3588,
      "aaaaabaaab": 3589,
      "cedecd": 3590,
      "dece": 3591,
      "cecece": 3592,
      "geeeed": 3593,
      "eedeeedd": 3594,
      "dddded": 3595,
      "dbccb": 3596,
      "cbbbcccbb": 3597,
      "gfedff": 3598,
      "abbbbbbbbbbbbbb": 3599,
      "gggggd": 3600,
      "cdbcbd": 3601,
      "ccbbcccb": 3602,
      "gghhhff": 3603,
      "ddccdd": 3604,
      "hegd": 3605,
      "aaaacf": 3606,
      "eeffggff": 3607,
      "efegff": 3608,
      "cffgf": 3609,
      "hah": 3610,
      "gfgffef": 3611,
      "aaaaaaaaaaaaaaaaaaaaaabb": 3612,
      "cbceed": 3613,
      "hhhhhhhhhhhhhhhhhhhhh": 3614,
      "cbbbbabbb": 3615,
      "ghhhhghhh": 3616,
      "aaabbbaab": 3617,
      "ghhhhhhhhhf": 3618,
      "cdcdded": 3619,
      "ggfggff": 3620,
      "cdfee": 3621,
      "Ġdcd": 3622,
      "gghfd": 3623,
      "cbbbddd": 3624,
      "ghhhhhhhhhhhhhhhhhhhhhhhhhhhhhh": 3625,
      "eca": 3626,
      "eeededdd": 3627,
      "hgfff": 3628,
      "hhhhhhhhhhhhhhhhhhhhhh": 3629,
      "cdddccb": 3630,
      "hhhhhhhgf": 3631,
      "eeddddf": 3632,
      "hchchd": 3633,
      "effgffff": 3634,
      "edfee": 3635,
      "gghggggff": 3636,
      "gggghghgh": 3637,
      "ceeffff": 3638,
      "cdfdd": 3639,
      "dcbabb": 3640,
      "cccbbbd": 3641,
      "ghggfgf": 3642,
      "eeeeede": 3643,
      "Ġhhhhhhhhhhhhhhhhhhhhhhhhhhhhhhhhhhhhhhhhhhhhhhhhhhhhhhhhhhhhhhhhhhhhhhhhhhhhhhhhhhhhhhhhhhhhhhhhhhhhhhhhhhhhhhhhhhhhhhhhhhhhhhhhhhhhhhhhhhhhhhhhhhhhhhhhhhhhhhhhhhhhhhhhhhhhhhhhhhhhhhhhhhhhhhhhhhhhhhhhhhhhhhhhhhhhhhhhhhhhhhhhhhhhhhhhhhhhhhhhhhhhhhhhhhhhhhhhhhhhhhhhhhhhhhhhhhhhhhhhhhhhhhhhhhhhhhhhhhhhhhhhhhhhhhhhhhhhhhhhhhhhhhhhhhhhh": 3644,
      "hhfb": 3645,
      "cbcbbbbbbbb": 3646,
      "degff": 3647,
      "cddcc": 3648,
      "abababbbb": 3649,
      "gggghgff": 3650,
      "ghhggg": 3651,
      "acc": 3652,
      "ffffffffffff": 3653,
      "efdeef": 3654,
      "ghhhhhge": 3655,
      "eeefggff": 3656,
      "ghhhhhhhggf": 3657,
      "cedfdf": 3658,
      "gcbb": 3659,
      "cddbbbb": 3660,
      "cbccccdd": 3661,
      "ccccced": 3662,
      "gegfff": 3663,
      "hcgc": 3664,
      "ghhhhgfd": 3665,
      "ddeeff": 3666,
      "cccccbd": 3667,
      "cacacaca": 3668,
      "dcaaab": 3669,
      "cabf": 3670,
      "ccdeeedd": 3671,
      "eeggg": 3672,
      "eeedcccd": 3673,
      "cdfgfd": 3674,
      "aabcd": 3675,
      "gdgdgdf": 3676,
      "eeeedddddddd": 3677,
      "dbcbb": 3678,
      "eedeee": 3679,
      "gefed": 3680,
      "ghfhf": 3681,
      "eddccbbb": 3682,
      "cdcded": 3683,
      "eeefffef": 3684,
      "ceghhh": 3685,
      "dbaaaaab": 3686,
      "ghggef": 3687,
      "ghhfb": 3688,
      "ccbaaaabb": 3689,
      "cddcccdd": 3690,
      "cdddccdd": 3691,
      "gbab": 3692,
      "gghhhhhhf": 3693,
      "cccbcccd": 3694,
      "bbaaab": 3695,
      "dddfff": 3696,
      "eeefffed": 3697,
      "eefggggf": 3698,
      "cbbccccd": 3699,
      "ccdce": 3700,
      "ddcbbbb": 3701,
      "eedcccdd": 3702,
      "gghged": 3703,
      "eggd": 3704,
      "ccdefd": 3705,
      "aaaaaaaaaaaaaaaaaa": 3706,
      "gggggggghhhhh": 3707,
      "ccbbbbabb": 3708,
      "ddeeed": 3709,
      "cccccbbbbbbbb": 3710,
      "ggfffgggf": 3711,
      "hghggf": 3712,
      "ccbcbdb": 3713,
      "cbccf": 3714,
      "cccbcbbbb": 3715,
      "ebebd": 3716,
      "cbccdb": 3717,
      "ghhghhhhh": 3718,
      "gfgfgggf": 3719,
      "cefecb": 3720,
      "Ġgggf": 3721,
      "efffgfff": 3722,
      "eedddeff": 3723,
      "aaaaaaaaaaaaaaaaaaaaaaaaaaaaaab": 3724,
      "hhb": 3725,
      "ccdced": 3726,
      "gegegd": 3727,
      "cdbbab": 3728,
      "hhhhgff": 3729,
      "cbcccccd": 3730,
      "eeeddded": 3731,
      "gfgfd": 3732,
      "eddddeef": 3733,
      "eedddb": 3734,
      "eeedeeff": 3735,
      "hggh": 3736,
      "cccccccbbbbb": 3737,
      "ecabb": 3738,
      "add": 3739,
      "cbaabd": 3740,
      "eeddcddd": 3741,
      "ghhgggggf": 3742,
      "cccbbaab": 3743,
      "eeddccb": 3744,
      "egdf": 3745,
      "efggggf": 3746,
      "ggghggggf": 3747,
      "gffffeff": 3748,
      "cbbbcc": 3749,
      "eefgg": 3750,
      "aaaaaaaaabbbbbb": 3751,
      "ccbbaaabb": 3752,
      "cbbcdef": 3753,
      "ggggggfed": 3754,
      "cdbdcd": 3755,
      "eeeeefd": 3756,
      "efffffffffffff": 3757,
      "fdf": 3758,
      "cddcccb": 3759,
      "ggghhhhhhhhhhhhhhhhhhhhhhhhhhhhhhhhhhhhhhhh": 3760,
      "fdef": 3761,
      "gggggggfgf": 3762,
      "Ġaaaaaaaaaaaaaaaaaaaaaaaaaaaaaaaaaaaaaaaaaaaaaaaaaaaaaaaaaaaaaaaaaaaaaaaaaaaaaaaaaaaaaaaaaaaaaaaaaaaaaaaaaaaaaaaaaaaaaaaaaaaaaaaaaaaaaaaaaaaaaaaaaaaaaaaaaaaaaaaaaaaaaaaaaaaaaaaaaaaaaaaaaaaaaaaaaaaaaaaaaaaaaaaaaaaaaaaaaaaaaaaaaaaaaaaaaaaaaaaaaaaaaaaaaaaaaaaaaaaaaaaaaaaaaaaaaaaaaaaaaaaaaaaaaaaaaaaaaaaaaaaaaaaaaaaaaaaaaaaaaaaaaaaaaaaaa": 3763,
      "cabaca": 3764,
      "ggfefff": 3765,
      "cbbbde": 3766,
      "gggffee": 3767,
      "cbaaaabbb": 3768,
      "ceeeddd": 3769,
      "eeeeffed": 3770,
      "cgbgbhb": 3771,
      "ghgfe": 3772,
      "cdcbd": 3773,
      "cbbaaabbb": 3774,
      "cdbaaab": 3775,
      "eeeeeeeeeef": 3776,
      "gefded": 3777,
      "eddcdddd": 3778,
      "bbbaab": 3779,
      "effdb": 3780,
      "eeeeffgf": 3781,
      "dacaca": 3782,
      "ghgc": 3783,
      "eeegggf": 3784,
      "eeeefeed": 3785,
      "gegeff": 3786,
      "ccbbcccd": 3787,
      "aabbaa": 3788,
      "abbbbbab": 3789,
      "Ġdef": 3790,
      "ecdee": 3791,
      "fffgff": 3792,
      "egfdd": 3793,
      "aaaaaaaaaaaaaaaaaaaaaaaaaaaaaaaaaaaaaaaaaaaaaaaaaaaaaaaaaaaaaaaaaaaaaaaaaaaaaaaaaaaaaaaaaaaaaaaaaaaaaaaaaaaaaaaaaaaaaaaaaaaaaaaaaaaaaaaaaaaaaaaaaaaaaaaaaaaaaaaa": 3794,
      "aaaaaaaaaaaaaaaaaaaaaa": 3795,
      "ebdbdb": 3796,
      "eeeeeeeeeed": 3797,
      "efefeed": 3798,
      "Ġaaaab": 3799,
      "cddddded": 3800,
      "gah": 3801,
      "ccdeffff": 3802,
      "cbcbcbcbcbcb": 3803,
      "eeddeeed": 3804,
      "aaaf": 3805,
      "gggfffef": 3806,
      "cbbdef": 3807,
      "ccdccccd": 3808,
      "cefgggf": 3809,
      "eedfef": 3810,
      "hfhfhfh": 3811,
      "eaa": 3812,
      "ccbbccdd": 3813,
      "gfgd": 3814,
      "dfecb": 3815,
      "cdbbbbb": 3816,
      "aaaaaaaaaaabbbbb": 3817,
      "eeeeefffffff": 3818,
      "gggeb": 3819,
      "ababaab": 3820,
      "dddedd": 3821,
      "cccccde": 3822,
      "hhhhhhhhhhhhhhhhhhhhhhh": 3823,
      "ccdefed": 3824,
      "gfebb": 3825,
      "caaaaaaa": 3826,
      "ghhd": 3827,
      "ggghghhh": 3828,
      "gggggggggggggggf": 3829,
      "eedcc": 3830,
      "eeffeeef": 3831,
      "ggefe": 3832,
      "hhgghh": 3833,
      "Ġhhhhhhhhhhhhhhhhhhhhhhhhhhhhhhhhhhhhhhhh": 3834,
      "aabbbbab": 3835,
      "ghhgffff": 3836,
      "effffeef": 3837,
      "ggffffgf": 3838,
      "hehehf": 3839,
      "eeedddf": 3840,
      "dddcdd": 3841,
      "ccbdcd": 3842,
      "ccccbbab": 3843,
      "eedddedd": 3844,
      "cbbbbcbb": 3845,
      "gfgfh": 3846,
      "abbbbbbbbbbbbbbb": 3847,
      "ddfed": 3848,
      "ghhhhhhhhhhhhhhhhhhhhhhhhhhhhhhhhhhh": 3849,
      "eeccdd": 3850,
      "cacf": 3851,
      "cabaaaab": 3852,
      "ecddb": 3853,
      "ccbf": 3854,
      "ebdbd": 3855,
      "gggfffed": 3856,
      "aaaaaaaaaaaaaaaaaaaaaaabb": 3857,
      "cccdeeed": 3858,
      "eeeffeef": 3859,
      "ghghfh": 3860,
      "cdcdbd": 3861,
      "gggdb": 3862,
      "ggffeedd": 3863,
      "acbcb": 3864,
      "gffeeef": 3865,
      "aaaabbaab": 3866,
      "eeeefggf": 3867,
      "efgfd": 3868,
      "cdefggf": 3869,
      "ccdddcdd": 3870,
      "ehe": 3871,
      "ddcf": 3872,
      "cccdfff": 3873,
      "gghhhgggf": 3874,
      "ghhhhhhhhhhhhhhhhhhhhhhhhhhhhhhhhhhhhhhhh": 3875,
      "ggefef": 3876,
      "efffefef": 3877,
      "ggeeed": 3878,
      "ccceeff": 3879,
      "ffh": 3880,
      "ccddddf": 3881,
      "cccddeef": 3882,
      "cdfh": 3883,
      "eeeffggf": 3884,
      "ccdbbbb": 3885,
      "aabbbaaab": 3886,
      "ead": 3887,
      "bbbbbbbbbbbbbbbbbbbb": 3888,
      "hhhg": 3889,
      "gffffggf": 3890,
      "cbbcded": 3891,
      "ccdcdddd": 3892,
      "ghhgghhhh": 3893,
      "aaaaaaaaaaaaabbbb": 3894,
      "ggggggggghhh": 3895,
      "cccccdb": 3896,
      "effgggg": 3897,
      "cbbcde": 3898,
      "cbbcee": 3899,
      "cdeded": 3900,
      "gggeeff": 3901,
      "ddeb": 3902,
      "cebfbfb": 3903,
      "ghhhhghf": 3904,
      "dcbaaab": 3905,
      "gghgge": 3906,
      "dedbbb": 3907,
      "dedeef": 3908,
      "dfeef": 3909,
      "cbbbcf": 3910,
      "bbce": 3911,
      "gggggfggf": 3912,
      "egegd": 3913,
      "cddfe": 3914,
      "eeedfd": 3915,
      "ecbcf": 3916,
      "ccccdeed": 3917,
      "ababbbbbbbb": 3918,
      "ccbbce": 3919,
      "cccbccb": 3920,
      "gggggggggh": 3921,
      "ghhggghhh": 3922,
      "ffeef": 3923,
      "aacff": 3924,
      "eeeeeeeeeeeeeeeeeeeeeeee": 3925,
      "gffeedd": 3926,
      "aaadf": 3927,
      "efffggff": 3928,
      "gefeef": 3929,
      "aaaaaaaaaaaaaabbbb": 3930,
      "acadada": 3931,
      "cccdbbb": 3932,
      "ghb": 3933,
      "cbbaaaa": 3934,
      "effeee": 3935,
      "cddeeef": 3936,
      "cbaaaaaaaaab": 3937,
      "geccd": 3938,
      "eeeeb": 3939,
      "cccbccbb": 3940,
      "cddccbbb": 3941,
      "effffeed": 3942,
      "gfffffd": 3943,
      "aabbaaaab": 3944,
      "ebdf": 3945,
      "ggghhhhhhhhhhhhhhhhhh": 3946,
      "cbbbcbbbbb": 3947,
      "eafa": 3948,
      "cddddddddddd": 3949,
      "gghhgfff": 3950,
      "egeb": 3951,
      "aabbbbbbbbbbb": 3952,
      "gggegf": 3953,
      "gecdf": 3954,
      "cghf": 3955,
      "hch": 3956,
      "ecaaaab": 3957,
      "hhhhhhhhhhhhhhhhhhhhhhhhhhh": 3958,
      "eedcdf": 3959,
      "gdcd": 3960,
      "ccbaaaa": 3961,
      "gefee": 3962,
      "gggggee": 3963,
      "ggffffef": 3964,
      "ggefgf": 3965,
      "dbbabb": 3966,
      "cddeeedd": 3967,
      "cbbaaaaabb": 3968,
      "ebfbfb": 3969,
      "ggggfgfff": 3970,
      "cccddedd": 3971,
      "edededdd": 3972,
      "ddba": 3973,
      "gagafb": 3974,
      "ghhggggh": 3975,
      "ccccdcdcd": 3976,
      "aacef": 3977,
      "eeffffef": 3978,
      "eefffggf": 3979,
      "eefffedd": 3980,
      "ccccccccccdd": 3981,
      "ccfhh": 3982,
      "caaaaaaaa": 3983,
      "ddcddd": 3984,
      "cbbef": 3985,
      "efffeeed": 3986,
      "cccdeedd": 3987,
      "cbad": 3988,
      "ggddd": 3989,
      "ccdddded": 3990,
      "efffeddd": 3991,
      "gab": 3992,
      "eeeeefgf": 3993,
      "ghgged": 3994,
      "aaababbb": 3995,
      "ceggff": 3996,
      "ccbbdf": 3997,
      "cccbbcd": 3998,
      "ada": 3999,
      "eeeeeeeeeeeeeeeeeeeeeeeeeeeeeeeeeeeeeeeeeeeeeeeeeeeeeeeeeeeeeeee": 4000,
      "cececed": 4001,
      "ccbbabbbb": 4002,
      "gggghhhhhhhhhhhhhh": 4003,
      "cbbaaaaaaab": 4004,
      "gggggffef": 4005,
      "efffeffff": 4006,
      "dedee": 4007,
      "eeeeedcd": 4008,
      "cbbbaaabb": 4009,
      "ccdecb": 4010,
      "ccbbcddd": 4011,
      "gggffggff": 4012,
      "cbbbbbbbbbbbbbbbb": 4013,
      "geddef": 4014,
      "ecfcf": 4015,
      "gghghhhhhh": 4016,
      "cbbcccdd": 4017,
      "gfde": 4018,
      "effdf": 4019,
      "eggfd": 4020,
      "gggghhhhhhhhhhhhh": 4021,
      "eefeddd": 4022,
      "cceffd": 4023,
      "gggfggggf": 4024,
      "ccdfggf": 4025,
      "cbcccbbbb": 4026,
      "ecfdf": 4027,
      "eddddeff": 4028,
      "ghfef": 4029,
      "gfgffgf": 4030,
      "defggf": 4031,
      "efegd": 4032,
      "eddddff": 4033,
      "cdcdcdcdcdcdcdcd": 4034,
      "eddeeedd": 4035,
      "cbcdbb": 4036,
      "ccabbb": 4037,
      "cccccccccccdd": 4038,
      "ecdeff": 4039,
      "efdee": 4040,
      "gbga": 4041,
      "hgee": 4042,
      "ccddeddd": 4043,
      "hhhhge": 4044,
      "cbbbabbbb": 4045,
      "ccbcded": 4046,
      "cdcdbb": 4047,
      "cebbb": 4048,
      "eddddcdd": 4049,
      "ccedbb": 4050,
      "ggggggggfgf": 4051,
      "gggghgh": 4052,
      "efegege": 4053,
      "eceddd": 4054,
      "ebda": 4055,
      "cdbdd": 4056,
      "cbbbba": 4057,
      "cbbcdcb": 4058,
      "gggfeeff": 4059,
      "gggefff": 4060,
      "edfegf": 4061,
      "cbabbbbbb": 4062,
      "egghh": 4063,
      "ddcdf": 4064,
      "gffeeff": 4065,
      "eddddcd": 4066,
      "ghhhhged": 4067,
      "cfdb": 4068,
      "cbbaba": 4069,
      "hhhhhhhhhhhhhhhhhhhhhhhhhhhhh": 4070,
      "aaabf": 4071,
      "Ġaaaaaaaaaaaaaaaaaaaaaaaaaaaaaaaaaaaaaaaaaaaaaaaa": 4072,
      "ggffgfff": 4073,
      "cedfef": 4074,
      "ghhgdb": 4075,
      "gefggf": 4076,
      "ghhhhhhhhggf": 4077,
      "gdfeefd": 4078,
      "ccbbbbbab": 4079,
      "geg": 4080,
      "cbccccbb": 4081,
      "ghhgggggggg": 4082,
      "eddddedd": 4083,
      "ghhhhhff": 4084,
      "bbbbabb": 4085,
      "gghghghghgh": 4086,
      "gggffedd": 4087,
      "cbaaaaaaaa": 4088,
      "ccdeeee": 4089,
      "ggggggghhhhhhh": 4090,
      "cceefff": 4091,
      "eeddeedd": 4092,
      "abbbaabb": 4093,
      "fffffgf": 4094,
      "ggghff": 4095,
      "eeeededed": 4096,
      "Ġaaaaaaaaaaaaaaaaaaaaaaaaaaaaaaaaaaaaaaaaaaaaaaaaaaaaaaaaaaaaaaaaaaaaaaaaaaaaaaaaaaaaaaaaaaaaaaaa": 4097,
      "aaaaaaaaaaaaaaaaaaaaa": 4098,
      "dbcbcb": 4099,
      "cccbbcdd": 4100,
      "eedeefff": 4101,
      "gegefef": 4102,
      "cbbcbbbbb": 4103,
      "ccbbccbbb": 4104,
      "ghhhhhhhhhhf": 4105,
      "eeeddff": 4106,
      "ccdddbb": 4107,
      "eeeedff": 4108,
      "gffgfff": 4109,
      "edddddef": 4110,
      "gghhhhhhhgf": 4111,
      "ccccbbbbbbbbbb": 4112,
      "cccbbbab": 4113,
      "gfgfed": 4114,
      "hhhhhhhhhhhhhhhhhhhhhhhhhhhhhhhhhhhhhhhhhhhhhhhhhhhhhhhhhhhhhhhhhhhhhhhhhhhhhhhhhhhhhhhhhhhhhhhhhhhhhhhhhhhhhhhhhhhhhhhhhhhhhhhhhhhhhhhhhhhhhhhhhhhhhhhhhhhhhhhhhhhhhhhhhhhhhhhhhhhhhhhhhhhhhhhhhhhhhhhhhhhhhhhhhhhhhhhhhhhhhhhhhhhhhhhhhhhhhhhhhhhhhhhhhhhhhhhh": 4115,
      "ccec": 4116,
      "hhhhff": 4117,
      "cdeeeff": 4118,
      "cdede": 4119,
      "hhhhhhhhhhhhhhhhh": 4120,
      "gghgfef": 4121,
      "fbd": 4122,
      "cbcbbab": 4123,
      "gghggg": 4124,
      "ecdddd": 4125,
      "fcedd": 4126,
      "ddfggf": 4127,
      "ggggggfef": 4128,
      "cegge": 4129,
      "cbbbbcbbb": 4130,
      "gggffdd": 4131,
      "ggffefff": 4132,
      "ccdccccb": 4133,
      "cbccc": 4134,
      "ebed": 4135,
      "eccc": 4136,
      "ghgggfff": 4137,
      "ghgggghh": 4138,
      "eefddd": 4139,
      "eecdf": 4140,
      "bbbbaab": 4141,
      "ghhghgh": 4142,
      "edededededededededededededededed": 4143,
      "ccccccbbbbbbb": 4144,
      "bbbbbbbbbbbbbbbbbbbbb": 4145,
      "cbbbbaabb": 4146,
      "ghhhghhhhh": 4147,
      "abbbbaab": 4148,
      "aaaaaababb": 4149,
      "gehd": 4150,
      "cbaaaaaaaaaaaaaaaaaaaaaaaaaaaaaaaa": 4151,
      "ggedcd": 4152,
      "abdf": 4153,
      "cbdbbb": 4154,
      "ddddddddd": 4155,
      "gghfff": 4156,
      "ggghgggg": 4157,
      "efgfdd": 4158,
      "ccddccb": 4159,
      "gcaab": 4160,
      "ecbaaaab": 4161,
      "cccdefff": 4162,
      "cccbaabb": 4163,
      "cgbhb": 4164,
      "cceeddd": 4165,
      "ggedff": 4166,
      "cdefef": 4167,
      "ccddcbbb": 4168,
      "ggffffffffff": 4169,
      "efedbb": 4170,
      "aaaaaaaaaaaaaaaaaaa": 4171,
      "degggf": 4172,
      "ghhhhgfff": 4173,
      "ccdedb": 4174,
      "ggggggggggggfff": 4175,
      "cbbccccb": 4176,
      "dfegf": 4177,
      "gbgd": 4178,
      "cededf": 4179,
      "hfhehe": 4180,
      "cdbf": 4181,
      "ecbce": 4182,
      "cccbcccccccc": 4183,
      "gghhggggf": 4184,
      "aacdd": 4185,
      "cdddcbbb": 4186,
      "gdc": 4187,
      "ggfdbbb": 4188,
      "edddeeef": 4189,
      "ehhhhh": 4190,
      "ghgb": 4191,
      "efdbbb": 4192,
      "gffefef": 4193,
      "aaaaaaaaaaaabab": 4194,
      "cccdccbb": 4195,
      "aaabbbabb": 4196,
      "ghhhggghh": 4197,
      "geffe": 4198,
      "cefdbb": 4199,
      "ccbbbcbbb": 4200,
      "ddeedd": 4201,
      "hhhhhhhhhhhhhhhhhhhhhhhhhh": 4202,
      "ghghhhhhhhhhhhh": 4203,
      "ccdffff": 4204,
      "hfhfhe": 4205,
      "ggggeef": 4206,
      "gfgfgffff": 4207,
      "cbcbcbcbbbb": 4208,
      "cbaaabbbb": 4209,
      "aaaaaabaaab": 4210,
      "ggeeee": 4211,
      "gece": 4212,
      "gcff": 4213,
      "ceefed": 4214,
      "gghfgf": 4215,
      "ghhgeef": 4216,
      "gggffeedd": 4217,
      "baaab": 4218,
      "eeeccb": 4219,
      "ccgf": 4220,
      "ghhhhhhhhhhhhhhhhhhhhhhhhhhhhhhhhhhhhh": 4221,
      "ghhhhhgggf": 4222,
      "ghhhhhggff": 4223,
      "efeb": 4224,
      "ghhhhgghh": 4225,
      "ahaha": 4226,
      "cfbfbfb": 4227,
      "eefde": 4228,
      "cccddbb": 4229,
      "ggeeeff": 4230,
      "ccdeeddd": 4231,
      "ccdc": 4232,
      "aaaaaaaaaaaaaaaaaaaaaaaabb": 4233,
      "fafafafa": 4234,
      "gghggghhh": 4235,
      "efefefefef": 4236,
      "eddeffff": 4237,
      "eddccccd": 4238,
      "hfhghf": 4239,
      "gfefggf": 4240,
      "cdec": 4241,
      "ghgggggff": 4242,
      "ccccccccbbbb": 4243,
      "cdfhhh": 4244,
      "gcgcgd": 4245,
      "gggggfgggf": 4246,
      "eeffeedd": 4247,
      "ggedcb": 4248,
      "gdfef": 4249,
      "efegef": 4250,
      "cdddddf": 4251,
      "ghhfef": 4252,
      "gggggggffffff": 4253,
      "gfffeed": 4254,
      "ecbbbbb": 4255,
      "eeh": 4256,
      "Ġfgf": 4257,
      "aaaabbbbbbbbb": 4258,
      "caf": 4259,
      "dcdcdd": 4260,
      "eeddddef": 4261,
      "ggghgggggggg": 4262,
      "abaaaab": 4263,
      "eaeaea": 4264,
      "eeeddcdd": 4265,
      "gggfffggf": 4266,
      "aadd": 4267,
      "ccdddcd": 4268,
      "cbaaaaaaabb": 4269,
      "aaaaaaaaaaaaaaaaaaaaaaa": 4270,
      "abababababababab": 4271,
      "aaced": 4272,
      "eeeeeeefffff": 4273,
      "ghhhhg": 4274,
      "gggghhf": 4275,
      "ggfffeff": 4276,
      "eedddded": 4277,
      "abbcbbb": 4278,
      "cccbaaaab": 4279,
      "ccccdddddddd": 4280,
      "efggfed": 4281,
      "cbabab": 4282,
      "gggecbb": 4283,
      "dbaaaa": 4284,
      "ggedbb": 4285,
      "ccceb": 4286,
      "ccbbbdd": 4287,
      "cababbbb": 4288,
      "gghfe": 4289,
      "cccdccdd": 4290,
      "cdcdced": 4291,
      "aaaabbbab": 4292,
      "ghhhgfed": 4293,
      "ccfggf": 4294,
      "cbaaaaaaa": 4295,
      "hhhfe": 4296,
      "gfgfgef": 4297,
      "aabba": 4298,
      "cdeeeef": 4299,
      "cdedef": 4300,
      "cccddded": 4301,
      "eecddd": 4302,
      "ggggffggf": 4303,
      "eeeddeff": 4304,
      "aaabbaaaab": 4305,
      "gebaab": 4306,
      "aade": 4307,
      "ghed": 4308,
      "cccceff": 4309,
      "eegfff": 4310,
      "gfdeff": 4311,
      "eecfb": 4312,
      "dfgd": 4313,
      "bbbbbd": 4314,
      "ddfef": 4315,
      "ghgedf": 4316,
      "gfgfef": 4317,
      "ecdccd": 4318,
      "dfeb": 4319,
      "ggggfeed": 4320,
      "eefgggff": 4321,
      "ccbbbcbb": 4322,
      "gggfeeef": 4323,
      "ghhhgef": 4324,
      "gggede": 4325,
      "ccbaaaaaaab": 4326,
      "edddde": 4327,
      "ggghhhhhhhhhhhhhhhhhhhh": 4328,
      "ahahahahahahahahahahahahahahahah": 4329,
      "ccbced": 4330,
      "cccccccddddd": 4331,
      "Ġhf": 4332,
      "ghggghhhh": 4333,
      "eeddefff": 4334,
      "ggggggghhhhhhhh": 4335,
      "cbbbbbccd": 4336,
      "fffedd": 4337,
      "efdedd": 4338,
      "ggfh": 4339,
      "dbcef": 4340,
      "ccceddd": 4341,
      "eeeeddef": 4342,
      "Ġhhhhhhhhhhhhhhhhhhhhhhhhhhhhhhhhhhhhhhhhhhhhhhhhhhhhhhhhhhhhhhhhhhhhhhhhhhhhhhhhhhhhhhhhhhhhhhhhhhhhhhhhhhhhhhhhhhhhhhhhhhhhhhhhhhhhhhhhhhhhhhhhhhhhhhhhhhhhhhhhhhhhhhhhhhhhhhhhhhhhhhhhhhhhhhhh": 4343,
      "eeefffd": 4344,
      "gggghhhgf": 4345,
      "ggdef": 4346,
      "eeeeeeffffff": 4347,
      "eeeeeeeeeeed": 4348,
      "ccfed": 4349,
      "fffeed": 4350,
      "dfeed": 4351,
      "ccccbaab": 4352,
      "gghghghf": 4353,
      "abbdd": 4354,
      "gggghggff": 4355,
      "cecdcdd": 4356,
      "eeeddcd": 4357,
      "efedff": 4358,
      "cddddedd": 4359,
      "eefffdd": 4360,
      "hhgggf": 4361,
      "egfe": 4362,
      "Ġbbbbbbb": 4363,
      "hhgfff": 4364,
      "gecc": 4365,
      "ccccdcccd": 4366,
      "aaaaaaaaaaaaaaaaaabbb": 4367,
      "cbbbbccbb": 4368,
      "efdedf": 4369,
      "cccddeff": 4370,
      "abbbabbbb": 4371,
      "ccddeedd": 4372,
      "geddff": 4373,
      "dbca": 4374,
      "cdcdccd": 4375,
      "gggggggggghhh": 4376,
      "dfggff": 4377,
      "cbbbbbcd": 4378,
      "cbbbbbcdd": 4379,
      "eeced": 4380,
      "gghggggggf": 4381,
      "fffffffffffff": 4382,
      "efgfeef": 4383,
      "dcaaa": 4384,
      "cececf": 4385,
      "cbbcdddd": 4386,
      "gebd": 4387,
      "Ġdcb": 4388,
      "ghhhhhhhhhgh": 4389,
      "cdedbbb": 4390,
      "cfgggf": 4391,
      "hcgcf": 4392,
      "gaa": 4393,
      "effh": 4394,
      "ghhhhhhhgff": 4395,
      "eeeffedd": 4396,
      "ecbcdd": 4397,
      "cbcccccb": 4398,
      "ghggd": 4399,
      "cbbbbdd": 4400,
      "ghgfdd": 4401,
      "dfdgd": 4402,
      "ccaaaa": 4403,
      "eedddeed": 4404,
      "ggggghhhhhhhhhhh": 4405,
      "cbbccddd": 4406,
      "ccbbbbaab": 4407,
      "hahahahahahbf": 4408,
      "ccaaaaab": 4409,
      "hhhhhhhhhhhhhhhhhhhhhhhhhhhhhhh": 4410,
      "eddbd": 4411,
      "eeeedeff": 4412,
      "cdcba": 4413,
      "cbbbbbbd": 4414,
      "gegegef": 4415,
      "cbdcdd": 4416,
      "gbfcee": 4417,
      "dddccd": 4418,
      "eeffefff": 4419,
      "cbcbdbdb": 4420,
      "cccccccccddd": 4421,
      "cbbca": 4422,
      "gdhchc": 4423,
      "cbbe": 4424,
      "cfeb": 4425,
      "gghhgggh": 4426,
      "efefefff": 4427,
      "gggggffed": 4428,
      "eebd": 4429,
      "ggffeeef": 4430,
      "gfgfgfgff": 4431,
      "aaaabbaaab": 4432,
      "fafafa": 4433,
      "fge": 4434,
      "gfeed": 4435,
      "gggfffgff": 4436,
      "ececed": 4437,
      "cbdcdb": 4438,
      "hhhd": 4439,
      "eeecccd": 4440,
      "Ġddddd": 4441,
      "ggggggggggghh": 4442,
      "edfeed": 4443,
      "abcd": 4444,
      "gfggggfff": 4445,
      "geeded": 4446,
      "cbbcdb": 4447,
      "aaabbaabb": 4448,
      "fdff": 4449,
      "ccbcccbbb": 4450,
      "eeeffffffffff": 4451,
      "cgbgbhbhb": 4452,
      "eeedbbb": 4453,
      "gggfgggff": 4454,
      "gffffeef": 4455,
      "hfge": 4456,
      "ggggggfd": 4457,
      "aaaaaaabd": 4458,
      "gggecd": 4459,
      "ccbbaaaaab": 4460,
      "cdcdcccd": 4461,
      "cdcbabb": 4462,
      "aaaaaad": 4463,
      "hha": 4464,
      "gahaga": 4465,
      "cccccddddddd": 4466,
      "ccbbbbbbbbbbbbbbb": 4467,
      "cdggf": 4468,
      "cdcdcdb": 4469,
      "ggfffeef": 4470,
      "acabab": 4471,
      "efgfe": 4472,
      "gbeb": 4473,
      "gedeff": 4474,
      "cbbbaa": 4475,
      "ghhe": 4476,
      "cbbbc": 4477,
      "gahahahahb": 4478,
      "Ġggff": 4479,
      "gggdf": 4480,
      "cefeef": 4481,
      "aaaabbd": 4482,
      "geegf": 4483,
      "ceefef": 4484,
      "abdd": 4485,
      "ccccddef": 4486,
      "cgbhahahb": 4487,
      "gghhhhhhhhhhhhhhhhhhhhhhhhhhhhhhhhhhhhhhhhhhhhhhhhhhhhhhhh": 4488,
      "hggggf": 4489,
      "ghhhhgghhh": 4490,
      "ccfb": 4491,
      "cceecb": 4492,
      "cbbcff": 4493,
      "ggeefff": 4494,
      "ccbbbaaab": 4495,
      "aaaaaaaaaabbbbbb": 4496,
      "cddbaab": 4497,
      "cdcedd": 4498,
      "cbbaaaaaaaab": 4499,
      "ghhgge": 4500,
      "eeeedded": 4501,
      "ccbbbccdd": 4502,
      "ghgggggggf": 4503,
      "ebebebeb": 4504,
      "ghhggggff": 4505,
      "cddfef": 4506,
      "eeddccbb": 4507,
      "edbabb": 4508,
      "aaaaaaaaaaaaaaaaaaaaaaaaaaaaaaaaaaab": 4509,
      "cccaaab": 4510,
      "gggggfeef": 4511,
      "cdcdff": 4512,
      "dadaca": 4513,
      "cfcgd": 4514,
      "eeeffeff": 4515,
      "eccdb": 4516,
      "bbcdd": 4517,
      "cdcab": 4518,
      "eeffeddd": 4519,
      "cbbceff": 4520,
      "ebaabb": 4521,
      "abad": 4522,
      "ghhhghhhhhh": 4523,
      "eedfc": 4524,
      "aaaaabaaaab": 4525,
      "cceedb": 4526,
      "bbbcdd": 4527,
      "effffedd": 4528,
      "ghghgf": 4529,
      "abbbbd": 4530,
      "gffddd": 4531,
      "eeeeeeeeedd": 4532,
      "hfhfhfhf": 4533,
      "cbbbcccc": 4534,
      "caaaaaaaaab": 4535,
      "aaaaaaaaabab": 4536,
      "ghggfd": 4537,
      "cdddeeed": 4538,
      "edeced": 4539,
      "ghhhhhhhhhhhhhhhhhhhhhhhhhhhhhhhhh": 4540,
      "cccccccccd": 4541,
      "hhgfd": 4542,
      "deccb": 4543,
      "gghhhhhhggf": 4544,
      "cdddccbb": 4545,
      "cdcdcdddd": 4546,
      "aaaaaaaaaaaabbbbb": 4547,
      "aaaaabbab": 4548,
      "ghhhgghhhh": 4549,
      "dbccd": 4550,
      "gggghhhhhhhhhhhhhhhhhhhhhhhhhhhhhhhh": 4551,
      "gefefef": 4552,
      "gfffffffffffff": 4553,
      "cbee": 4554,
      "cbbbbccdd": 4555,
      "eghhhhh": 4556,
      "gegfgff": 4557,
      "eeeeeeeedddd": 4558,
      "edefggf": 4559,
      "acdd": 4560,
      "eeedddef": 4561,
      "eeeeeeeddddd": 4562,
      "cdcdccb": 4563,
      "Ġaabb": 4564,
      "ddddff": 4565,
      "eccdff": 4566,
      "ceghf": 4567,
      "ccccdee": 4568,
      "gfgggghh": 4569,
      "edfgff": 4570,
      "effefef": 4571,
      "egfee": 4572,
      "ccccee": 4573,
      "eeefeeff": 4574,
      "cedcd": 4575,
      "ebbab": 4576,
      "ggdc": 4577,
      "dfefef": 4578,
      "cccfff": 4579,
      "ccccbcdd": 4580,
      "ddec": 4581,
      "gggggggggggffff": 4582,
      "cdbabb": 4583,
      "egfb": 4584,
      "efdeded": 4585,
      "caaaaaabb": 4586,
      "gchc": 4587,
      "cbbbbbbabb": 4588,
      "ccedddd": 4589,
      "cbbccbbbb": 4590,
      "ccbcde": 4591,
      "gghhgd": 4592,
      "ghgfee": 4593,
      "ggghhhhf": 4594,
      "gggedb": 4595,
      "hfggf": 4596,
      "caabbbb": 4597,
      "ggggggfffffff": 4598,
      "cefb": 4599,
      "eefffe": 4600,
      "ccdedcb": 4601,
      "cbcced": 4602,
      "ceghhhh": 4603,
      "eeddeeff": 4604,
      "hhe": 4605,
      "ggghghghgh": 4606,
      "effffe": 4607,
      "cbff": 4608,
      "cceeb": 4609,
      "cfhhf": 4610,
      "ccddcddd": 4611,
      "gggghgggf": 4612,
      "aaaaaaaaaaaaaaaaaaaaaaaaabb": 4613,
      "effffffffffffffffffff": 4614,
      "aaaabaaaab": 4615,
      "gbgcfdeedf": 4616,
      "eedecd": 4617,
      "aaaaaaaaaaaaaaaaaaaaaaaaaaaaaaaaab": 4618,
      "gahahagbfcedd": 4619,
      "geefgf": 4620,
      "ebca": 4621,
      "ghhhhhhhhhhhhhhhhhhhhhhhhhhhhhhhhhhhhhh": 4622,
      "gghgfed": 4623,
      "ecbcef": 4624,
      "gggghghf": 4625,
      "dfhhhh": 4626,
      "dbcdd": 4627,
      "cccddcdd": 4628,
      "gggde": 4629,
      "efffddd": 4630,
      "cbbcccbbb": 4631,
      "bbbabb": 4632,
      "gggggggggfffff": 4633,
      "ggffffed": 4634,
      "gcfcfd": 4635,
      "edddeded": 4636,
      "ggggghhgf": 4637,
      "cbbbcdef": 4638,
      "Ġhhhhhhhhhh": 4639,
      "eddfed": 4640,
      "ghhgdd": 4641,
      "ebce": 4642,
      "gghhgghhh": 4643,
      "aaabbbbbbbbbbb": 4644,
      "Ġhhhhhhhhhhhhhhhhhhhhhhhhhhhhhhhhhhhhhhhhhhhhhhhh": 4645,
      "ceeeedd": 4646,
      "gffde": 4647,
      "bbbf": 4648,
      "eeddccdd": 4649,
      "ghgeff": 4650,
      "dfdbb": 4651,
      "edddccb": 4652,
      "eeeeeeeeeff": 4653,
      "ddfb": 4654,
      "aaaaaaaaaaaaaaaaa": 4655,
      "cbcbdcd": 4656,
      "ccfh": 4657,
      "gggghhggf": 4658,
      "cbcabb": 4659,
      "ccccdeef": 4660,
      "gggggged": 4661,
      "ccbbcef": 4662,
      "gddgb": 4663,
      "edddccdd": 4664,
      "ggghhhhhgf": 4665,
      "eeefffgf": 4666,
      "edddcddd": 4667,
      "eddddeed": 4668,
      "cbcbbbbbbbbbb": 4669,
      "cedbab": 4670,
      "cfg": 4671,
      "hhhhhggf": 4672,
      "bbbbbbbbbbbbbbbbbbbbbb": 4673,
      "aaabbbaaab": 4674,
      "cccbcddd": 4675,
      "dbaaabb": 4676,
      "dbdcd": 4677,
      "Ġbab": 4678,
      "cbcbcbcccc": 4679,
      "ccccccccccccb": 4680,
      "Ġcbb": 4681,
      "ggfffgfff": 4682,
      "aaaaaabbbbbbbb": 4683,
      "gffffgggf": 4684,
      "gcaa": 4685,
      "cbbbaaaaab": 4686,
      "cghhh": 4687,
      "ccdbab": 4688,
      "efgfee": 4689,
      "eedfgf": 4690,
      "egee": 4691,
      "ghhgfgf": 4692,
      "eccce": 4693,
      "eeedccdd": 4694,
      "geba": 4695,
      "ccffd": 4696,
      "ggffggggf": 4697,
      "cceeeed": 4698,
      "ghhhgggff": 4699,
      "efdgd": 4700,
      "cddddff": 4701,
      "cbbbbbbbbbbbbbbbbb": 4702,
      "cccbcccbb": 4703,
      "cffb": 4704,
      "ggghhhhhhhhhhhhhhhhhhh": 4705,
      "ecgd": 4706,
      "hhgee": 4707,
      "ddcef": 4708,
      "eddcbbbb": 4709,
      "eeeffgggf": 4710,
      "eeddfff": 4711,
      "ccefef": 4712,
      "eeeeecd": 4713,
      "cddce": 4714,
      "cccdeeff": 4715,
      "gffffffgf": 4716,
      "ecccef": 4717,
      "ebfa": 4718,
      "cccccdcdd": 4719,
      "eghhf": 4720,
      "ggffeeff": 4721,
      "cddfed": 4722,
      "cbaaaaaaaaaab": 4723,
      "eeeefgff": 4724,
      "gghhhhhgff": 4725,
      "ccdccddd": 4726,
      "eeeddddddddd": 4727,
      "gfdcdf": 4728,
      "ggggffeff": 4729,
      "ghhhhghhhh": 4730,
      "eeffffd": 4731,
      "cccbaa": 4732,
      "eefffee": 4733,
      "ggghhhgff": 4734,
      "cfceb": 4735,
      "ddegf": 4736,
      "cbbaabbbb": 4737,
      "gggggffgf": 4738,
      "hghhhhh": 4739,
      "hhgfe": 4740,
      "ccdeeeed": 4741,
      "cfegf": 4742,
      "eeeeeeeeeeef": 4743,
      "aaaaaaaabbbbbbb": 4744,
      "eaeada": 4745,
      "eeeeeddddddd": 4746,
      "edededededed": 4747,
      "gedbbb": 4748,
      "dbbaab": 4749,
      "edecece": 4750,
      "ceghgf": 4751,
      "cccdcbbb": 4752,
      "aaabdf": 4753,
      "ccbbbccbb": 4754,
      "eeeffeed": 4755,
      "edcbaab": 4756,
      "gcgcgc": 4757,
      "cbcbbbbbbbbb": 4758,
      "eccef": 4759,
      "Ġaaaaab": 4760,
      "cccddeed": 4761,
      "cdfedd": 4762,
      "effffgggf": 4763,
      "ghhhhhhghf": 4764,
      "gfgfgfgggg": 4765,
      "efdcd": 4766,
      "cddcccc": 4767,
      "gbgbfb": 4768,
      "ggggggggffffff": 4769,
      "ghef": 4770,
      "ghhhggfff": 4771,
      "hehehfh": 4772,
      "gfdccd": 4773,
      "ggggfffgf": 4774,
      "gfffedd": 4775,
      "eeeddeed": 4776,
      "cedddddd": 4777,
      "dcabb": 4778,
      "hgghh": 4779,
      "abaabb": 4780,
      "cbbbbabbbb": 4781,
      "ggggggfgff": 4782,
      "ggggggef": 4783,
      "ccdcccccccc": 4784,
      "gggeddd": 4785,
      "eeeeefe": 4786,
      "cccbccccd": 4787,
      "eeddde": 4788,
      "ghhhhhhhhhhhhhhhhhhhhhhhhhhhhhhhhhhhh": 4789,
      "eefeee": 4790,
      "hhhhhhhhhhhhhhhhhhhhhhhhhhhh": 4791,
      "bbc": 4792,
      "eeffffffffff": 4793,
      "edcdeff": 4794,
      "ghhhhhhhhhhhhhhhhhhhhhhhhhhhhhhhhhhhhhhhhhhhh": 4795,
      "ddgf": 4796,
      "ccdcccbb": 4797,
      "ghhhfff": 4798,
      "eeefeeed": 4799,
      "hghff": 4800,
      "hfgd": 4801,
      "eeeeeeeeeeee": 4802,
      "aaaaabbbbbbbbb": 4803,
      "gagbgbf": 4804,
      "cefge": 4805,
      "ccbcbbbbbb": 4806,
      "gghggfgf": 4807,
      "cbbbccccd": 4808,
      "ddbaa": 4809,
      "Ġbd": 4810,
      "eeeefffffffff": 4811,
      "gghgef": 4812,
      "cddddcdd": 4813,
      "effffffef": 4814,
      "debbb": 4815,
      "cdcee": 4816,
      "eeeddeef": 4817,
      "ghhhhhhhhhhgf": 4818,
      "dddcbb": 4819,
      "ggfdef": 4820,
      "aaaaaba": 4821,
      "ccbaaaaabb": 4822,
      "aaaaaaaaaaaaaaaaaaaaaaaaaaaaaaaaaaaaaaaab": 4823,
      "abbbaaaab": 4824,
      "ghhgedd": 4825,
      "ghggggfff": 4826,
      "ggggeff": 4827,
      "cbcedd": 4828,
      "dfedd": 4829,
      "dbcbd": 4830,
      "gghghghgh": 4831,
      "ghhhhhhhhhhhhhhhhhhhhhhhhhhhhhhhhhh": 4832,
      "ceeeeff": 4833,
      "cccbbbbbbbbbbbbb": 4834,
      "cdcbcb": 4835,
      "gggedef": 4836,
      "efecbb": 4837,
      "cbcdee": 4838,
      "hhhhgd": 4839,
      "cededdd": 4840,
      "eeffggggf": 4841,
      "cccbcbbbbb": 4842,
      "cccbbaaab": 4843,
      "cabaaaaaab": 4844,
      "cabbd": 4845,
      "eeedeedd": 4846,
      "ggggghhhhhhhhhhhh": 4847,
      "gghhhge": 4848,
      "caaad": 4849,
      "haga": 4850,
      "eeededf": 4851,
      "gfgfggggf": 4852,
      "gfedbb": 4853,
      "cabaaab": 4854,
      "cddedddd": 4855,
      "eeeefeef": 4856,
      "cbcccddd": 4857,
      "ebdcd": 4858,
      "aabbbd": 4859,
      "ceddedf": 4860,
      "cbbbbbbbab": 4861,
      "cgff": 4862,
      "ebece": 4863,
      "cedcbb": 4864,
      "efeccd": 4865,
      "ddccbbb": 4866,
      "effge": 4867,
      "cccdcccdd": 4868,
      "cddddeed": 4869,
      "gggggfe": 4870,
      "aaaaaaaaaaaaaaabbbb": 4871,
      "cbaabbbbb": 4872,
      "cdefe": 4873,
      "fgd": 4874,
      "efeee": 4875,
      "ddeeef": 4876,
      "cdbccd": 4877,
      "gefefff": 4878,
      "eddce": 4879,
      "dehh": 4880,
      "degg": 4881,
      "gghhgfd": 4882,
      "ghhhhhhhhhhhhhhhhhhhhhhhhhhhhhhhhhhhhhhhhhh": 4883,
      "aaaaaaaaaaaaaaaaaaaaaaaaaaabb": 4884,
      "hgdb": 4885,
      "eddefed": 4886,
      "hhhgh": 4887,
      "eceee": 4888,
      "cbbcdbb": 4889,
      "cbcbcbdb": 4890,
      "cdfggff": 4891,
      "cefeed": 4892,
      "aaaaaaaaaaaaaaaaaaaabbb": 4893,
      "gfffggggf": 4894,
      "cbbbbaaaab": 4895,
      "eeefeffff": 4896,
      "cdfecb": 4897,
      "dffef": 4898,
      "gggghgggh": 4899,
      "cbddb": 4900,
      "cbbbbbaaab": 4901,
      "ccaba": 4902,
      "cbbbbccb": 4903,
      "ccdedddd": 4904,
      "gghghgf": 4905,
      "dedeed": 4906,
      "ecedf": 4907,
      "cceffed": 4908,
      "eecef": 4909,
      "eedddcdd": 4910,
      "cdegff": 4911,
      "eeeeeeeeffff": 4912,
      "ggffgggff": 4913,
      "ccddfff": 4914,
      "cdffgf": 4915,
      "cecfdf": 4916,
      "cbccbbbbb": 4917,
      "eeedcbbb": 4918,
      "cdcccddd": 4919,
      "dddfd": 4920,
      "gggggggghhhhhh": 4921,
      "gfgfge": 4922,
      "cfffff": 4923,
      "abbaabb": 4924,
      "gghggffff": 4925,
      "cbbabd": 4926,
      "edece": 4927,
      "gegfh": 4928,
      "aaaaaaaaaaaaaaaaabbb": 4929,
      "eeedefff": 4930,
      "ddeggf": 4931,
      "ggdbbb": 4932,
      "cbcccbcb": 4933,
      "aaaaaaaaaaaaaaaaaaaaaaaaaabb": 4934,
      "aabaaaab": 4935,
      "ccbbcccbb": 4936,
      "cddfgf": 4937,
      "gggfh": 4938,
      "dddddddddddddd": 4939,
      "efgd": 4940,
      "dbaaaaaab": 4941,
      "ghhhhggggf": 4942,
      "chf": 4943,
      "cbccef": 4944,
      "eeddcccdd": 4945,
      "gcee": 4946,
      "eccff": 4947,
      "egfggf": 4948,
      "eddfggf": 4949,
      "cdcccccd": 4950,
      "eeedfff": 4951,
      "edbaa": 4952,
      "cbccdf": 4953,
      "cedccd": 4954,
      "ccccddb": 4955,
      "eeddcbb": 4956,
      "cedded": 4957,
      "geedff": 4958,
      "cdccbcb": 4959,
      "cccdeddd": 4960,
      "gbfceed": 4961,
      "cddecd": 4962,
      "cbbbccccb": 4963,
      "eeefgfff": 4964,
      "ddefd": 4965,
      "cdcbbbbbb": 4966,
      "eeeeeedf": 4967,
      "ccdedbb": 4968,
      "cdccc": 4969,
      "cfeff": 4970,
      "ccddefff": 4971,
      "efggfef": 4972,
      "cfecb": 4973,
      "ggghghh": 4974,
      "haa": 4975,
      "ddeddd": 4976,
      "cccccbbbbbbbbb": 4977,
      "eedccbbb": 4978,
      "ggfffggff": 4979,
      "gfgggggggf": 4980,
      "cfce": 4981,
      "ccccdedd": 4982,
      "eccdef": 4983,
      "cbbbbbbbbbbbbbbbbbb": 4984,
      "edededf": 4985,
      "ccdddff": 4986,
      "decdcd": 4987,
      "gddff": 4988,
      "geeffff": 4989,
      "cbbcbd": 4990,
      "aaaaaaaaaaaaaaaaaaaaaaaaaaaaaaaaaaaaaaaaaab": 4991,
      "cedeedf": 4992,
      "gggghhhhhhhhhhhhhhhhhhhhhhhhhhhhhhhhhhhhhhhhhhhhhhhhhhhhhhhhhhhhhhhh": 4993,
      "cdeffed": 4994,
      "cfged": 4995,
      "ggghgghh": 4996,
      "ccbaaabbb": 4997,
      "gghghhhhhhhh": 4998,
      "cdddcccdd": 4999,
      "eecbbbb": 5000,
      "cbcbaab": 5001,
      "cabababb": 5002,
      "gghhhhhhhhhhhhhhhhhhhhhhhhhhhhhhhhhhhhhhhhhhhhhhhhhhhhhhhhhhhhhhhhhhhhhhhhhhhhhhhhhhhhhhhhhhhhhhhhhhhhhhhhhhhhhhhhhhhhhhhhhhhhhhhh": 5003,
      "fggf": 5004,
      "gggggghhhhhhhhh": 5005,
      "eefhh": 5006,
      "dbde": 5007,
      "cccccccbbbbbb": 5008,
      "hgfef": 5009,
      "cbcbca": 5010,
      "cdcbaaab": 5011,
      "gggfeddd": 5012,
      "ghhhgfef": 5013,
      "ababbbbbbbbb": 5014,
      "eecdb": 5015,
      "ggecbb": 5016,
      "cdeedb": 5017,
      "cbcddb": 5018,
      "ffffggf": 5019,
      "efefeef": 5020,
      "eeddddded": 5021,
      "hcfd": 5022,
      "aaaaaaaaaaaaaaaaaaaaaaaaaaaaaaaab": 5023,
      "cbababb": 5024,
      "ghgggggggggggg": 5025,
      "cbbbaaa": 5026,
      "gghghhhhhhh": 5027,
      "ebaaaa": 5028,
      "gggggfeff": 5029,
      "abaaabb": 5030,
      "effffgfff": 5031,
      "ghhhhhhhhhhhhhhhhhhhhhhhhhhhhhhhhhhhhhhh": 5032,
      "gfhgh": 5033,
      "cbccbcb": 5034,
      "gggffffffffff": 5035,
      "cbcbcbbbbb": 5036,
      "gfdce": 5037,
      "ccccdbb": 5038,
      "gggfffd": 5039,
      "eeeeffef": 5040,
      "fhhhh": 5041,
      "egfgef": 5042,
      "egfge": 5043,
      "ddddded": 5044,
      "cdfgg": 5045,
      "cebab": 5046,
      "hege": 5047,
      "efefdd": 5048,
      "cbbbaabbb": 5049,
      "cbaba": 5050,
      "hhhhhhhhhhhhhhhhhhhhhhhhhhhhhh": 5051,
      "aaaaaaaaaaaaaaaaaaaaaaaaaaaaaaaaaaaaaaaaaaaab": 5052,
      "cbbabbbbbb": 5053,
      "gggdbb": 5054,
      "hehfh": 5055,
      "Ġfef": 5056,
      "ccddccbb": 5057,
      "ggghhhhhf": 5058,
      "cbaaaaabbb": 5059,
      "ghhhghf": 5060,
      "gggeedd": 5061,
      "cdfdb": 5062,
      "cbbbdef": 5063,
      "ebecd": 5064,
      "ccebb": 5065,
      "ccdccbbbb": 5066,
      "ccbbaa": 5067,
      "eefffefff": 5068,
      "ceeeeed": 5069,
      "cbbaaaaaabb": 5070,
      "gggghggggf": 5071,
      "cbcbdd": 5072,
      "fffffed": 5073,
      "efffffgff": 5074,
      "gfdee": 5075,
      "gghhhgghh": 5076,
      "cbbdcb": 5077,
      "egfeef": 5078,
      "hhhged": 5079,
      "gagagafb": 5080,
      "cdccbbbbb": 5081,
      "gheb": 5082,
      "cdefdd": 5083,
      "cbdde": 5084,
      "effedf": 5085,
      "dbda": 5086,
      "effffee": 5087,
      "eeeedeeed": 5088,
      "gggggfgfff": 5089,
      "hhhhhhhhhhhhhhhhhhhhhhhhh": 5090,
      "Ġcccd": 5091,
      "ggggggggghhhh": 5092,
      "deccd": 5093,
      "ccbbbccb": 5094,
      "gddef": 5095,
      "cfcgc": 5096,
      "ccdddcccd": 5097,
      "ggebbb": 5098,
      "gdgdgdgd": 5099,
      "cbcbbabb": 5100,
      "ggfggggf": 5101,
      "eddddccd": 5102,
      "ceffgf": 5103,
      "gahbhb": 5104,
      "ecdeed": 5105,
      "cfdgd": 5106,
      "ghhhhhgd": 5107,
      "Ġhhhhhhhhhhh": 5108,
      "eeeedeed": 5109,
      "ccedcd": 5110,
      "cccedf": 5111,
      "ccdddccd": 5112,
      "ceffef": 5113,
      "gggffefff": 5114,
      "abaa": 5115,
      "gbgbgbgb": 5116,
      "cccdde": 5117,
      "gfffffed": 5118,
      "acef": 5119,
      "cddeeee": 5120,
      "aea": 5121,
      "ceg": 5122,
      "aabbabbb": 5123,
      "ggghhhhhhhhhhhhhhhhhhhhhhhhhhhhhhhhhhhhhhhhhhhhhhhh": 5124,
      "aaacef": 5125,
      "edddeeedd": 5126,
      "ggghhhhhhhhhhhhhhhhhhhhh": 5127,
      "aaaaaaaaaaaaaaaaaaaaaaaaaaaaaaaaaaaaaab": 5128,
      "eefffeedd": 5129,
      "ggggggfgfgf": 5130,
      "gfgffff": 5131,
      "hhggff": 5132,
      "eeeefedd": 5133,
      "cdefee": 5134,
      "ggggggffffffff": 5135,
      "edbaaaab": 5136,
      "gffeee": 5137,
      "gghhged": 5138,
      "eeeefe": 5139,
      "geffef": 5140,
      "cddedf": 5141,
      "ceecbb": 5142,
      "cddcdb": 5143,
      "gfgffd": 5144,
      "cddc": 5145,
      "ccdddeff": 5146,
      "eaab": 5147,
      "hfhd": 5148,
      "gggghhhhhhhhhhhhhhh": 5149,
      "ggghhhhhhhhhhhhhhhhhhhhhh": 5150,
      "cccddccd": 5151,
      "ecbaabb": 5152,
      "cccbbccd": 5153,
      "ecced": 5154,
      "hhgh": 5155,
      "efefeffff": 5156,
      "cbdeff": 5157,
      "febb": 5158,
      "dbabd": 5159,
      "ccccbbd": 5160,
      "eddede": 5161,
      "eefggfff": 5162,
      "chhh": 5163,
      "cdcccbbb": 5164,
      "gggfgffff": 5165,
      "fbab": 5166,
      "ebfd": 5167,
      "eddced": 5168,
      "ghghghhh": 5169,
      "geeefff": 5170,
      "ade": 5171,
      "eeffeeed": 5172,
      "fffffef": 5173,
      "eeeefefff": 5174,
      "Ġhhhhhhhhh": 5175,
      "gghgffff": 5176,
      "cdcddddddd": 5177,
      "ebebfb": 5178,
      "cccbabbb": 5179,
      "geddb": 5180,
      "gggfefff": 5181,
      "dddddf": 5182,
      "ggfeddd": 5183,
      "cfggff": 5184,
      "eeffgggff": 5185,
      "ghfed": 5186,
      "efffffeff": 5187,
      "ggfeee": 5188,
      "ecbdd": 5189,
      "gfedeff": 5190,
      "dfdfef": 5191,
      "abababbbbb": 5192,
      "aaaaaaaaaaaaaaaaaaaaaaaaaaaaaaaaaaaaaaaaaaaaaaaaaaaaaaaaaaaaaaaaaaaaaaaaaaaaaaaaaaaaaaaaaaaa": 5193,
      "ggfdcb": 5194,
      "ccccdcddd": 5195,
      "ghghhhhhhhhhhhhhhhhhhhhhhhhhhhhhhhhhhhhhhhhhhhhhhhhhhhhhhhhhhhhhhhh": 5196,
      "dededdd": 5197,
      "ecbbab": 5198,
      "Ġaa": 5199,
      "eedcccc": 5200,
      "gghhhghhh": 5201,
      "eedeeee": 5202,
      "aaaaaaaaaaaaaaaaaaaaaaaaaa": 5203,
      "Ġccb": 5204,
      "hhhhhhhhf": 5205,
      "eefgfd": 5206,
      "cegfe": 5207,
      "gghhhhhhhhgf": 5208,
      "ebaaaaab": 5209,
      "ghhhhgh": 5210,
      "hed": 5211,
      "eeddeddd": 5212,
      "ggecdf": 5213,
      "ghhhhhhhhhhhhhhhhhhhhhhhhhhhhhhhhhhhhhhhhhhhhhh": 5214,
      "eeefggggf": 5215,
      "dddccb": 5216,
      "ghhhhhgfd": 5217,
      "gggghhhf": 5218,
      "ddddddddddddddddd": 5219,
      "aaaaaaaaaaaaaaaaaaaaaaaaaaaaaaaaaaaaaaaaaaaaaab": 5220,
      "ccccdccb": 5221,
      "faf": 5222,
      "cfcgcgc": 5223,
      "gfffgggff": 5224,
      "ggeffff": 5225,
      "ccccccccccb": 5226,
      "efefee": 5227,
      "ddced": 5228,
      "cdefedd": 5229,
      "cbbbcccdd": 5230,
      "ccbbcbbbb": 5231,
      "eeeeffd": 5232,
      "cdcaab": 5233,
      "gggggffffffff": 5234,
      "aababbb": 5235,
      "aaabbaaabb": 5236,
      "gecf": 5237,
      "cccccdded": 5238,
      "ccbbcf": 5239,
      "ghgggghhh": 5240,
      "cceddb": 5241,
      "cbccccccd": 5242,
      "gbgcfd": 5243,
      "cccccccccccb": 5244,
      "ghgdf": 5245,
      "ggghhgggf": 5246,
      "abacb": 5247,
      "hhhhhhhhhhhhhhhhhhhhhhhhhhhhhhhhhhh": 5248,
      "gdab": 5249,
      "effefd": 5250,
      "dcbaa": 5251,
      "Ġffffff": 5252,
      "ghgghhhhh": 5253,
      "gggggghhhhhhhhhh": 5254,
      "cccdcdb": 5255,
      "gbhbhb": 5256,
      "ghhhhghhhhh": 5257,
      "edfhh": 5258,
      "ecbaa": 5259,
      "cccbbbbab": 5260,
      "accd": 5261,
      "Ġgfff": 5262,
      "gggebb": 5263,
      "cbbbccddd": 5264,
      "ggggggggggggggff": 5265,
      "caaabd": 5266,
      "egdb": 5267,
      "hhhhfd": 5268,
      "aaaaaaaaaaaaaaaabbbb": 5269,
      "ccbabd": 5270,
      "cdefffff": 5271,
      "cdegggf": 5272,
      "ddffff": 5273,
      "effde": 5274,
      "ghgfeef": 5275,
      "fagagagafb": 5276,
      "Ġhhhhhhhhhhhhhhhhhhhhhhhhhhhhhhhhhhhhhhhhhhhhhhhhhhhhhhhh": 5277,
      "eddcccb": 5278,
      "ghhhgee": 5279,
      "cebdbdb": 5280,
      "edfcgb": 5281,
      "cddcbbbbb": 5282,
      "cbdced": 5283,
      "aaaaaaababb": 5284,
      "gghgggfff": 5285,
      "eefffgggf": 5286,
      "eaca": 5287,
      "aaaaac": 5288,
      "egb": 5289,
      "aaaaaaaaaaaaaaaaaaaaaaaaaaa": 5290,
      "Ġhhhhhhhhhhhh": 5291,
      "aaaaaaaaaaaaaaaaaaabbb": 5292,
      "bbde": 5293,
      "hchbhbhb": 5294,
      "ggeccd": 5295,
      "ghhhhhhhhhhhhhhhhhhhhhhhhhhhhhhhhhhhhhhhhhhhhhhhhhhhhhhhhhhhhhhhhhhhhhhhhhhhhhhhhhhhhhhhhhhhhhhhhhhhhhhhhhhhhhhhhhhhhhhhhhhhhhhhhhhhhhhhhhhhhhhhhhhhhhhhhhhhhhhhhhhhhhhhhhhhhhhhhhhhhhhhhhhhhhhhh": 5296,
      "cdfeed": 5297,
      "ehgf": 5298,
      "gghhhhggff": 5299,
      "aaaaaabaab": 5300,
      "gfdf": 5301,
      "ccbdef": 5302,
      "aaaabdf": 5303,
      "gbfcfd": 5304,
      "gdddf": 5305,
      "ggggggggggghhh": 5306,
      "ccccccccbbbbb": 5307,
      "ghhhhhhge": 5308,
      "bbbbbbbbbbbbbbbbbbbbbbb": 5309,
      "cccccbbbbbbbbbb": 5310,
      "gghhhhhhhhhhhhhhhhhhhhhhhhhhh": 5311,
      "cccdddef": 5312,
      "eeeefeeef": 5313,
      "caaaabbb": 5314,
      "cbcbcbbbbbb": 5315,
      "cdefgff": 5316,
      "abbbbbabb": 5317,
      "aaaaaaabbbbbbbb": 5318,
      "eddeeee": 5319,
      "ecdced": 5320,
      "gefefd": 5321,
      "ggefggf": 5322,
      "gbfceedf": 5323,
      "eccded": 5324,
      "ccddcccdd": 5325,
      "cffdb": 5326,
      "ggggfggff": 5327,
      "ggffffd": 5328,
      "cdccccdd": 5329,
      "ddddddddddddddd": 5330,
      "gegegegf": 5331,
      "hchdhd": 5332,
      "ccddddded": 5333,
      "gggggeef": 5334,
      "bbbccd": 5335,
      "eefffeeef": 5336,
      "Ġdff": 5337,
      "ddcccb": 5338,
      "cbcbcbcbb": 5339,
      "aabbaaa": 5340,
      "gfecbb": 5341,
      "eddefd": 5342,
      "ccbded": 5343,
      "gghgggggff": 5344,
      "cbdeed": 5345,
      "ghhhhghh": 5346,
      "ghhhhgggh": 5347,
      "ehhhf": 5348,
      "eggfff": 5349,
      "dfdfdfd": 5350,
      "cdccccbb": 5351,
      "gfffgffff": 5352,
      "cbdcdcd": 5353,
      "aaaace": 5354,
      "ggghhhhggf": 5355,
      "edecdd": 5356,
      "cdcdbdb": 5357,
      "gbgbfcf": 5358,
      "abaaa": 5359,
      "gghgghhhh": 5360,
      "gghhhhhhhf": 5361,
      "eedbd": 5362,
      "ddcccc": 5363,
      "ecfcfb": 5364,
      "effggfff": 5365,
      "eeedcddd": 5366,
      "ggghhhhhhhhhhhhhhhhh": 5367,
      "eddccddd": 5368,
      "ccfef": 5369,
      "ececf": 5370,
      "gggggghggf": 5371,
      "gggggedd": 5372,
      "eeeeeffffffff": 5373,
      "eeeededdd": 5374,
      "gghhhhhhhhhgf": 5375,
      "edecdcd": 5376,
      "edefgff": 5377,
      "ecccf": 5378,
      "cababaab": 5379,
      "hhhgggf": 5380,
      "eeedeeef": 5381,
      "ecdfff": 5382,
      "abbccd": 5383,
      "cccccccdddddd": 5384,
      "gedcd": 5385,
      "ghhhhhhghghghgh": 5386,
      "ccccccccccddd": 5387,
      "aabbbbbbbbbbbb": 5388,
      "ggfdbb": 5389,
      "ccbaabbbb": 5390,
      "eafb": 5391,
      "cecc": 5392,
      "cbcaca": 5393,
      "eefh": 5394,
      "gggffgfff": 5395,
      "ccfge": 5396,
      "ggggggggggfgf": 5397,
      "dbabbb": 5398,
      "cbaad": 5399,
      "eedbbbb": 5400,
      "ccbbbcccd": 5401,
      "eefffffffffff": 5402,
      "ecgbhahaha": 5403,
      "ggdff": 5404,
      "caaaaaaaaaab": 5405,
      "cbbbbcddd": 5406,
      "ggggffgff": 5407,
      "cecde": 5408,
      "gghggef": 5409,
      "cdedccd": 5410,
      "egffff": 5411,
      "cbbbded": 5412,
      "ccccccdddddd": 5413,
      "dbcdf": 5414,
      "cccddddddddd": 5415,
      "ccccdccd": 5416,
      "dcbcd": 5417,
      "effffffgf": 5418,
      "eefeeee": 5419,
      "cfcfdf": 5420,
      "gggfddd": 5421,
      "eefeeddd": 5422,
      "eefeeeff": 5423,
      "hhhhhgff": 5424,
      "gggghhgff": 5425,
      "efffggggf": 5426,
      "eeddbbb": 5427,
      "Ġfed": 5428,
      "ddcdb": 5429,
      "abbabbb": 5430,
      "efedeff": 5431,
      "ededededd": 5432,
      "Ġaaaaaab": 5433,
      "ggggggggggfffff": 5434,
      "aaababab": 5435,
      "defgff": 5436,
      "cddbd": 5437,
      "ebfafa": 5438,
      "ceddbb": 5439,
      "ccbcdddd": 5440,
      "gggggfedd": 5441,
      "geedef": 5442,
      "cbbdee": 5443,
      "eeba": 5444,
      "cbbceed": 5445,
      "gegegfgf": 5446,
      "eebaab": 5447,
      "eecdcd": 5448,
      "cbbaaaaa": 5449,
      "eefded": 5450,
      "aabbaaabb": 5451,
      "ehd": 5452,
      "gggggghf": 5453,
      "gggggggggfgf": 5454,
      "cbdfff": 5455,
      "ghhhhhgfff": 5456,
      "eeededddd": 5457,
      "cbbbbcccd": 5458,
      "gghhg": 5459,
      "ecedde": 5460,
      "cddccddd": 5461,
      "ecdded": 5462,
      "ghhhggghhh": 5463,
      "ccccbcbbb": 5464,
      "caaabbbb": 5465,
      "gghgggggggf": 5466,
      "aaaaaaaaabbbbbbb": 5467,
      "dfhf": 5468,
      "cefgfd": 5469,
      "gchd": 5470,
      "cbbbdff": 5471,
      "fffffd": 5472,
      "cdcce": 5473,
      "eeedeeedd": 5474,
      "ghghghgggg": 5475,
      "ghhhhhhff": 5476,
      "eefffeeff": 5477,
      "cgef": 5478,
      "eedcccb": 5479,
      "cbdccb": 5480,
      "ccceffff": 5481,
      "aaaaaaaaaaaaaaaaaaaaaaaaaaaaaaaaaaaaab": 5482,
      "fdee": 5483,
      "ccccccdb": 5484,
      "cedfff": 5485,
      "ccccccccccccccd": 5486,
      "cbdce": 5487,
      "gfgfgfgfgfgf": 5488,
      "ccbbde": 5489,
      "efffeee": 5490,
      "cedcb": 5491,
      "aaaaaaaaaaaaaaaaaaaaaaaaaaaaaaaaaab": 5492,
      "cabacb": 5493,
      "cceeeef": 5494,
      "cdccccccd": 5495,
      "gfggggf": 5496,
      "cbbbbbbaab": 5497,
      "ggeedf": 5498,
      "abaaaaab": 5499,
      "gggfeedd": 5500,
      "cabbbbbb": 5501,
      "aaaaaaaaaaaaaabbbbb": 5502,
      "ccbbbbccd": 5503,
      "ccccbcbb": 5504,
      "edddedddd": 5505,
      "cdddcdcd": 5506,
      "aaaaaaaaaaabbbbbb": 5507,
      "ccbbaabbb": 5508,
      "gggggffd": 5509,
      "Ġggggf": 5510,
      "eddcdf": 5511,
      "ddddde": 5512,
      "hfgfgf": 5513,
      "ceged": 5514,
      "dfged": 5515,
      "gggggeff": 5516,
      "effecb": 5517,
      "cdedff": 5518,
      "eeeeeeefef": 5519,
      "ecaaaaab": 5520,
      "aaaaaaabaab": 5521,
      "effdbb": 5522,
      "ebabd": 5523,
      "edddeee": 5524,
      "gagagaga": 5525,
      "ccbbaaa": 5526,
      "eedddee": 5527,
      "gghhhgfff": 5528,
      "eccddd": 5529,
      "eedccddd": 5530,
      "gdhd": 5531,
      "cdbdbd": 5532,
      "gggffffef": 5533,
      "aaaaabbd": 5534,
      "ccffff": 5535,
      "gggggfee": 5536,
      "ccccbbbbbbbbbbb": 5537,
      "ededee": 5538,
      "eccccd": 5539,
      "gghhghhh": 5540,
      "gghhhggggf": 5541,
      "dcdee": 5542,
      "ccbaaaaaaaab": 5543,
      "aaabaaabb": 5544,
      "cddcccbb": 5545,
      "ccbcdef": 5546,
      "gggggggggfgggg": 5547,
      "aaaaaaaaaaaaaaaaaaaaaaaaaaaaaaaaaaaab": 5548,
      "efffgfgf": 5549,
      "cccaa": 5550,
      "efefggf": 5551,
      "cddcbcd": 5552,
      "gghhhgggh": 5553,
      "cbaaaaaaaabb": 5554,
      "cdbbd": 5555,
      "Ġccdd": 5556,
      "Ġabbb": 5557,
      "hhhhhhhhhhhhhhhhhhhhhhhhhhhhhhhhhhhhh": 5558,
      "gfffgfgf": 5559,
      "hahahahahahbfec": 5560,
      "eedeeeef": 5561,
      "edce": 5562,
      "cdceb": 5563,
      "efffeeeff": 5564,
      "eggfef": 5565,
      "eeeeeeffffffff": 5566,
      "eddffff": 5567,
      "ghhghhhhhh": 5568,
      "acbbb": 5569,
      "eeeeedcb": 5570,
      "ddddbb": 5571,
      "ggghhhhhhhhhhhhhhhhhhhhhhh": 5572,
      "eeeedbb": 5573,
      "Ġaaabb": 5574,
      "cbbcdcd": 5575,
      "gghhhgh": 5576,
      "ddbaaab": 5577,
      "gggffffgf": 5578,
      "gcgcgdf": 5579,
      "eddeeddd": 5580,
      "effggg": 5581,
      "abbaa": 5582,
      "cccdeee": 5583,
      "gghhhhhhhhhhhhhhhhhhhhhhhhhh": 5584,
      "cddccccd": 5585,
      "deegf": 5586,
      "ghhhhgfe": 5587,
      "eeddcdcd": 5588,
      "cbabdf": 5589,
      "Ġhgf": 5590,
      "eddeded": 5591,
      "eeffgffff": 5592,
      "cccedb": 5593,
      "cbcbcbcbcbcbcbcbcbcbcbcbcbcbcbcb": 5594,
      "cefh": 5595,
      "efgfgff": 5596,
      "effgef": 5597,
      "ccbbbcccb": 5598,
      "aabbbbbbbbbbbbb": 5599,
      "ghhghghf": 5600,
      "ccccbccdd": 5601,
      "gggfffgggf": 5602,
      "efeddd": 5603,
      "aaaaaaaaaaaaaaaaaaaaabbb": 5604,
      "ggfedf": 5605,
      "cgcgbgb": 5606,
      "daeafafa": 5607,
      "ccdffd": 5608,
      "ccbccbbbb": 5609,
      "gcgdgd": 5610,
      "cbdgf": 5611,
      "eefefe": 5612,
      "ghhggggggf": 5613,
      "eeffffgff": 5614,
      "eaf": 5615,
      "eghge": 5616,
      "ffdb": 5617,
      "gchchb": 5618,
      "aaaaacf": 5619,
      "gggggggghhhhhhh": 5620,
      "gggggggghgh": 5621,
      "ccbbbabbb": 5622,
      "ddecd": 5623,
      "ccdcdcdd": 5624,
      "gcgbhb": 5625,
      "cccccbbcd": 5626,
      "ggggggggghhhhh": 5627,
      "cgbhahahahb": 5628,
      "egged": 5629,
      "ggedddd": 5630,
      "effeeeff": 5631,
      "hhhgfd": 5632,
      "cbbbbdf": 5633,
      "cdbaaa": 5634,
      "abacacaca": 5635,
      "aaaaaaaaaaaaaaaaaaaaaaaaaaaaaaaaaaaaaaab": 5636,
      "gfhghf": 5637,
      "effdcb": 5638,
      "effffefef": 5639,
      "ccbcee": 5640,
      "cbbbccbbbb": 5641,
      "effffggff": 5642,
      "egfdb": 5643,
      "hcgdfeefd": 5644,
      "ggghghhhhh": 5645,
      "edddcbb": 5646,
      "hchdhe": 5647,
      "egfgfff": 5648,
      "ccccbabb": 5649,
      "cdefgggf": 5650,
      "gggggggggggghh": 5651,
      "cddeefff": 5652,
      "ccdefe": 5653,
      "cefeb": 5654,
      "cace": 5655,
      "cabdf": 5656,
      "ecfa": 5657,
      "Ġeeff": 5658,
      "cbbbcccbbb": 5659,
      "eedbaab": 5660,
      "cccceed": 5661,
      "cbcbcccd": 5662,
      "ccefggf": 5663,
      "hhhgghh": 5664,
      "gghd": 5665,
      "edcdf": 5666,
      "dege": 5667,
      "eedddeeff": 5668,
      "ggghhggff": 5669,
      "ebba": 5670,
      "cccbcbd": 5671,
      "eegef": 5672,
      "cbcbccb": 5673,
      "aaaabbabb": 5674,
      "bbbba": 5675,
      "cbbbbcccb": 5676,
      "ghhhggggh": 5677,
      "gggffeeef": 5678,
      "ggghgfff": 5679,
      "cdefeed": 5680,
      "hhhggff": 5681,
      "eeeeeedddddd": 5682,
      "cdddeedd": 5683,
      "ghhhhhhhhgff": 5684,
      "ccbbbaabb": 5685,
      "dadadada": 5686,
      "eeeeeddcd": 5687,
      "eefgggg": 5688,
      "ebgb": 5689,
      "gdce": 5690,
      "Ġefff": 5691,
      "ceddecfbgbgb": 5692,
      "cbbbbaaabb": 5693,
      "deh": 5694,
      "ghfdd": 5695,
      "aaaaabbaab": 5696,
      "ccccccbbbbbbbb": 5697,
      "cccbba": 5698,
      "aaaaaaaababb": 5699,
      "cbaaaaaaaaaaab": 5700,
      "cbbbcded": 5701,
      "ccbbbbbd": 5702,
      "hhfef": 5703,
      "geedddd": 5704,
      "gggfeee": 5705,
      "cddddeff": 5706,
      "cccccf": 5707,
      "aaaabbaaaab": 5708,
      "ggeded": 5709,
      "hfgff": 5710,
      "ggece": 5711,
      "cddeeeed": 5712,
      "effb": 5713,
      "ccbbcdf": 5714,
      "effffefff": 5715,
      "aaabdd": 5716,
      "hghghf": 5717,
      "ecdce": 5718,
      "cefffd": 5719,
      "cddcdf": 5720,
      "bbba": 5721,
      "ggghggfff": 5722,
      "hhhhhhhhhhhhhhhhhhhhhhhhhhhhhhhhhhhhhhhhhhhh": 5723,
      "efgfeff": 5724,
      "aaaabbbbbbbbbb": 5725,
      "ccdeefff": 5726,
      "cccbccddd": 5727,
      "effffffed": 5728,
      "eehh": 5729,
      "gdfdfd": 5730,
      "caacf": 5731,
      "eeghhh": 5732,
      "eefefeff": 5733,
      "gggefef": 5734,
      "cccccccccccccd": 5735,
      "cccdddded": 5736,
      "ecfff": 5737,
      "edecdb": 5738,
      "ggggggggghgggg": 5739,
      "efdfff": 5740,
      "eededff": 5741,
      "cbccccbbb": 5742,
      "eeddeeef": 5743,
      "cbcbccdd": 5744,
      "ahaa": 5745,
      "ecbaaaaab": 5746,
      "aaabaaa": 5747,
      "gdcf": 5748,
      "ccccccccdcd": 5749,
      "eefge": 5750,
      "cacd": 5751,
      "Ġbbbbbbbb": 5752,
      "cbcddddd": 5753,
      "ccccccdf": 5754,
      "cddccccb": 5755,
      "gfggggggff": 5756,
      "aabbbaabb": 5757,
      "hhhhhhhhhhhhhhhhhhhhhhhhhhhhhhhhhhhhhh": 5758,
      "aaaaaaaaaaaaabbbbb": 5759,
      "ccddddef": 5760,
      "ghhhhhhggff": 5761,
      "cbbbcde": 5762,
      "ghhhhgfed": 5763,
      "eeedddded": 5764,
      "eedfed": 5765,
      "gggfge": 5766,
      "cccdccbbb": 5767,
      "gdbaab": 5768,
      "gghhfd": 5769,
      "cddddeef": 5770,
      "eaeaeaea": 5771,
      "effffeeef": 5772,
      "eedcef": 5773,
      "eeddccbbb": 5774,
      "gffffgfgf": 5775,
      "eeeefee": 5776,
      "ccddddb": 5777,
      "Ġcddd": 5778,
      "eddcef": 5779,
      "dfc": 5780,
      "cccbbabbb": 5781,
      "cccbbbbbbbbbbbbbb": 5782,
      "efffffggf": 5783,
      "cceeeff": 5784,
      "ghggghgh": 5785,
      "gggggggggg": 5786,
      "dededf": 5787,
      "dffe": 5788,
      "cbbbbbabbb": 5789,
      "eeeeefeff": 5790,
      "aaabbbbab": 5791,
      "ccbbced": 5792,
      "cccddee": 5793,
      "ccceeef": 5794,
      "cbabdd": 5795,
      "eeeedeeff": 5796,
      "gffb": 5797,
      "gggffggggf": 5798,
      "ggghge": 5799,
      "ceeefff": 5800,
      "cfffd": 5801,
      "ghhhhhhhhhhhgf": 5802,
      "Ġge": 5803,
      "Ġeeef": 5804,
      "ghffff": 5805,
      "dcdccd": 5806,
      "edddddded": 5807,
      "hggd": 5808,
      "cdcdcdcdcdcd": 5809,
      "eedccccd": 5810,
      "gghggggggh": 5811,
      "cccdcdddd": 5812,
      "ccddeee": 5813,
      "eedddeeed": 5814,
      "ccbbaaaabb": 5815,
      "eddddee": 5816,
      "aaaaaaaabaaab": 5817,
      "ccccbbabb": 5818,
      "aaaaaaaaaaaaaaaaaaaaaaaaa": 5819,
      "eeeeeffed": 5820,
      "gffggggf": 5821,
      "ghhgeb": 5822,
      "ebde": 5823,
      "ccbbddd": 5824,
      "gedee": 5825,
      "ceefgf": 5826,
      "eefggg": 5827,
      "ghhed": 5828,
      "bbbbbbbbbbbbbbbbbbbbbbbb": 5829,
      "caac": 5830,
      "ccegg": 5831,
      "dddddef": 5832,
      "eedce": 5833,
      "ggfffe": 5834,
      "gcdfb": 5835,
      "ggggedd": 5836,
      "ebebf": 5837,
      "cbbbf": 5838,
      "edcdee": 5839,
      "cdfffff": 5840,
      "aaaaaaaaaaaaaaaaaaaaaaaaaaaaabb": 5841,
      "gdfe": 5842,
      "ghgggggggggggggggg": 5843,
      "ghhghhhhhhh": 5844,
      "efdccd": 5845,
      "eeeddedd": 5846,
      "ggggffeef": 5847,
      "ccccceff": 5848,
      "ggggfffffffff": 5849,
      "eeffgfgf": 5850,
      "hhhhhhhhhhhhhhhhhhhhhhhhhhhhhhhhhhhh": 5851,
      "edecf": 5852,
      "ddcccdd": 5853,
      "cbbbbce": 5854,
      "ggggffeed": 5855,
      "cabababab": 5856,
      "ggggggfgggf": 5857,
      "hghgf": 5858,
      "gehgh": 5859,
      "cbcdeff": 5860,
      "gahahahagbf": 5861,
      "Ġcbbb": 5862,
      "cfhhhhh": 5863,
      "aaadd": 5864,
      "eeeedccd": 5865,
      "aaaaaaad": 5866,
      "ggfddf": 5867,
      "eeeeededd": 5868,
      "Ġeeed": 5869,
      "ghhhhhghhh": 5870,
      "ccaaaaaab": 5871,
      "hhhghhh": 5872,
      "gfdcbb": 5873,
      "gdba": 5874,
      "eefb": 5875,
      "aaabaabb": 5876,
      "ceedbbb": 5877,
      "cgbgbgbgbgcf": 5878,
      "cfhgf": 5879,
      "caaaaaaabb": 5880,
      "ghghhhhhhhhhhhhhh": 5881,
      "cbbcbdb": 5882,
      "gghhhhhhhhhhhhhhhhhhhhhhhhhhhhh": 5883,
      "cbbbbcef": 5884,
      "ghhhhghghghgh": 5885,
      "cccbccbbb": 5886,
      "eeedde": 5887,
      "hhhhhhhhhhhhhhhhhhhhhhhhhhhhhhhhhhhhhhhhhh": 5888,
      "cccddcccd": 5889,
      "gffeeed": 5890,
      "ccbbaaaaaab": 5891,
      "eeefeddd": 5892,
      "efdeff": 5893,
      "edbcd": 5894,
      "eeeeeefffffff": 5895,
      "gdgef": 5896,
      "cdcdce": 5897,
      "cccdddf": 5898,
      "ghhhhhged": 5899,
      "gghhgggff": 5900,
      "aaaaaaaaaaaaaaaaaaaaaabbb": 5901,
      "ccbcdcb": 5902,
      "gehfh": 5903,
      "eeeffee": 5904,
      "ccccccccddddd": 5905,
      "ggghgg": 5906,
      "gghhhgghhh": 5907,
      "eeeeeeeeeedd": 5908,
      "gghhggghh": 5909,
      "cccccee": 5910,
      "cccccdff": 5911,
      "hfhfhfhgh": 5912,
      "hhhgef": 5913,
      "ggfeedd": 5914,
      "dddcccd": 5915,
      "aaaaaaaaaaaaaaaaaaaaaaaaaaaabb": 5916,
      "ghhhhghgh": 5917,
      "geeeeff": 5918,
      "edbbbb": 5919,
      "eeeggff": 5920,
      "ggfffee": 5921,
      "hhhhhhhhhhhhhhhhhhhhhhhhhhhhhhhhhhhhhhhhhhhhhh": 5922,
      "abbbaaabb": 5923,
      "cddddbb": 5924,
      "gdh": 5925,
      "gghhgggg": 5926,
      "ghghhhhhhhhh": 5927,
      "cacab": 5928,
      "gfffffgff": 5929,
      "Ġeedd": 5930,
      "ghhhgggggf": 5931,
      "Ġcf": 5932,
      "effffeedd": 5933,
      "cbcbccccb": 5934,
      "gggggggggggggfff": 5935,
      "aaaaaababababab": 5936,
      "gggggggggggggggggggggggggggggggggggggggggggggggg": 5937,
      "cbbbbcdf": 5938,
      "dcdeff": 5939,
      "gghhhhhhhhhhhhhhhhhhhhhhhhhhhh": 5940,
      "abbaaaab": 5941,
      "aaaaaaaababab": 5942,
      "gghe": 5943,
      "ghfe": 5944,
      "Ġcb": 5945,
      "ceffffff": 5946,
      "ghhgggghh": 5947,
      "ccbbbbcdd": 5948,
      "cdddeeff": 5949,
      "cdddccccd": 5950,
      "gggggggggggggggh": 5951,
      "deggff": 5952,
      "ccceeedd": 5953,
      "ceecb": 5954,
      "edegff": 5955,
      "acbdb": 5956,
      "cccccce": 5957,
      "eefegf": 5958,
      "ebcbd": 5959,
      "hfef": 5960,
      "ggggggggggggffff": 5961,
      "ffeff": 5962,
      "cddceb": 5963,
      "cdddcdddd": 5964,
      "cbcdeed": 5965,
      "Ġhhhhhhhhhhhhh": 5966,
      "ccbcce": 5967,
      "gffffeed": 5968,
      "eeeffgfff": 5969,
      "bbbbbbab": 5970,
      "cdeccd": 5971,
      "dddeeff": 5972,
      "eeeffffffffffff": 5973,
      "cdeffd": 5974,
      "ebad": 5975,
      "ggggffgggf": 5976,
      "hgdd": 5977,
      "aacc": 5978,
      "efffeefff": 5979,
      "cbcbcbccd": 5980,
      "cccbccccb": 5981,
      "caabf": 5982,
      "cdeedddd": 5983,
      "cbbbbcbbbb": 5984,
      "efgfedd": 5985,
      "gfeggf": 5986,
      "cbaaabd": 5987,
      "ghhhhgg": 5988,
      "gcfddecfb": 5989,
      "hghghgh": 5990,
      "ddcdcd": 5991,
      "aabaabb": 5992,
      "cdceef": 5993,
      "fceddecfb": 5994,
      "bbbde": 5995,
      "hgc": 5996,
      "hhhhhhhhhhhhhhhhhhhhhhhhhhhhhhhhhhhhhhh": 5997,
      "gffffe": 5998,
      "gcfc": 5999,
      "bbbce": 6000,
      "gcfdd": 6001,
      "eeefffffffffff": 6002,
      "ggggggggggg": 6003,
      "gffffffffffffffffffff": 6004,
      "cdeeffff": 6005,
      "gccb": 6006,
      "efefde": 6007,
      "eeeeeeeeeeeed": 6008,
      "ceffdd": 6009,
      "eeccbbb": 6010,
      "dbbdf": 6011,
      "effgggggf": 6012,
      "ddfhh": 6013,
      "dddefff": 6014,
      "eeecbbb": 6015,
      "gdfcf": 6016,
      "eeeefeedd": 6017,
      "gfddff": 6018,
      "gggec": 6019,
      "dbcbbb": 6020,
      "ccdddedd": 6021,
      "edefff": 6022,
      "cdab": 6023,
      "Ġaaaaaaab": 6024,
      "aabbba": 6025,
      "hfhfgf": 6026,
      "ccbabbbbb": 6027,
      "gggggggghhhhhhhh": 6028,
      "ecbcdf": 6029,
      "gcdd": 6030,
      "ccdcbbbbb": 6031,
      "eeeffe": 6032,
      "cbceef": 6033,
      "effffdd": 6034,
      "ccddeeef": 6035,
      "cccbaaaaab": 6036,
      "aaaaaaaabd": 6037,
      "ccbbbbbabb": 6038,
      "ggfffeed": 6039,
      "ggfedff": 6040,
      "edfefd": 6041,
      "gfdcef": 6042,
      "eeeedcdd": 6043,
      "ccfhhh": 6044,
      "gcfbf": 6045,
      "ccdddeed": 6046,
      "cdeeeedd": 6047,
      "abbbbaaab": 6048,
      "gggghghhh": 6049,
      "Ġeddd": 6050,
      "gfeeff": 6051,
      "aabde": 6052,
      "gggggfgfgf": 6053,
      "dbfb": 6054,
      "ccbcbcd": 6055,
      "cfgh": 6056,
      "gggggggggffffff": 6057,
      "cbbbcbbbbbb": 6058,
      "hbhbhbhb": 6059,
      "eddcc": 6060,
      "effffffffffffff": 6061,
      "eeeeeeeeeeedd": 6062,
      "eddddeded": 6063,
      "ggfgggff": 6064,
      "cffef": 6065,
      "aaaaaaaaaaaaaaaaaaaaaaaaaaaaaaabb": 6066,
      "aaaaaaaaaaaaaaaaaaaaaaaaaaaaaaaaaaaaaaaaaaaaaaaaaaaaaaaaaaaaaaaaaaaaaaaaaaaaaaaaaaaaaaaaaaaaaaaaaaaaaaaaaaaaaaaaaaaaaaaaaaaaaaaaaaaaaaaaaaaaaaaaaaaaaaaaaaaaaaaaaaaaaaaaaaaaaaaaaaaaaaaaaaaaaaaaaaaaaaaaaaaaaaaaaaaaaaaaaaaaaaaa": 6067,
      "gegfggf": 6068,
      "aabbbabbb": 6069,
      "ccegff": 6070,
      "eddcdef": 6071,
      "ghhhhgggg": 6072,
      "ccbbc": 6073,
      "ghgfeff": 6074,
      "ceeded": 6075,
      "edcdeed": 6076,
      "aaaaaaaaaaaaaaaaaaaaaaaaaaaaaaaaaaaaaaaaaaaaaaaab": 6077,
      "cbbbbbbbbbbbbbbbbbbb": 6078,
      "eeeeeeeded": 6079,
      "cbbcdff": 6080,
      "cdcddb": 6081,
      "cdbba": 6082,
      "gghhghh": 6083,
      "ecbccd": 6084,
      "eeeeeffgf": 6085,
      "ccbbccccd": 6086,
      "ceefffff": 6087,
      "eddbbbb": 6088,
      "ccedff": 6089,
      "cbbbbccbbb": 6090,
      "cccccccccdddd": 6091,
      "cdfgd": 6092,
      "gagagbgbf": 6093,
      "Ġce": 6094,
      "efffgggff": 6095,
      "aaaaababbb": 6096,
      "eeeedee": 6097,
      "cbabaab": 6098,
      "ccbca": 6099,
      "ghhhhfe": 6100,
      "cababa": 6101,
      "eeeefgggf": 6102,
      "defee": 6103,
      "acada": 6104,
      "ghfee": 6105,
      "cdddddb": 6106,
      "gffffgfff": 6107,
      "ccdddeef": 6108,
      "efffffeed": 6109,
      "cffe": 6110,
      "eeefffeff": 6111,
      "eeeedddf": 6112,
      "ggggfeeff": 6113,
      "gghhhhhhgff": 6114,
      "cdbbabb": 6115,
      "cbbaaaabbb": 6116,
      "ededeed": 6117,
      "eddegf": 6118,
      "cbbbced": 6119,
      "ggghgggff": 6120,
      "eddddcddd": 6121,
      "dcbaaaab": 6122,
      "hdhdhdhe": 6123,
      "eefefdf": 6124,
      "cbbaaabbbb": 6125,
      "ccbaaaaa": 6126,
      "gffegf": 6127,
      "hhhhhhhhhhhhhhhhhhhhhhhhhhhhhhhhhh": 6128,
      "gdgb": 6129,
      "hdh": 6130,
      "edcbaaab": 6131,
      "gfggff": 6132,
      "eeeffeeef": 6133,
      "ddefed": 6134,
      "cccceef": 6135,
      "eeeeegf": 6136,
      "dbebeb": 6137,
      "gghgggggh": 6138,
      "eeeccdd": 6139,
      "gcfdeecfb": 6140,
      "gggefe": 6141,
      "ecbc": 6142,
      "gggggggffffffff": 6143,
      "gggeddf": 6144,
      "cccdccccd": 6145,
      "ecdcddd": 6146,
      "cdeeeddd": 6147,
      "ccccff": 6148,
      "ffffe": 6149,
      "fffgggf": 6150,
      "gghgggghh": 6151,
      "cccbaaabb": 6152,
      "gefeed": 6153,
      "dedccd": 6154,
      "edddddb": 6155,
      "ggcb": 6156,
      "ggfdcd": 6157,
      "cefggff": 6158,
      "ghhhhhe": 6159,
      "gghgee": 6160,
      "eeddcbbb": 6161,
      "eeeeeeeeeddd": 6162,
      "cdccdf": 6163,
      "gfbb": 6164,
      "cbccccddd": 6165,
      "eddeefff": 6166,
      "cbbbbbbccd": 6167,
      "ccbcbccd": 6168,
      "ebecf": 6169,
      "cdcece": 6170,
      "aabbbbaab": 6171,
      "ggggggggghgh": 6172,
      "gceddecfb": 6173,
      "ghhhhhhhhhggf": 6174,
      "gggghhhggf": 6175,
      "gghhhhgggf": 6176,
      "ghhfed": 6177,
      "ccbdff": 6178,
      "ededbb": 6179,
      "defdf": 6180,
      "gghhggfff": 6181,
      "eghhhhhh": 6182,
      "gcbd": 6183,
      "ehgd": 6184,
      "ghhhhhhhhhhhhhhhhhhhhhhhhhhhhhhhhhhhhhhhhhhhhhhhhhhhhhhhhhhhhhhhhhhhhhhhhhhhhhhhhhhhhhhhhhhhhhhhhhhhhhhhhhhhhhhhh": 6185,
      "ffffgff": 6186,
      "bbbaaab": 6187,
      "cedeff": 6188,
      "ggghggghh": 6189,
      "ghgdbb": 6190,
      "Ġccbb": 6191,
      "gggefd": 6192,
      "hche": 6193,
      "cccbbbabb": 6194,
      "gfhghgh": 6195,
      "gbgcfddf": 6196,
      "efefegf": 6197,
      "ghgfffff": 6198,
      "hhhgfff": 6199,
      "ebec": 6200,
      "eeeffeeff": 6201,
      "efefded": 6202,
      "hbhahb": 6203,
      "gcdf": 6204,
      "cdcbbcd": 6205,
      "cfeed": 6206,
      "ccccccccccccdd": 6207,
      "eeedfdf": 6208,
      "gdfff": 6209,
      "aaaaaaaaaaaaaabab": 6210,
      "aaabbaaa": 6211,
      "eedddeddd": 6212,
      "eadada": 6213,
      "eegggff": 6214,
      "ceggggf": 6215,
      "cbcbcbcbbb": 6216,
      "ddcbd": 6217,
      "eddc": 6218,
      "dddeeed": 6219,
      "dbe": 6220,
      "cdddccbbb": 6221,
      "cdddddef": 6222,
      "hghhhhhh": 6223,
      "eddedddd": 6224,
      "effffeeff": 6225,
      "deghh": 6226,
      "ggfffffffffff": 6227,
      "effeefff": 6228,
      "ghggee": 6229,
      "gcgcgcf": 6230,
      "Ġdbb": 6231,
      "aaaaaaaabbbbbbbb": 6232,
      "hhgb": 6233,
      "dfgfe": 6234,
      "cccbcccc": 6235,
      "gfefgff": 6236,
      "eeeeddded": 6237,
      "cbaabbbbbb": 6238,
      "ae": 6239,
      "cccbcccdd": 6240,
      "Ġhhhhhhhhhhhhhh": 6241,
      "cdddefff": 6242,
      "gghhgfe": 6243,
      "ahahahahahah": 6244,
      "eefffffed": 6245,
      "edbbab": 6246,
      "eecbd": 6247,
      "ghhhgffff": 6248,
      "ggghhhhhhgf": 6249,
      "ababaaaab": 6250,
      "cdddeddd": 6251,
      "ccddeeedd": 6252,
      "fdc": 6253,
      "gggghghghghgh": 6254,
      "gggggghgf": 6255,
      "gccf": 6256,
      "hhhhhff": 6257,
      "cccaaa": 6258,
      "gghhhhhhhhhhhhhhhhhhhhhhhhhhhhhhh": 6259,
      "Ġhgh": 6260,
      "gffgfgf": 6261,
      "cdddcb": 6262,
      "aaaabf": 6263,
      "bbbbaaab": 6264,
      "ceggd": 6265,
      "cdcdcdcccc": 6266,
      "Ġc": 6267,
      "cefdcb": 6268,
      "gghhhhff": 6269,
      "cbbbbbcbbb": 6270,
      "cddddccd": 6271,
      "eegfgf": 6272,
      "effeeee": 6273,
      "ccbbabbbbb": 6274,
      "eeffffggf": 6275,
      "effedff": 6276,
      "Ġddf": 6277,
      "dbed": 6278,
      "ecdccb": 6279,
      "ccegggf": 6280,
      "ffffffffffffffffffffffffffffffffffffffffffffffffffffffffffffffff": 6281,
      "cdbcbb": 6282,
      "hhhhhge": 6283,
      "ccege": 6284,
      "ghhhhhhhhhhggf": 6285,
      "ggggfggggf": 6286,
      "ccbbbccbbb": 6287,
      "cbabbd": 6288,
      "aaaaaaabaaab": 6289,
      "ddedb": 6290,
      "eecccdd": 6291,
      "eddccbbbb": 6292,
      "ccegfd": 6293,
      "cababaaaab": 6294,
      "ccccccbbbbbbbbb": 6295,
      "gccd": 6296,
      "dddde": 6297,
      "dbdbdbd": 6298,
      "ggggggffef": 6299,
      "ggghhhhhggf": 6300,
      "ddcbcd": 6301,
      "gehehe": 6302,
      "abbbaa": 6303,
      "eeeeeeeeeeeef": 6304,
      "cababbbbb": 6305,
      "eghgd": 6306,
      "hggfff": 6307,
      "ddcbab": 6308,
      "eddefgf": 6309,
      "ghgeed": 6310,
      "ggggffe": 6311,
      "aaaaaaba": 6312,
      "gggggggfed": 6313,
      "ggedde": 6314,
      "ccedef": 6315,
      "cddcdcd": 6316,
      "cbbcccccccc": 6317,
      "cdfged": 6318,
      "dedfff": 6319,
      "cdcccccb": 6320,
      "gghggggfff": 6321,
      "gfffeeef": 6322,
      "gggfffeff": 6323,
      "cbbbaaaabb": 6324,
      "ghhhghhhhhhhh": 6325,
      "aabbbbabb": 6326,
      "ghhhd": 6327,
      "ggggggfggf": 6328,
      "ggggghhhhhhhhhhhhh": 6329,
      "cdbaabb": 6330,
      "cefffed": 6331,
      "ceggfd": 6332,
      "aaaaaaaaaaaabbbbbb": 6333,
      "aaaaaabbbbbbbbb": 6334,
      "gbgcee": 6335,
      "gggb": 6336,
      "ceeeb": 6337,
      "cccegf": 6338,
      "gggffgggff": 6339,
      "gefdfd": 6340,
      "ecbaaabb": 6341,
      "hggef": 6342,
      "ccdddddddddd": 6343,
      "ddefe": 6344,
      "eefeeeed": 6345,
      "dbaaaaa": 6346,
      "degfd": 6347,
      "eefffffef": 6348,
      "eefeeedd": 6349,
      "gegegdf": 6350,
      "dddcb": 6351,
      "cacbd": 6352,
      "ceceddd": 6353,
      "gghhhfd": 6354,
      "aaaaaaaaaabbbbbbb": 6355,
      "cddede": 6356,
      "degd": 6357,
      "ddefgf": 6358,
      "ccdefgf": 6359,
      "cccdeeef": 6360,
      "aaaaaaaaaaaaaaaaaaaaaaaaaaaaaaa": 6361,
      "effdcd": 6362,
      "eeedccb": 6363,
      "ggggfeeef": 6364,
      "ccbbbcbbbb": 6365,
      "efffeeddd": 6366,
      "cdbaaaab": 6367,
      "ecdbbb": 6368,
      "cccdccccb": 6369,
      "aaaaaaaaaaaaaaaaaaaaaaabbb": 6370,
      "ccdegf": 6371,
      "aabaa": 6372,
      "ecaabb": 6373,
      "aaaaababab": 6374,
      "cccbce": 6375,
      "cbbbbbccdd": 6376,
      "abbbbabbb": 6377,
      "gghhhgfd": 6378,
      "gffefeff": 6379,
      "gggggggfffffff": 6380,
      "gggdcb": 6381,
      "eefgffff": 6382,
      "cccddeeff": 6383,
      "hgeb": 6384,
      "hhhhhhhhhf": 6385,
      "eeeeedded": 6386,
      "dddeee": 6387,
      "cbacf": 6388,
      "eefhhh": 6389,
      "gghhggh": 6390,
      "eddddeeed": 6391,
      "ebfcf": 6392,
      "ccccccdef": 6393,
      "geedb": 6394,
      "bbbbbbbbbbbbbbbbbbbbbbbbb": 6395,
      "cdddde": 6396,
      "ggbb": 6397,
      "ddbbbbb": 6398,
      "cddeeddd": 6399,
      "fba": 6400,
      "ecbf": 6401,
      "gcgdgdf": 6402,
      "ggghggggh": 6403,
      "egfhf": 6404,
      "cccbbccbb": 6405,
      "ghhhhhhhhhhhhhhhhhhhhhhhhhhhhhhhhhhhhhhhhhhh": 6406,
      "cddffff": 6407,
      "gegggf": 6408,
      "edfggff": 6409,
      "cbbbbba": 6410,
      "ghgfggf": 6411,
      "gffffffef": 6412,
      "ehhhhhh": 6413,
      "ecdecfb": 6414,
      "cccbbaabb": 6415,
      "faeaea": 6416,
      "eddfef": 6417,
      "gfffffggf": 6418,
      "dfebb": 6419,
      "ddfgff": 6420,
      "ggghhff": 6421,
      "cccccbccd": 6422,
      "gagahb": 6423,
      "ccfe": 6424,
      "eefghh": 6425,
      "dfefd": 6426,
      "cededde": 6427,
      "gghhhhhggff": 6428,
      "eeeeeeedddddd": 6429,
      "efefefd": 6430,
      "eeeeeeeeefff": 6431,
      "efeggf": 6432,
      "cbbbbcbcb": 6433,
      "gfffefff": 6434,
      "cbcccccdd": 6435,
      "cccdcccccccc": 6436,
      "cdcde": 6437,
      "Ġdee": 6438,
      "cbbbcbd": 6439,
      "cccbddd": 6440,
      "eedededd": 6441,
      "gahagbfceddecfb": 6442,
      "bbbbbbbbbbbbbbbbbbbbbbbbbbbbbbbbbbbbbbbbbbbbbbbbbbbbbbbbbbbbbbbbbbbbbbbbbbbbbbbbbbbbbbbbbbbbbbbbbbbbbbbbbbbbbbbbbbbbbbbbbbbbbbbb": 6443,
      "aaaaaaaaaaaaaaaaaaaaaaaaaaaaaaaaaaaaaaaaab": 6444,
      "geffgff": 6445,
      "dcaaaab": 6446,
      "eecab": 6447,
      "gdgcf": 6448,
      "ccbbcc": 6449,
      "dedeff": 6450,
      "cdedcbb": 6451,
      "aaaaabbbab": 6452,
      "eefeeeef": 6453,
      "eeedeee": 6454,
      "edegggf": 6455,
      "eccbbbbbb": 6456,
      "ceeedb": 6457,
      "hhghh": 6458,
      "cccccccbbbbbbb": 6459,
      "cfgge": 6460,
      "ccbbbcddd": 6461,
      "gbgbhb": 6462,
      "eaeafafa": 6463,
      "ghhhhhhhhghf": 6464,
      "ghhhhhhgggf": 6465,
      "eccced": 6466,
      "eddeeeef": 6467,
      "ccbccdddd": 6468,
      "gffffefff": 6469,
      "ceeddf": 6470,
      "eddccccb": 6471,
      "ccddeded": 6472,
      "ghhhhhgh": 6473,
      "eeeefffed": 6474,
      "gffffee": 6475,
      "edcbabb": 6476,
      "caabbbbb": 6477,
      "cdeedbb": 6478,
      "gcfdeedfcgbhbhb": 6479,
      "dedcd": 6480,
      "gggggggggggggggff": 6481,
      "defff": 6482,
      "eeeeeefed": 6483,
      "ccbccccdd": 6484,
      "edddeefff": 6485,
      "ddbbab": 6486,
      "aaaaabdf": 6487,
      "aaaaaababab": 6488,
      "ggghhhhgff": 6489,
      "ecgf": 6490,
      "ggffffggf": 6491,
      "cffdbb": 6492,
      "ecceff": 6493,
      "eeeefffef": 6494,
      "ddecb": 6495,
      "cbbcbab": 6496,
      "gdcb": 6497,
      "ghhhfef": 6498,
      "aacee": 6499,
      "eeggggf": 6500,
      "ggggghhhhhhhhhhhhhh": 6501,
      "ccbbbbaaab": 6502,
      "cccccdeff": 6503,
      "gfgggghhh": 6504,
      "eghhgf": 6505,
      "edfeef": 6506,
      "cdfhhhh": 6507,
      "eedddccd": 6508,
      "gghhhhhhhggf": 6509,
      "Ġhhhhhhhhhhhhhhhhhhhhhhhhhhhhhhhhhhhhhhhhhhhhhhhhhhhhhhhhhhhhhhhhhhhhhhhhhhhhhhhhhhhhhhhhhhhhhhhhhhhhhhhhhhhhhhhhhhhhhhhhhhhhhhhhhhhhhhhhhhhhhhhhhhhhhhhhhhhhhhhhhhhhhhhhhhhhhhhhhhhhhhhhhhhhhhhhhhhhhhhhhhhhhhhhhhhhhhhhhhhhhhhhhhhhhhhhhhhhhhhhhhhhhhhhhhhhhhhh": 6510,
      "eeeeeeeffffff": 6511,
      "cddcbab": 6512,
      "cccbcc": 6513,
      "gfedeef": 6514,
      "cecdddd": 6515,
      "gfffdd": 6516,
      "abbbbbbab": 6517,
      "cdcdbbb": 6518,
      "gggggeed": 6519,
      "cccccbab": 6520,
      "ghhghghghgh": 6521,
      "ggggghgff": 6522,
      "cbbbbbbbabb": 6523,
      "fbfbeb": 6524,
      "edeb": 6525,
      "eddcf": 6526,
      "edddcccdd": 6527,
      "ccceeee": 6528,
      "ghhhhhghhhh": 6529,
      "aaaaaaaaaaaaaaaaaabbbb": 6530,
      "gggffeeff": 6531,
      "gggggfeed": 6532,
      "ggfedbb": 6533,
      "dcdbbb": 6534,
      "aaacc": 6535,
      "efefeeef": 6536,
      "ddbabb": 6537,
      "cdddcbbbb": 6538,
      "aaaaabbbbbbbbbb": 6539,
      "gahahahahahagcefb": 6540,
      "dddcbbb": 6541,
      "ccbbcccdd": 6542,
      "defdd": 6543,
      "ceedef": 6544,
      "cbbbbbbbbbbbbbbbbbbbbbbbbbbbbbbbbbbbb": 6545,
      "ghhhhhhhhghghghgh": 6546,
      "aaabbaa": 6547,
      "egfgggf": 6548,
      "deebb": 6549,
      "ccddeefff": 6550,
      "egfgd": 6551,
      "ghhhhhhhhhhhhhhhhhhhhhhhhhhhhhhhhhhhhhhhhh": 6552,
      "eddddcccd": 6553,
      "aaaaabbaaab": 6554,
      "gggghhhhgf": 6555,
      "cbaaaaaabbb": 6556,
      "gghgfgf": 6557,
      "cdeccb": 6558,
      "ccccab": 6559,
      "eddddeeff": 6560,
      "ggffffgff": 6561,
      "ghhhhhhhggff": 6562,
      "ggghghghf": 6563,
      "eecbcd": 6564,
      "eedeeeff": 6565,
      "ccdfef": 6566,
      "ghhhhghghf": 6567,
      "ccddcbbbb": 6568,
      "ecdcf": 6569,
      "cbccbab": 6570,
      "ggeeeef": 6571,
      "eeedddddddddd": 6572,
      "cefecbb": 6573,
      "dedcbb": 6574,
      "cbbbbbaabb": 6575,
      "cdbbbbbb": 6576,
      "eddcdb": 6577,
      "geccf": 6578,
      "hhhhhhhhhhhhhhhhhhhhhhhhhhhhhhhhh": 6579,
      "ededeeed": 6580,
      "ecaaaa": 6581,
      "effedef": 6582,
      "eedcdef": 6583,
      "cccdfd": 6584,
      "gefgff": 6585,
      "cbbbbbcbb": 6586,
      "cdddccddd": 6587,
      "gbgcgd": 6588,
      "edfc": 6589,
      "eceeff": 6590,
      "dadbdb": 6591,
      "hhhhhhhhgf": 6592,
      "eeeeeffef": 6593,
      "cfgfe": 6594,
      "eeeeeeeeeeff": 6595,
      "ceffe": 6596,
      "gfgggggfff": 6597,
      "edeee": 6598,
      "Ġgd": 6599,
      "ccccbbbbbbbbbbbb": 6600,
      "eeeeeddef": 6601,
      "ddfe": 6602,
      "aaaaaaaababababab": 6603,
      "cccdbd": 6604,
      "hhhhhhggf": 6605,
      "dddfe": 6606,
      "aaacdd": 6607,
      "eeddcdddd": 6608,
      "cefgd": 6609,
      "eeeddcccd": 6610,
      "aaabbbd": 6611,
      "ggdde": 6612,
      "ebac": 6613,
      "ggggggggggggggggggf": 6614,
      "cdffef": 6615,
      "ccbbbbbbab": 6616,
      "hee": 6617,
      "ghhgghhhhh": 6618,
      "dedbab": 6619,
      "cghhf": 6620,
      "Ġgggggggg": 6621,
      "edddeeddd": 6622,
      "cccdddb": 6623,
      "edbaabb": 6624,
      "cbdded": 6625,
      "eedeffff": 6626,
      "cbaaaabbbb": 6627,
      "ghhhhhhhhghgh": 6628,
      "eeeffffgf": 6629,
      "egegef": 6630,
      "cccefd": 6631,
      "ddede": 6632,
      "ggeddef": 6633,
      "cbbbdb": 6634,
      "gfdeef": 6635,
      "ecdeef": 6636,
      "hggghh": 6637,
      "cfebb": 6638,
      "gghghhhhhhhhhh": 6639,
      "ebccd": 6640,
      "gggghff": 6641,
      "gfffffeff": 6642,
      "eeddeee": 6643,
      "cbcbcccb": 6644,
      "decab": 6645,
      "cccbbbccd": 6646,
      "aaccb": 6647,
      "ccabbbb": 6648,
      "cddecb": 6649,
      "cehf": 6650,
      "gegfgfgf": 6651,
      "eeeeeeeefffff": 6652,
      "ggghghhhh": 6653,
      "cdeeb": 6654,
      "aaaaaabbab": 6655,
      "cdccdddd": 6656,
      "gggeccd": 6657,
      "aaabaaaaab": 6658,
      "ccccddff": 6659,
      "cddcdddd": 6660,
      "ghhggghhhh": 6661,
      "cdfggggf": 6662,
      "cececdcd": 6663,
      "cbbbcdddd": 6664,
      "ghhggffff": 6665,
      "aaaabaaaaab": 6666,
      "eeeededf": 6667,
      "ggggfffef": 6668,
      "abbbbbbbbbbbbbbbbb": 6669,
      "cbaaaaaaaaabb": 6670,
      "ccddfd": 6671,
      "ggghgggggf": 6672,
      "eafaga": 6673,
      "egegdgd": 6674,
      "hchchchd": 6675,
      "ggggghghghgh": 6676,
      "gfffeeff": 6677,
      "cdbca": 6678,
      "ceceded": 6679,
      "ggggfffed": 6680,
      "ababacaca": 6681,
      "ghee": 6682,
      "gggggggggghhhh": 6683,
      "aaabbbbbbbbbbbb": 6684,
      "hhed": 6685,
      "cbbdddd": 6686,
      "ccbcccccd": 6687,
      "ggfffedd": 6688,
      "gegefff": 6689,
      "gghhhhhhhhhhhhhhhhhhhhhhhhh": 6690,
      "hhhfff": 6691,
      "ddcdef": 6692,
      "ebaaaaaab": 6693,
      "ceeedf": 6694,
      "cdccdb": 6695,
      "gffeffff": 6696,
      "ccbccdb": 6697,
      "ggffeddd": 6698,
      "ccddccccd": 6699,
      "gbha": 6700,
      "eafagaga": 6701,
      "acff": 6702,
      "gecef": 6703,
      "gcfdeedfc": 6704,
      "cddcbd": 6705,
      "ghhgggfff": 6706,
      "eeddeeedd": 6707,
      "eeeeedeef": 6708,
      "aabbbbbbbbbbbbbb": 6709,
      "ebdccd": 6710,
      "hhgghhh": 6711,
      "fhhf": 6712,
      "cdcedf": 6713,
      "cecccd": 6714,
      "ghhhhhhhhhhhf": 6715,
      "ggfffgggff": 6716,
      "cfdbb": 6717,
      "ghhhhgghhhh": 6718,
      "effecd": 6719,
      "eeedccbb": 6720,
      "gefdff": 6721,
      "ababababbbb": 6722,
      "ddcde": 6723,
      "gggggghhhhhhhhhhh": 6724,
      "eddddddf": 6725,
      "cddedcb": 6726,
      "effdef": 6727,
      "edfgggf": 6728,
      "ededecd": 6729,
      "gggffffed": 6730,
      "gebaaab": 6731,
      "cbbcbbbbbb": 6732,
      "ccdgf": 6733,
      "ghhghgf": 6734,
      "ggghhhggff": 6735,
      "gcfdeedfb": 6736,
      "cehhhh": 6737,
      "ebcef": 6738,
      "eeeffggff": 6739,
      "cdcff": 6740,
      "eddcdcdd": 6741,
      "eededeef": 6742,
      "ababababbb": 6743,
      "Ġhhhhhhhhhhhhhhh": 6744,
      "eeefefd": 6745,
      "gghhgg": 6746,
      "cbbbbbcccd": 6747,
      "eddddbb": 6748,
      "ddeeee": 6749,
      "ccccccccccbb": 6750,
      "edfh": 6751,
      "ghhhhhhghhh": 6752,
      "cddefed": 6753,
      "dfghhh": 6754,
      "gggggfggff": 6755,
      "ghggfed": 6756,
      "cccdfgf": 6757,
      "ccccccef": 6758,
      "dfg": 6759,
      "effggggff": 6760,
      "gggfggh": 6761,
      "ccddde": 6762,
      "effefe": 6763,
      "cfefd": 6764,
      "ghhhhggfff": 6765,
      "eeecddd": 6766,
      "eeffddd": 6767,
      "ccbbba": 6768,
      "ggghggh": 6769,
      "ghhhhhhghgh": 6770,
      "aaaaaaaaaaaaaaaaaaaaaaaaaaaaaabb": 6771,
      "gcge": 6772,
      "hhgdb": 6773,
      "cbbbaaaaaab": 6774,
      "gghhgh": 6775,
      "aabaaabb": 6776,
      "gch": 6777,
      "ggfffffgf": 6778,
      "ededdddddd": 6779,
      "gffgggff": 6780,
      "gggggggggggfffff": 6781,
      "gghhhhhhhhhhgf": 6782,
      "abadb": 6783,
      "aaaaaaaaaababab": 6784,
      "effegd": 6785,
      "eefffggff": 6786,
      "ccccceed": 6787,
      "effeffff": 6788,
      "edededddd": 6789,
      "ggfeeed": 6790,
      "ccccccded": 6791,
      "ggebab": 6792,
      "abbf": 6793,
      "aabaaa": 6794,
      "eecbab": 6795,
      "gggeeed": 6796,
      "ggghggggff": 6797,
      "ccccdefff": 6798,
      "dffb": 6799,
      "gegehe": 6800,
      "hchcgd": 6801,
      "cbbcce": 6802,
      "eefgfed": 6803,
      "gfdcf": 6804,
      "hhhhhhhhhhhhhhhhhhhhhhhhhhhhhhhhhhhhhhhhhhhhh": 6805,
      "cdcbbd": 6806,
      "cccccddf": 6807,
      "cbcdfff": 6808,
      "hahahahahahah": 6809,
      "dbcff": 6810,
      "cfbeb": 6811,
      "hehehd": 6812,
      "cgbgbhahb": 6813,
      "ggggeed": 6814,
      "cddeffff": 6815,
      "dbaaaaaaab": 6816,
      "aaaaaaaaaaaaaaaaaaaaaaaaaaaaaaaaaaaaaaaaaaab": 6817,
      "hhhhhhhhhhhhhhhhhhhhhhhhhhhhhhhhhhhhhhhhhhh": 6818,
      "gahahagbfceddecfb": 6819,
      "eddeeeff": 6820,
      "ggggggggggghgh": 6821,
      "eeffeee": 6822,
      "ecbaaa": 6823,
      "ceddef": 6824,
      "eeffffffffffff": 6825,
      "cccbcef": 6826,
      "edfefff": 6827,
      "gefdfdf": 6828,
      "ggggggggggggggggff": 6829,
      "aaaaaaabbbbbbbbb": 6830,
      "cbccdef": 6831,
      "hbha": 6832,
      "hhfff": 6833,
      "dfedb": 6834,
      "eeefddd": 6835,
      "gghhgfed": 6836,
      "dcbaabb": 6837,
      "eeeedfdf": 6838,
      "aabcbb": 6839,
      "ghhhggggff": 6840,
      "eeeddccd": 6841,
      "eedfe": 6842,
      "gbgcfedf": 6843,
      "gghgged": 6844,
      "gghhgef": 6845,
      "eefffgfff": 6846,
      "eeeeddddddddd": 6847,
      "ggggggggg": 6848,
      "ccbbbbabbb": 6849,
      "cgchbhb": 6850,
      "gda": 6851,
      "efffffeef": 6852,
      "gfeccd": 6853,
      "eeg": 6854,
      "ccbaaaaaabb": 6855,
      "ggggggggggggggfff": 6856,
      "eedeeeed": 6857,
      "aabef": 6858,
      "ccccbcccb": 6859,
      "ggggghhhgf": 6860,
      "cefged": 6861,
      "efefeedd": 6862,
      "ccdddcddd": 6863,
      "eddbab": 6864,
      "ccccdeeed": 6865,
      "ghfde": 6866,
      "cdddddded": 6867,
      "ccabab": 6868,
      "ggggfgggff": 6869,
      "gghhhhhhhhf": 6870,
      "gggggffggf": 6871,
      "ggc": 6872,
      "edgf": 6873,
      "eeeeddb": 6874,
      "gggeeeff": 6875,
      "ggggggggfffffff": 6876,
      "cccccccccbbb": 6877,
      "fada": 6878,
      "eeeeffgff": 6879,
      "hfhfhghgh": 6880,
      "eefffffgf": 6881,
      "cbbccccbb": 6882,
      "aaababbbb": 6883,
      "cbcbabb": 6884,
      "eeece": 6885,
      "dfddd": 6886,
      "ccbbcbbbbb": 6887,
      "bbbbbabb": 6888,
      "gggggggfef": 6889,
      "aabcdd": 6890,
      "gcaaab": 6891,
      "ceeeeef": 6892,
      "dfghh": 6893,
      "cccdddddddddd": 6894,
      "ccbbbcccbb": 6895,
      "cabdd": 6896,
      "eeddddb": 6897,
      "gghggghhhh": 6898,
      "ccccccccccdddd": 6899,
      "hfhh": 6900,
      "eeffffeff": 6901,
      "cccccedd": 6902,
      "edddeffff": 6903,
      "eceeed": 6904,
      "efgfggf": 6905,
      "ghhhhhhhhhhhhhhhhhhhhhhhhhhhhhhhhhhhhhhhhhhhhh": 6906,
      "gcgbhbhb": 6907,
      "ccaaaabb": 6908,
      "hhhgghhh": 6909,
      "edddcdcd": 6910,
      "efefefefefef": 6911,
      "gagbgb": 6912,
      "aaabbbaabb": 6913,
      "dfdcb": 6914,
      "ccbcdb": 6915,
      "aabaaaaab": 6916,
      "cbcba": 6917,
      "cccccccccccddd": 6918,
      "gggddd": 6919,
      "gfdbbbb": 6920,
      "eedddeedd": 6921,
      "ceba": 6922,
      "cbcccccccd": 6923,
      "dfgfff": 6924,
      "gfdcb": 6925,
      "cbcddbb": 6926,
      "ccbcbbbbbbb": 6927,
      "ccbcdff": 6928,
      "decbbb": 6929,
      "cccbcdf": 6930,
      "gggggffeff": 6931,
      "ccefgff": 6932,
      "eddeggf": 6933,
      "edbcf": 6934,
      "edbaaa": 6935,
      "eaaa": 6936,
      "cbcccbbbbb": 6937,
      "eeegfff": 6938,
      "aaaababbb": 6939,
      "cccbbdd": 6940,
      "effdbbb": 6941,
      "cccbcbcbcb": 6942,
      "Ġaaaabb": 6943,
      "aaaaaaaaaaaaaaaaabbbb": 6944,
      "edddbbb": 6945,
      "cabaa": 6946,
      "eeeffffed": 6947,
      "gghhhhhhhhhhhhhhhhhhhhhhhhhhhhhh": 6948,
      "cbbaaaaaaabb": 6949,
      "dbaabbb": 6950,
      "cddddddded": 6951,
      "ccdecd": 6952,
      "gggfde": 6953,
      "cddddcccd": 6954,
      "gecbd": 6955,
      "hhgdd": 6956,
      "cbcccdb": 6957,
      "gggfeeed": 6958,
      "ghfhgh": 6959,
      "aabbbbbab": 6960,
      "dfggggf": 6961,
      "geffffff": 6962,
      "ghggghhhhh": 6963,
      "gffffggff": 6964,
      "eccee": 6965,
      "ggggghhhhhhhhhhhhhhhh": 6966,
      "eeefeeeff": 6967,
      "ggfdeff": 6968,
      "geddddd": 6969,
      "bbef": 6970,
      "hhgggh": 6971,
      "dbcc": 6972,
      "dbaaaabb": 6973,
      "gghhhggfff": 6974,
      "edddccbb": 6975,
      "ggffffeff": 6976,
      "ghhfdd": 6977,
      "cbcabab": 6978,
      "cccdeeedd": 6979,
      "ghhhgdb": 6980,
      "ghhhhhhhhhhghgh": 6981,
      "hhhhhhhhhhhhhhhhhhhhhhhhhhhhhhhhhhhhhhhhhhhhhhh": 6982,
      "gceddf": 6983,
      "hhghhh": 6984,
      "ghhhhhggggf": 6985,
      "hhhgg": 6986,
      "eedffff": 6987,
      "cbbbbaabbb": 6988,
      "cffdd": 6989,
      "ababbbbbbbbbb": 6990,
      "Ġaaaaaaaab": 6991,
      "eefeefff": 6992,
      "ccccddddddddd": 6993,
      "edc": 6994,
      "eddec": 6995,
      "cegggg": 6996,
      "ccbcbcbcbcb": 6997,
      "gghhhhhhhhggf": 6998,
      "eedcbbbbb": 6999,
      "cbaabab": 7000,
      "cfcfcfcfcfd": 7001,
      "gdcdf": 7002,
      "eeefgggff": 7003,
      "dda": 7004,
      "cdgg": 7005,
      "cdedcdd": 7006,
      "eeeeefefef": 7007,
      "ccdddccdd": 7008,
      "cccbbbbabb": 7009,
      "ghhhgge": 7010,
      "cgbhahaha": 7011,
      "ababbd": 7012,
      "hhhhhhhhhgf": 7013,
      "aabbbbd": 7014,
      "ghgffgf": 7015,
      "cbbbabbbbb": 7016,
      "cccbaaa": 7017,
      "gghhggghhh": 7018,
      "cccccdcccd": 7019,
      "gfgfgfgfff": 7020,
      "ecddf": 7021,
      "hhggggf": 7022,
      "gggedcd": 7023,
      "dfcf": 7024,
      "dfhhf": 7025,
      "ebccb": 7026,
      "cdddfff": 7027,
      "ccbbaaaaabb": 7028,
      "cdcdddddddd": 7029,
      "ggggghggff": 7030,
      "gbgcgdf": 7031,
      "eeeeeeddddddd": 7032,
      "eedc": 7033,
      "ccdddbbb": 7034,
      "cdccccbbbb": 7035,
      "effedddd": 7036,
      "gghggfed": 7037,
      "eeeeeeeeddddd": 7038,
      "ccbbbbcd": 7039,
      "ccaaaaa": 7040,
      "ccdecbb": 7041,
      "ggggffeedd": 7042,
      "ghhhhhhhff": 7043,
      "aaaaaaaaaaaaaaaaaaaaaaaabbb": 7044,
      "geeedf": 7045,
      "aacdb": 7046,
      "aaaabbbaab": 7047,
      "eedddefff": 7048,
      "cbdcf": 7049,
      "cdeeddddd": 7050,
      "cccdefed": 7051,
      "cefeff": 7052,
      "edab": 7053,
      "eefefffff": 7054,
      "ghhgged": 7055,
      "ccbbccccb": 7056,
      "ecbde": 7057,
      "ececeb": 7058,
      "cceefd": 7059,
      "ccdcbcd": 7060,
      "dfeee": 7061,
      "ghhggfd": 7062,
      "aaaaaaaaaaaaaaaaaaaaaaaaaaaaaaaaaaaaaaaaaaaaaaaaaaaaaaaaaaaaaaaaaaaaaaaaaaaaaaaaaaaaaaaaaaaaaaaaaaaaaaaaaaaaaaaaaaaaaaaaaaaaaaaaaaaaaaaaaaaaaaaaaaaaaaaaaaaaaaaaaaaaaaaaaaaaaaaa": 7063,
      "eedddfff": 7064,
      "bbbbbbbbbbbbbbbbbbbbbbbbbb": 7065,
      "Ġgggff": 7066,
      "hhggh": 7067,
      "eegfd": 7068,
      "eddeeeed": 7069,
      "ghgghhhhhh": 7070,
      "aaaaaaaaaaaaaaaaaaaabbbb": 7071,
      "dcbce": 7072,
      "efggfgf": 7073,
      "gggggghhhhhhhhhhhh": 7074,
      "cccccccccccccccd": 7075,
      "dfgge": 7076,
      "ghhhhgggff": 7077,
      "cccbbccb": 7078,
      "eeedddff": 7079,
      "eeghgf": 7080,
      "cddefd": 7081,
      "ccdfgff": 7082,
      "cccfd": 7083,
      "ccdcbab": 7084,
      "ghhhgggggggg": 7085,
      "ededeff": 7086,
      "egefff": 7087,
      "cefgfff": 7088,
      "dffgff": 7089,
      "eedecfb": 7090,
      "fcfb": 7091,
      "cdccccbbb": 7092,
      "dddeedd": 7093,
      "ghhhhgfef": 7094,
      "cccdfe": 7095,
      "aaaaaac": 7096,
      "ffffffffffffffffff": 7097,
      "ccdcf": 7098,
      "ddccccd": 7099,
      "ccccccccbbbbbb": 7100,
      "gghhhghh": 7101,
      "gggfffggff": 7102,
      "gggggggggggghhh": 7103,
      "fbfbfbf": 7104,
      "gfhggf": 7105,
      "cbcddf": 7106,
      "eeecdf": 7107,
      "eeeddddef": 7108,
      "fdgd": 7109,
      "cbddff": 7110,
      "ccaabbb": 7111,
      "egegdf": 7112,
      "edddeeeed": 7113,
      "gedeef": 7114,
      "gad": 7115,
      "dcdfff": 7116,
      "Ġdddddd": 7117,
      "aaacb": 7118,
      "cccddeeed": 7119,
      "aaaabaabb": 7120,
      "dffdb": 7121,
      "cbbccccdd": 7122,
      "egfeff": 7123,
      "aaaacd": 7124,
      "eddcccbb": 7125,
      "dddccdd": 7126,
      "dfgh": 7127,
      "ghhhhhg": 7128,
      "gddgbhahahahaha": 7129,
      "edcf": 7130,
      "ededeeff": 7131,
      "eeeddee": 7132,
      "fhgd": 7133,
      "cdeddddd": 7134,
      "cecee": 7135,
      "eeeddeeed": 7136,
      "dedeeef": 7137,
      "ccccbaaab": 7138,
      "ggedeff": 7139,
      "aaaaaaaaaaaaaaaaaaaaaaaaaaaaa": 7140,
      "ghhhhhhhhhhhhhhhhhhhhhhhhhhhhhhhhhhhhhhhhhhhhhhhhhhhhhhhhhhhhhhhhhhhhhhhhhhhhhhhhhhhhhhhhhhhhhhhhhhhhhhhhhhhhhhhhhhhhhhhh": 7141,
      "cdefeff": 7142,
      "cdcbcdd": 7143,
      "ggeefgf": 7144,
      "eedcdddd": 7145,
      "cadaeaea": 7146,
      "aaaaaaaaaaaaaaabbbbb": 7147,
      "chd": 7148,
      "hhhgfe": 7149,
      "eeebbb": 7150,
      "gefge": 7151,
      "cccccbbbbbbbbbbb": 7152,
      "cccddccdd": 7153,
      "ggfffffef": 7154,
      "cbbbbcccbb": 7155,
      "cedcdd": 7156,
      "cdfdbb": 7157,
      "cdfgfed": 7158,
      "cdbcbbb": 7159,
      "aaabbbabbb": 7160,
      "ggghhhhhhhhhhhhhhhhhhhhhhhhhhhhhhhhhhhhhhhhhhhhhhhhhhhhhhhh": 7161,
      "ecbabbb": 7162,
      "eedddcccd": 7163,
      "ecfcgbgb": 7164,
      "cedcbbb": 7165,
      "bbbbbaab": 7166,
      "cccbcccbbb": 7167,
      "ccccbcb": 7168,
      "gggfffgfff": 7169,
      "aaaaaabbd": 7170,
      "gghhghhhh": 7171,
      "cbbdfff": 7172,
      "efffffffgf": 7173,
      "cbddbb": 7174,
      "gggecc": 7175,
      "cbbbbaa": 7176,
      "cecfc": 7177,
      "ceffee": 7178,
      "aaaaaaaaaaaaaaaabab": 7179,
      "gbaa": 7180,
      "cedeb": 7181,
      "hbf": 7182,
      "cebfafa": 7183,
      "gghhhhhhhhhgh": 7184,
      "efffffgggf": 7185,
      "cecbbb": 7186,
      "eeeddcddd": 7187,
      "eeefffgff": 7188,
      "ccad": 7189,
      "ccdeeeff": 7190,
      "cecab": 7191,
      "ccbccccbb": 7192,
      "ghhhhhghh": 7193,
      "cdeeeeed": 7194,
      "ccdedcd": 7195,
      "eedefgf": 7196,
      "aaade": 7197,
      "eeedede": 7198,
      "gfdcdd": 7199,
      "ddeded": 7200,
      "eededdddd": 7201,
      "efefdfdf": 7202,
      "ecbaaaaaab": 7203,
      "cbbaaaaaaaaab": 7204,
      "cccccccccccccb": 7205,
      "ccccdeedd": 7206,
      "ecddef": 7207,
      "gbgcfdeed": 7208,
      "ddddeff": 7209,
      "gghhgggggf": 7210,
      "gagagbfceddecfb": 7211,
      "Ġeee": 7212,
      "hhhhg": 7213,
      "edecd": 7214,
      "cbbaaaaaaaaaaaaaaaaaaaaaaaaaaaaaaaa": 7215,
      "efffeeeef": 7216,
      "gbgdf": 7217,
      "cbabf": 7218,
      "gbgcgcf": 7219,
      "cegfed": 7220,
      "gegefd": 7221,
      "efebbb": 7222,
      "ghggfef": 7223,
      "hahagbfceddecfb": 7224,
      "gghhhgggff": 7225,
      "defgggf": 7226,
      "cbcbbcd": 7227,
      "eeeeggf": 7228,
      "ghghhhhhhhhhhhhhhhh": 7229,
      "gghhhhhhhhhggf": 7230,
      "cbbbbbbbd": 7231,
      "cddba": 7232,
      "bbcef": 7233,
      "cccbdf": 7234,
      "ccccceef": 7235,
      "cdddedf": 7236,
      "aaaababababab": 7237,
      "egfhgh": 7238,
      "ccccdfff": 7239,
      "cfdeed": 7240,
      "cddccbbbb": 7241,
      "ccbceff": 7242,
      "gghhhghhhh": 7243,
      "gggghgggggggg": 7244,
      "eefghhh": 7245,
      "cbbbbabbbbb": 7246,
      "ggffggfff": 7247,
      "eeffeeeff": 7248,
      "ccbbcccbbb": 7249,
      "dedecd": 7250,
      "ccccbcccd": 7251,
      "eefffeeed": 7252,
      "ddab": 7253,
      "ccbbaaabbb": 7254,
      "ccbbaaaaaaab": 7255,
      "cedece": 7256,
      "aaaababab": 7257,
      "cbabbab": 7258,
      "ccbaaaaaaaaab": 7259,
      "eedeeddd": 7260,
      "ghgddf": 7261,
      "aaaabbbbbbbbbbb": 7262,
      "cbbddb": 7263,
      "cbbbbaaaaab": 7264,
      "aaaaaaaaaaaaaaaaaaaaaaaaaaaaaaaaaaaaaaaaaaaaaaaaaaaaaaaaaaaaaaaaaaaaaaaaaaaaaaaaaaaaaaaa": 7265,
      "ababbbbbbbbbbb": 7266,
      "gghhhhhgggf": 7267,
      "ghgghgf": 7268,
      "hhhghh": 7269,
      "ccbddf": 7270,
      "eeeeeeeeeeeeed": 7271,
      "afb": 7272,
      "ddcbbbbb": 7273,
      "edbaaaaab": 7274,
      "ggggffee": 7275,
      "dfecbb": 7276,
      "ggggfeedd": 7277,
      "cdfeef": 7278,
      "aaabbaaaaab": 7279,
      "ceebbb": 7280,
      "cbbababbb": 7281,
      "ecddff": 7282,
      "cccefed": 7283,
      "abbbbbbbbbbbbbbbbbbbbbbbbbbbbbbbb": 7284,
      "ccbbcded": 7285,
      "ahahaha": 7286,
      "cccbbbbbbbbbbbbbbb": 7287,
      "ffffffffffffff": 7288,
      "dcbcdd": 7289,
      "ghghhgf": 7290,
      "aaaaaaaaaaaaaaaaaaaaaaaaaaaaaaaaaaaaaaaa": 7291,
      "hhgg": 7292,
      "ggghhhhhhhhhhhhhhhhhhhhhhhhhhhhhhhhhhhhhhhhhhhhhhhhhhhhhhhhhhhhhhhhhhhhhhhhhhhhhhhhhhhhhhhhhhhhhhhhhhhhhhhhhhhhhhhhhhhhhhhhhhhhhhhh": 7293,
      "ccccddeef": 7294,
      "gedddf": 7295,
      "cdecdd": 7296,
      "abacab": 7297,
      "cccdddcdd": 7298,
      "dceee": 7299,
      "hdhdhdhd": 7300,
      "aeb": 7301,
      "ccbaaaabbb": 7302,
      "efefefeff": 7303,
      "eeeddbb": 7304,
      "ecddcebfb": 7305,
      "aababab": 7306,
      "eeefeee": 7307,
      "cddddcdcd": 7308,
      "cccbbcccd": 7309,
      "eeeedcd": 7310,
      "dbdff": 7311,
      "ccddedddd": 7312,
      "cccccccccbb": 7313,
      "cccddcbb": 7314,
      "ggghhgfff": 7315,
      "eeedfe": 7316,
      "deghhh": 7317,
      "hhhfef": 7318,
      "gecbbb": 7319,
      "edddcbbb": 7320,
      "ggfdcdf": 7321,
      "gghhhhhhhgff": 7322,
      "cgdgd": 7323,
      "gfgfhf": 7324,
      "aaef": 7325,
      "cccccccccccccdd": 7326,
      "caaaaabbb": 7327,
      "aaaabbaabb": 7328,
      "cccccdeed": 7329,
      "cececeb": 7330,
      "ebcdd": 7331,
      "gggghghgggg": 7332,
      "ggggggfeef": 7333,
      "eefdfd": 7334,
      "ebaaabb": 7335,
      "gdhe": 7336,
      "cefecd": 7337,
      "geffggf": 7338,
      "gggggfffffffff": 7339,
      "Ġcccb": 7340,
      "aacb": 7341,
      "cceegf": 7342,
      "eeeeffffffffff": 7343,
      "dbddd": 7344,
      "ggghhggggf": 7345,
      "cbccded": 7346,
      "ggggggffed": 7347,
      "hhgeef": 7348,
      "eeffffeed": 7349,
      "ghhhhhhhhhgff": 7350,
      "gbfdeedfb": 7351,
      "ghggfffff": 7352,
      "gggefgf": 7353,
      "ghhgggggff": 7354,
      "ccddccddd": 7355,
      "ccceeddd": 7356,
      "effgfed": 7357,
      "ccbcdcd": 7358,
      "cefggggf": 7359,
      "caaabab": 7360,
      "effedbb": 7361,
      "ccccbbbd": 7362,
      "dddfgf": 7363,
      "egc": 7364,
      "ccccccddddddd": 7365,
      "cddddee": 7366,
      "ghhhhhhgfff": 7367,
      "cbcdedd": 7368,
      "cdccbd": 7369,
      "cfedb": 7370,
      "cedeeff": 7371,
      "cbcdbbb": 7372,
      "aaaaaaaaaaabbbbbbb": 7373,
      "Ġbbbbbbbbb": 7374,
      "gdeef": 7375,
      "cdebbb": 7376,
      "gfgggghhhh": 7377,
      "gggfffffffffff": 7378,
      "eedfcgbhahahb": 7379,
      "egghhh": 7380,
      "cbbbcdcb": 7381,
      "ccbbded": 7382,
      "ccbbccddd": 7383,
      "efecdd": 7384,
      "ghhhhhhhgggf": 7385,
      "dcfff": 7386,
      "aaaaaaabbab": 7387,
      "cccbbbcdd": 7388,
      "acdf": 7389,
      "cbbbbcbbbbb": 7390,
      "eddddefff": 7391,
      "ghebb": 7392,
      "cbbbbcdef": 7393,
      "aabce": 7394,
      "ggggfgffff": 7395,
      "aaaabaaabb": 7396,
      "ghhhhhgfed": 7397,
      "ccdffed": 7398,
      "ccddccbbb": 7399,
      "cedeeef": 7400,
      "eeffffeef": 7401,
      "cebebfb": 7402,
      "Ġaaaaaaaaaaaaaaaaaaaaaaaa": 7403,
      "cfghf": 7404,
      "abbcd": 7405,
      "aaabaaaaaab": 7406,
      "eeedeefff": 7407,
      "ccecdb": 7408,
      "cbbbbbbabbb": 7409,
      "gfhff": 7410,
      "cgchb": 7411,
      "geeeedd": 7412,
      "cdedcd": 7413,
      "dffggf": 7414,
      "hghd": 7415,
      "eeggh": 7416,
      "ghhhhggh": 7417,
      "dbbbd": 7418,
      "ccefffff": 7419,
      "aaacff": 7420,
      "cefedb": 7421,
      "ggghgghhh": 7422,
      "gfdfff": 7423,
      "daf": 7424,
      "geffefd": 7425,
      "caabab": 7426,
      "gbfdeecfb": 7427,
      "ccbbabab": 7428,
      "daeb": 7429,
      "cccbbbaab": 7430,
      "ggghhhgggf": 7431,
      "cfddd": 7432,
      "cefddd": 7433,
      "eeeffefff": 7434,
      "ghhhhgef": 7435,
      "ghhhfb": 7436,
      "cbcbcdd": 7437,
      "gfgfe": 7438,
      "aaaaaaaaaaaaaaaaaaaaaaaaaaaaaa": 7439,
      "ccccedd": 7440,
      "cfhg": 7441,
      "dbad": 7442,
      "aaabcd": 7443,
      "gghhhhge": 7444,
      "eedefed": 7445,
      "eefgggggf": 7446,
      "ccccccccccbbb": 7447,
      "cbbbbbabbbb": 7448,
      "eeeffdd": 7449,
      "cccbbcccb": 7450,
      "ebdcdd": 7451,
      "gggedcb": 7452,
      "ceegff": 7453,
      "gggggggfgff": 7454,
      "ccbdddd": 7455,
      "cccdcccb": 7456,
      "eeddccccd": 7457,
      "ccbbccbbbb": 7458,
      "eefgfe": 7459,
      "gggfgggggf": 7460,
      "ebcdf": 7461,
      "cdddeee": 7462,
      "ggffde": 7463,
      "ghhgeff": 7464,
      "effffggggf": 7465,
      "dbbf": 7466,
      "cbcfff": 7467,
      "ehge": 7468,
      "cbaaabbbbb": 7469,
      "cbbacb": 7470,
      "ggffeeed": 7471,
      "hfed": 7472,
      "hcgb": 7473,
      "eehhh": 7474,
      "cefgfe": 7475,
      "eeeefdd": 7476,
      "accb": 7477,
      "cceedddd": 7478,
      "ccaaaaaaab": 7479,
      "effggh": 7480,
      "cdddcccb": 7481,
      "ggfdccd": 7482,
      "ghhhhhhhhhhhhf": 7483,
      "hhgfef": 7484,
      "gfffggfff": 7485,
      "gghhhged": 7486,
      "ghfbb": 7487,
      "dffdd": 7488,
      "abacbd": 7489,
      "gddbb": 7490,
      "heb": 7491,
      "dfefff": 7492,
      "eeffeefff": 7493,
      "ffgggf": 7494,
      "gfg": 7495,
      "cbbbaaaaaaab": 7496,
      "cdfgfe": 7497,
      "eeeeeeeeee": 7498,
      "abbbbbaab": 7499,
      "gfggggffff": 7500,
      "cccccddef": 7501,
      "ccdcddddd": 7502,
      "bbbbbbd": 7503,
      "hgeef": 7504,
      "hhhhhhhhhhhhhhhhhhhhhhhhhhhhhhhhhhhhhhhhhhhhhhhhhhhh": 7505,
      "aaaaabaaaaab": 7506,
      "ececdd": 7507,
      "dddeeef": 7508,
      "cdddeded": 7509,
      "gghhhgg": 7510,
      "ggggggfgfff": 7511,
      "ddedbb": 7512,
      "hchchb": 7513,
      "aaabaa": 7514,
      "ccbbbbccdd": 7515,
      "gegfhf": 7516,
      "ccbcccccb": 7517,
      "aaabbabbb": 7518,
      "eddddeddd": 7519,
      "gggghhhhhhhhhhhhhhhhhh": 7520,
      "cgge": 7521,
      "ccacb": 7522,
      "ccbbbbbaab": 7523,
      "edcdfff": 7524,
      "bbbbcd": 7525,
      "eddcddddd": 7526,
      "efffeeedd": 7527,
      "cdcdccccd": 7528,
      "cefebb": 7529,
      "cdbcd": 7530,
      "ccccbcd": 7531,
      "eeffffffed": 7532,
      "eebaa": 7533,
      "geeeeef": 7534,
      "Ġfffffff": 7535,
      "cbbabbd": 7536,
      "ghhhhhhhhhhhhhhhhhhhhhhhhhhhhhhhhhhhhhhhhhhhhhhhhhh": 7537,
      "ggggggghhhhhhhhh": 7538,
      "cddbbbbb": 7539,
      "cbbbaaaaabb": 7540,
      "cacbcb": 7541,
      "ghhhhhhfd": 7542,
      "ggggghhggf": 7543,
      "ggfffggggf": 7544,
      "cedbaab": 7545,
      "ghgghhhhhhh": 7546,
      "ccdeded": 7547,
      "cbbbceff": 7548,
      "ghghff": 7549,
      "cdfeff": 7550,
      "gghhgfef": 7551,
      "ghhhhhgfe": 7552,
      "gggfffeef": 7553,
      "aaaaace": 7554,
      "cdffe": 7555,
      "aaaaaaaaaababb": 7556,
      "cbcbba": 7557,
      "gggfdcb": 7558,
      "ghggggggff": 7559,
      "ffdbbb": 7560,
      "eddcde": 7561,
      "cccddeddd": 7562,
      "ccbbbaaaab": 7563,
      "ebebebdb": 7564,
      "aaaabbbabb": 7565,
      "cccfgf": 7566,
      "Ġcccccccc": 7567,
      "ccbbcbcb": 7568,
      "ehhgf": 7569,
      "Ġcbbbb": 7570,
      "ghhhghhhhhhh": 7571,
      "gebaa": 7572,
      "gfffffffef": 7573,
      "gbbb": 7574,
      "efffgffff": 7575,
      "ccbbbdf": 7576,
      "ccceefff": 7577,
      "eeeefggff": 7578,
      "ccbbbbaabb": 7579,
      "cecececed": 7580,
      "cdcbaa": 7581,
      "eedededf": 7582,
      "ghhhhhhhhhhhhhhhhhhhhhhhhhhhhhhhhhhhhhhhhhhhhhhhhhhhh": 7583,
      "cccbbccdd": 7584,
      "eecde": 7585,
      "gggeeee": 7586,
      "eeege": 7587,
      "cccddbbb": 7588,
      "ceddede": 7589,
      "ggggggghhhhhhhhhh": 7590,
      "ccbdcb": 7591,
      "gggfdb": 7592,
      "hehehehe": 7593,
      "cccefgf": 7594,
      "gefffgf": 7595,
      "effeeeed": 7596,
      "edfhhh": 7597,
      "ccccccdddddddd": 7598,
      "ccffed": 7599,
      "cbbcbda": 7600,
      "dehhh": 7601,
      "cccbbcbb": 7602,
      "cdcbaabb": 7603,
      "gggggggfd": 7604,
      "gghhfe": 7605,
      "cccbbaaabb": 7606,
      "hhhhhhgff": 7607,
      "abacabab": 7608,
      "eefefeed": 7609,
      "ghghhhf": 7610,
      "efefgff": 7611,
      "gghhhgd": 7612,
      "cccdeffff": 7613,
      "gggggggggggggggggf": 7614,
      "Ġaaa": 7615,
      "ccabd": 7616,
      "eeeeeeeeded": 7617,
      "gghhggggh": 7618,
      "cccbbaaaab": 7619,
      "ccceffd": 7620,
      "cccbbbbd": 7621,
      "cdffdd": 7622,
      "ghhgfee": 7623,
      "cbbabaab": 7624,
      "cbegf": 7625,
      "gegfgggg": 7626,
      "eeeddeedd": 7627,
      "ghhhhhghhhhh": 7628,
      "eedfggf": 7629,
      "eddcbbbbb": 7630,
      "edfgg": 7631,
      "edfcfb": 7632,
      "dffee": 7633,
      "cbbcdbbb": 7634,
      "acacacaca": 7635,
      "cbfd": 7636,
      "cehhf": 7637,
      "ccbccf": 7638,
      "dbcdb": 7639,
      "ggggggghggf": 7640,
      "abcf": 7641,
      "cgbhbhbhb": 7642,
      "gchbhbhbhb": 7643,
      "eddcccccccc": 7644,
      "eeefeeeed": 7645,
      "ggggffggff": 7646,
      "dfgggg": 7647,
      "cccbc": 7648,
      "edddddddded": 7649,
      "gggeefff": 7650,
      "cccbaaaaaab": 7651,
      "ccccdccdd": 7652,
      "efdcdf": 7653,
      "efedcdd": 7654,
      "baaa": 7655,
      "ghgggffff": 7656,
      "gegfe": 7657,
      "cedbbbb": 7658,
      "cedede": 7659,
      "gedfff": 7660,
      "gggggfggggf": 7661,
      "cdcaaa": 7662,
      "dfefdf": 7663,
      "ededfff": 7664,
      "ccbbbaaabb": 7665,
      "ghhfee": 7666,
      "fbfbfbfb": 7667,
      "aaaaaaaaaaaaaaaaaaabbbb": 7668,
      "cbbaaaaabbb": 7669,
      "edddeeee": 7670,
      "eeedcccdd": 7671,
      "gghhhhgfff": 7672,
      "gdfdfdf": 7673,
      "efedeef": 7674,
      "cbaaaaaaaaaaaab": 7675,
      "efffeeeed": 7676,
      "eedddcd": 7677,
      "dcbdb": 7678,
      "eeeffffef": 7679,
      "eddefe": 7680,
      "cbbbbbcbbbb": 7681,
      "ddcab": 7682,
      "gggfgef": 7683,
      "eeedcbbbb": 7684,
      "eeefde": 7685,
      "ccccbcbbbb": 7686,
      "cbccbbbbbb": 7687,
      "cbcdcbb": 7688,
      "acadb": 7689,
      "eefegd": 7690,
      "cddedb": 7691,
      "gdedf": 7692,
      "ggffffffffffff": 7693,
      "aaaaaaaaabbbbbbbb": 7694,
      "ddddee": 7695,
      "eddddccdd": 7696,
      "ccccccbbbbbbbbbb": 7697,
      "cegged": 7698,
      "dedeeff": 7699,
      "cdcddff": 7700,
      "ccdcccddd": 7701,
      "ccbbcdddd": 7702,
      "ghggfgff": 7703,
      "ghhhhhhhhhhhhhhhhhhhhhhhhhhhhhhhhhhhhhhhhhhhhhhh": 7704,
      "gggghhhgff": 7705,
      "cbbaaaaaaaaaab": 7706,
      "ccdcdf": 7707,
      "cbcbbbbbbbbbbb": 7708,
      "Ġhhgf": 7709,
      "eddcded": 7710,
      "ghhhhggghh": 7711,
      "cacbdb": 7712,
      "gghhgggggggg": 7713,
      "hhhhhgd": 7714,
      "cedddf": 7715,
      "gedded": 7716,
      "cefhhh": 7717,
      "ababacb": 7718,
      "aaabba": 7719,
      "eeeffeedd": 7720,
      "ddfee": 7721,
      "ggghhhhhhhgf": 7722,
      "hgdf": 7723,
      "gggefggf": 7724,
      "ccdeeeef": 7725,
      "cdddbbbb": 7726,
      "efedcd": 7727,
      "gegfgfff": 7728,
      "Ġffed": 7729,
      "ggeegf": 7730,
      "eddeb": 7731,
      "ghhhghgggg": 7732,
      "ededede": 7733,
      "abbbbaabb": 7734,
      "cccaaaab": 7735,
      "gggggfdd": 7736,
      "aaaaaabbaab": 7737,
      "ceebab": 7738,
      "hhhhhhhhhhhhhhhhhhhhhhhhhhhhhhhhhhhhhhhhh": 7739,
      "dfhgf": 7740,
      "ghfhe": 7741,
      "cedfde": 7742,
      "cbcbbbbbbbbbbbb": 7743,
      "ccbef": 7744,
      "ggffeee": 7745,
      "dbbaaab": 7746,
      "hghe": 7747,
      "Ġbaab": 7748,
      "Ġffd": 7749,
      "eeeeecb": 7750,
      "ghhhgeef": 7751,
      "cbcbdbd": 7752,
      "eeeeeeeeedddd": 7753,
      "cdecbbb": 7754,
      "geeggf": 7755,
      "ehg": 7756,
      "eeeeefffffffff": 7757,
      "efffffffffffffff": 7758,
      "ghhgfgggg": 7759,
      "eeefeeddd": 7760,
      "cdcdcccccccc": 7761,
      "ccdddcbb": 7762,
      "cfcgcf": 7763,
      "Ġfb": 7764,
      "cededddd": 7765,
      "gghhgghhhh": 7766,
      "efdcdd": 7767,
      "aabbbaaaab": 7768,
      "ccccbbaab": 7769,
      "dfegef": 7770,
      "aaaaaabbbab": 7771,
      "ccdede": 7772,
      "eeffggfff": 7773,
      "dcbdd": 7774,
      "cffgff": 7775,
      "ccfgff": 7776,
      "ggggggggggffffff": 7777,
      "cdcdee": 7778,
      "gfgfgfffff": 7779,
      "Ġffgf": 7780,
      "dfgfed": 7781,
      "dddddddddddddddddddddddddddddddddddddddddddddddddddddddddddddddddddddddddddddddddddddddddddddddddddddddddddddddddddddddddddddddd": 7782,
      "eedcded": 7783,
      "abbbabbbbb": 7784,
      "gghhhggghh": 7785,
      "ggghhhff": 7786,
      "cddfggf": 7787,
      "eddccccdd": 7788,
      "gegee": 7789,
      "gghggd": 7790,
      "edddffff": 7791,
      "edddeeeef": 7792,
      "hdhb": 7793,
      "eedddddded": 7794,
      "ghgeee": 7795,
      "cdfffd": 7796,
      "cgcgb": 7797,
      "Ġdded": 7798,
      "cbbdcd": 7799,
      "ccbbcccc": 7800,
      "gefhh": 7801,
      "dedeedf": 7802,
      "eeefffggf": 7803,
      "abababaab": 7804,
      "ebddd": 7805,
      "ccbbbabbbb": 7806,
      "ecaaabb": 7807,
      "ccccddded": 7808,
      "effgfgff": 7809,
      "cfbgagaga": 7810,
      "ccdbaab": 7811,
      "gcfdefd": 7812,
      "ccdedf": 7813,
      "ghhgc": 7814,
      "ggggfefff": 7815,
      "edddddeef": 7816,
      "cbceee": 7817,
      "eafafafaea": 7818,
      "gggfggfff": 7819,
      "gghgggggggggggg": 7820,
      "cdfedb": 7821,
      "ggghgfd": 7822,
      "gggggfgffff": 7823,
      "eeefffeef": 7824,
      "eafafafafa": 7825,
      "eeedeeeef": 7826,
      "eeeeeeeeeeddd": 7827,
      "cddddcddd": 7828,
      "aaabbbaaaab": 7829,
      "cdcbaaaab": 7830,
      "eeeeefeed": 7831,
      "cbac": 7832,
      "cddedff": 7833,
      "aaaaaaaaaaaaaaaaaaaaaaaaaaaaaaaaaaaaaaaaaaaaaaaaaab": 7834,
      "efgggff": 7835,
      "cfggd": 7836,
      "cbbbbbbcdd": 7837,
      "cdddddcdd": 7838,
      "cddbaaab": 7839,
      "Ġhhf": 7840,
      "cbccce": 7841,
      "ccdcccccd": 7842,
      "cecbab": 7843,
      "gecce": 7844,
      "eeefffeed": 7845,
      "ddebb": 7846,
      "aabbbaaabb": 7847,
      "aaaaaacf": 7848,
      "cceeeddd": 7849,
      "ghghhf": 7850,
      "cbbbcdff": 7851,
      "cccdcbbbb": 7852,
      "dedcdd": 7853,
      "aaaaaaaaaaaaaabbbbbb": 7854,
      "cgbgbgbgbf": 7855,
      "hgggff": 7856,
      "edddeeeff": 7857,
      "ccbbcdef": 7858,
      "gggggfffgf": 7859,
      "ccbcccddd": 7860,
      "cbbbdcb": 7861,
      "gggfgggggggg": 7862,
      "gggfghh": 7863,
      "cccccccccbbbb": 7864,
      "efefefe": 7865,
      "gggghgggff": 7866,
      "gfedee": 7867,
      "ghhgfeef": 7868,
      "aaaaaaaaaabaaab": 7869,
      "cbeff": 7870,
      "aaaaabbabb": 7871,
      "Ġbabb": 7872,
      "ecefff": 7873,
      "cdcbbbbbbb": 7874,
      "ghgffef": 7875,
      "edfddd": 7876,
      "hfe": 7877,
      "ccdfe": 7878,
      "deefffff": 7879,
      "ghhhhhhhhhhhhgf": 7880,
      "cccccced": 7881,
      "ccddfe": 7882,
      "eeeededddd": 7883,
      "ghhhhhfd": 7884,
      "ccbbbbbbbbbbbbbbbbb": 7885,
      "hfgef": 7886,
      "efecdf": 7887,
      "ccfgd": 7888,
      "aaaaaaaabaab": 7889,
      "cecececd": 7890,
      "hhhe": 7891,
      "gggeffff": 7892,
      "ccbcccbbbb": 7893,
      "ggghggggggf": 7894,
      "eeeefdf": 7895,
      "effffffd": 7896,
      "ceghhhhh": 7897,
      "cdcdeff": 7898,
      "gghhhghgh": 7899,
      "ghgebb": 7900,
      "gbgcfdee": 7901,
      "cdeddb": 7902,
      "ccdcdccb": 7903,
      "cfedd": 7904,
      "dbac": 7905,
      "ggecc": 7906,
      "edddddff": 7907,
      "ggded": 7908,
      "gggddf": 7909,
      "efffeeee": 7910,
      "ebabbb": 7911,
      "ababd": 7912,
      "ccdddee": 7913,
      "edddddedd": 7914,
      "ghhgedf": 7915,
      "efffdf": 7916,
      "gfdc": 7917,
      "fad": 7918,
      "egebb": 7919,
      "efhhhh": 7920,
      "cbbabbbbbbb": 7921,
      "ccbceed": 7922,
      "ggghgfe": 7923,
      "ghggghhhhhh": 7924,
      "gagahaha": 7925,
      "gggghhhhhhhhhhhhhhhhhhhh": 7926,
      "hhhghhhh": 7927,
      "cfghgf": 7928,
      "dbdbb": 7929,
      "cbbbcee": 7930,
      "cbcdeef": 7931,
      "ccdfgggf": 7932,
      "edddddeff": 7933,
      "eeeeffggf": 7934,
      "cfeef": 7935,
      "ccbbcdcb": 7936,
      "eeeedeedd": 7937,
      "fbfced": 7938,
      "gghggghgh": 7939,
      "cadf": 7940,
      "ecaaaaaab": 7941,
      "eeffffffgf": 7942,
      "abababababb": 7943,
      "hgfgf": 7944,
      "hhhhhhhhhhf": 7945,
      "cbbcccccd": 7946,
      "ghhggfed": 7947,
      "ccccdbbb": 7948,
      "gegegegef": 7949,
      "ehff": 7950,
      "hggfgf": 7951,
      "gggdef": 7952,
      "gecdd": 7953,
      "effffgffff": 7954,
      "gghggfd": 7955,
      "cddddeddd": 7956,
      "cccbbcddd": 7957,
      "hchcgdf": 7958,
      "ggcab": 7959,
      "cccedddd": 7960,
      "ececdb": 7961,
      "dfghgf": 7962,
      "ccbaaabbbb": 7963,
      "cccbcbbbbbb": 7964,
      "eddfgff": 7965,
      "cdccf": 7966,
      "ccdccccdd": 7967,
      "gghhggggff": 7968,
      "cccbbabbbb": 7969,
      "fhg": 7970,
      "cdfgfff": 7971,
      "efedbbb": 7972,
      "baaaab": 7973,
      "ddedcb": 7974,
      "hhhghf": 7975,
      "cbbbaaabbb": 7976,
      "ghhggef": 7977,
      "eghff": 7978,
      "hdhchchchd": 7979,
      "ddccccb": 7980,
      "efged": 7981,
      "efg": 7982,
      "ccbcff": 7983,
      "ghhhhfff": 7984,
      "cccdcb": 7985,
      "edbce": 7986,
      "ggffffeef": 7987,
      "ddbaaa": 7988,
      "aaaabbbaaab": 7989,
      "cddedbb": 7990,
      "gggedbb": 7991,
      "ccdcbd": 7992,
      "edbdf": 7993,
      "ggege": 7994,
      "eeddfgf": 7995,
      "acacaca": 7996,
      "ddddeef": 7997,
      "dddbbbb": 7998,
      "ggggggggghhhhhh": 7999,
      "ghhghggf": 8000,
      "cccbaabbb": 8001,
      "fdeed": 8002,
      "cebdbd": 8003,
      "eeddddeff": 8004,
      "cdddede": 8005,
      "ccddbbbb": 8006,
      "eeffgggggf": 8007,
      "eeefggfff": 8008,
      "ggghggghhh": 8009,
      "ccbcbcbbb": 8010,
      "cdcdcddddd": 8011,
      "gggggffgff": 8012,
      "Ġccbbb": 8013,
      "cfgeb": 8014,
      "ghhhhhghgh": 8015,
      "aaaaaabbbbbbbbbb": 8016,
      "cceddcd": 8017,
      "ddeffff": 8018,
      "eeedcb": 8019,
      "cccccccccddddd": 8020,
      "dffdbb": 8021,
      "edcdeef": 8022,
      "eecbabb": 8023,
      "aaca": 8024,
      "gffgd": 8025,
      "gggfgggg": 8026,
      "ghhgghhhhhh": 8027,
      "eeeeeeeeeeeeef": 8028,
      "eeeffgggff": 8029,
      "ggeccf": 8030,
      "effedeff": 8031,
      "ccddddddddddd": 8032,
      "ccdcef": 8033,
      "fbgbgb": 8034,
      "cceggff": 8035,
      "cbbcdeff": 8036,
      "ffedff": 8037,
      "cdcaa": 8038,
      "gggfedf": 8039,
      "efffefffff": 8040,
      "egegfgf": 8041,
      "Ġggfff": 8042,
      "efhf": 8043,
      "gghggggggff": 8044,
      "gghgggghhh": 8045,
      "ccbbcde": 8046,
      "eeedddeef": 8047,
      "hhhhhhhhhhhhhhhhhhhhhhhhhhhhhhhhhhhhhhhhhhhhhhhhhh": 8048,
      "ggeeddd": 8049,
      "dddeddd": 8050,
      "cccddddef": 8051,
      "geebb": 8052,
      "cabbab": 8053,
      "eghfd": 8054,
      "hahahahagbf": 8055,
      "caaaaaaaabb": 8056,
      "cceeffff": 8057,
      "dddcddd": 8058,
      "cccdce": 8059,
      "ebaaaaa": 8060,
      "ghhhhhhhge": 8061,
      "gffffeeef": 8062,
      "gfffeedd": 8063,
      "eeeccbb": 8064,
      "cccddcd": 8065,
      "bbbbbbbbbbbbbbbbbbbbbbbbbbbb": 8066,
      "dbdbdcd": 8067,
      "cfcgcgcf": 8068,
      "cecedddd": 8069,
      "ghhhhggghhh": 8070,
      "cccdccddd": 8071,
      "ggffdf": 8072,
      "ccccdeeff": 8073,
      "ccccbdb": 8074,
      "ggecbbb": 8075,
      "eeeefffd": 8076,
      "ghghfgf": 8077,
      "cfcfcfdfd": 8078,
      "eeeeededed": 8079,
      "cddddeeed": 8080,
      "eefedbb": 8081,
      "Ġbbd": 8082,
      "ccdccbbbbb": 8083,
      "cccbabbbb": 8084,
      "gefeffff": 8085,
      "eeeeddff": 8086,
      "hehehehfh": 8087,
      "ggcd": 8088,
      "cccbcded": 8089,
      "gggghggfff": 8090,
      "ggggffedd": 8091,
      "dcbaaa": 8092,
      "cbbdeed": 8093,
      "cccccbbab": 8094,
      "hhhfb": 8095,
      "gggfdbb": 8096,
      "gghgghhhhh": 8097,
      "eeeddeeff": 8098,
      "aaaaaaaaaaaaabbbbbb": 8099,
      "cdefeef": 8100,
      "dcbdf": 8101,
      "ggfdee": 8102,
      "egggggf": 8103,
      "aaaaaaaaaaaaaaaabbbbb": 8104,
      "cbbccbbbbb": 8105,
      "cfhhgf": 8106,
      "gegffgf": 8107,
      "dcdeed": 8108,
      "hgfb": 8109,
      "ccdbbbbb": 8110,
      "ccbaaaaaaabb": 8111,
      "hhhhhhhhhhhhhhhhhhhhhhhhhhhhhhhhhhhhhhhhhhhhhhhhhhhhhh": 8112,
      "cccdeeddd": 8113,
      "cccdcdcdd": 8114,
      "ghhhggg": 8115,
      "aabbaaaaab": 8116,
      "ghhhhhhgd": 8117,
      "fbfcedd": 8118,
      "eccbbbb": 8119,
      "fdd": 8120,
      "effede": 8121,
      "aabbbaa": 8122,
      "eeeeefggf": 8123,
      "cccbbcbbb": 8124,
      "aced": 8125,
      "hghhhhhhhh": 8126,
      "cccccccbbbbbbbb": 8127,
      "gehfhf": 8128,
      "efffde": 8129,
      "cccbbccbbb": 8130,
      "eeedddeff": 8131,
      "ghgffd": 8132,
      "eeddeeddd": 8133,
      "eefffeddd": 8134,
      "ghhhhhhgfd": 8135,
      "eeeegff": 8136,
      "gggghgfff": 8137,
      "efecbbb": 8138,
      "ggghhge": 8139,
      "edddddcdd": 8140,
      "cghgf": 8141,
      "aaaaaaaaabd": 8142,
      "cdceddd": 8143,
      "cceffe": 8144,
      "efffggfff": 8145,
      "decbab": 8146,
      "ggggfeddd": 8147,
      "ceefdd": 8148,
      "aaaaaaaaaaaaaaaaaaaaaaaaabbb": 8149,
      "ghhhhhhhhhhhhghgh": 8150,
      "cbbcedd": 8151,
      "cbbaabbbbb": 8152,
      "ghhhggghhhh": 8153,
      "gffffffffffffff": 8154,
      "cefeddd": 8155,
      "eeegd": 8156,
      "gefeefd": 8157,
      "ccccdddb": 8158,
      "aabbbbbbbbbbbbbbb": 8159,
      "Ġaabbb": 8160,
      "bbbcdf": 8161,
      "abababbbbbb": 8162,
      "hhhhhhhhhhhhhhhhhhhhhhhhhhhhhhhhhhhhhhhhhhhhhhhhhhhhh": 8163,
      "edeeef": 8164,
      "cccaabb": 8165,
      "bbbbbbbbbbbbbbbbbbbbbbbbbbb": 8166,
      "aaaaabbbbbbbbbbb": 8167,
      "ggfedeff": 8168,
      "cdccbbbbbb": 8169,
      "gghhghhhhh": 8170,
      "efedee": 8171,
      "eeeeedddddddd": 8172,
      "ccbaaaaaa": 8173,
      "eeeeeeeeeefff": 8174,
      "cebaab": 8175,
      "efffffedd": 8176,
      "cffee": 8177,
      "ccfee": 8178,
      "dceddd": 8179,
      "eeeeeedddddddd": 8180,
      "cabbbab": 8181,
      "Ġaaaaabb": 8182,
      "effffeddd": 8183,
      "cbcbaaab": 8184,
      "aaaabaaa": 8185,
      "gghhhhhhhhhf": 8186,
      "ccccccbd": 8187,
      "eeffgggg": 8188,
      "eddddddef": 8189,
      "ghhgdbb": 8190,
      "cccdced": 8191,
      "cddfee": 8192,
      "hggg": 8193,
      "effgfd": 8194,
      "cegfff": 8195,
      "abbcdd": 8196,
      "ghhhgghhhhh": 8197,
      "eccccb": 8198,
      "effffeeed": 8199,
      "gbed": 8200,
      "ghfdf": 8201,
      "ccbbf": 8202,
      "eeefefe": 8203,
      "edbcdd": 8204,
      "edebb": 8205,
      "geefef": 8206,
      "ccccbbbab": 8207,
      "ghgghf": 8208,
      "eeeefeeed": 8209,
      "gegegegfgf": 8210,
      "cccccdcddd": 8211,
      "cbccccbbbb": 8212,
      "ggdee": 8213,
      "cbbed": 8214,
      "cbbbbccccd": 8215,
[...]
