{
  "version": "1.0",
  "truncation": null,
  "padding": null,
  "added_tokens": [
    {
      "id": 0,
      "content": "[UNK]",
      "single_word": false,
      "lstrip": false,
      "rstrip": false,
      "normalized": false,
      "special": true
    },
    {
      "id": 1,
      "content": "[CLS]",
      "single_word": false,
      "lstrip": false,
      "rstrip": false,
      "normalized": false,
      "special": true
    },
    {
      "id": 2,
      "content": "[SEP]",
      "single_word": false,
      "lstrip": false,
      "rstrip": false,
      "normalized": false,
      "special": true
    },
    {
      "id": 3,
      "content": "[PAD]",
      "single_word": false,
      "lstrip": false,
      "rstrip": false,
      "normalized": false,
      "special": true
    },
    {
      "id": 4,
      "content": "[MASK]",
      "single_word": false,
      "lstrip": false,
      "rstrip": false,
      "normalized": false,
      "special": true
    }
  ],
  "normalizer": null,
  "pre_tokenizer": {
    "type": "Whitespace"
  },
  "post_processor": null,
  "decoder": null,
  "model": {
    "type": "BPE",
    "dropout": null,
    "unk_token": null,
    "continuing_subword_prefix": null,
    "end_of_word_suffix": null,
    "fuse_unk": false,
    "vocab": {
      "[UNK]": 0,
      "[CLS]": 1,
      "[SEP]": 2,
      "[PAD]": 3,
      "[MASK]": 4,
      "a": 5,
      "b": 6,
      "c": 7,
      "d": 8,
      "e": 9,
      "f": 10,
      "g": 11,
      "h": 12,
      "aa": 13,
      "hh": 14,
      "bb": 15,
      "gg": 16,
      "cc": 17,
      "ff": 18,
      "dd": 19,
      "ee": 20,
      "aaaa": 21,
      "hhhh": 22,
      "bbbb": 23,
      "gggg": 24,
      "aaaaaaaa": 25,
      "hhhhhhhh": 26,
      "ed": 27,
      "cd": 28,
      "ef": 29,
      "gf": 30,
      "cb": 31,
      "cccc": 32,
      "ffff": 33,
      "edd": 34,
      "ab": 35,
      "eeee": 36,
      "cdd": 37,
      "bbb": 38,
      "fff": 39,
      "gh": 40,
      "aaaaaaaaaaaaaaaa": 41,
      "hhhhhhhhhhhhhhhh": 42,
      "dddd": 43,
      "eff": 44,
      "cbb": 45,
      "hhh": 46,
      "ggg": 47,
      "ggf": 48,
      "ccd": 49,
      "eed": 50,
      "eef": 51,
      "ddd": 52,
      "cf": 53,
      "gff": 54,
      "cbbbb": 55,
      "ce": 56,
      "df": 57,
      "ccb": 58,
      "abb": 59,
      "gggggggg": 60,
      "aab": 61,
      "ge": 62,
      "db": 63,
      "cbbb": 64,
      "bbbbbbbb": 65,
      "gggf": 66,
      "ghh": 67,
      "ghhhh": 68,
      "aaaaaaaaaaaaaaaaaaaaaaaaaaaaaaaa": 69,
      "hhhhhhhhhhhhhhhhhhhhhhhhhhhhhhhh": 70,
      "effff": 71,
      "ggh": 72,
      "aaab": 73,
      "efff": 74,
      "cccd": 75,
      "aaa": 76,
      "eb": 77,
      "gd": 78,
      "eddd": 79,
      "cddd": 80,
      "ggff": 81,
      "eeed": 82,
      "ccdd": 83,
      "eedd": 84,
      "eeff": 85,
      "ghhh": 86,
      "gb": 87,
      "ccbb": 88,
      "eeef": 89,
      "ced": 90,
      "bbbbb": 91,
      "cbcb": 92,
      "gffff": 93,
      "gfff": 94,
      "ah": 95,
      "cccccccc": 96,
      "cdcd": 97,
      "gfgf": 98,
      "ghgh": 99,
      "cef": 100,
      "de": 101,
      "cccb": 102,
      "edf": 103,
      "hf": 104,
      "eee": 105,
      "ca": 106,
      "abab": 107,
      "efef": 108,
      "aabb": 109,
      "cccdd": 110,
      "ggggf": 111,
      "cdf": 112,
      "eded": 113,
      "ghhhhhhhh": 114,
      "gghhhh": 115,
      "eeedd": 116,
      "aaaab": 117,
      "abbb": 118,
      "fffff": 119,
      "gggff": 120,
      "bbbbbb": 121,
      "cdb": 122,
      "gghh": 123,
      "eeeeeeee": 124,
      "gef": 125,
      "ccbbb": 126,
      "fb": 127,
      "gggh": 128,
      "gc": 129,
      "aaabb": 130,
      "ded": 131,
      "ahah": 132,
      "gfd": 133,
      "cbbbbb": 134,
      "eefff": 135,
      "ecb": 136,
      "aaaaaaaaaaaa": 137,
      "edddd": 138,
      "ggfff": 139,
      "ddddd": 140,
      "hhhhh": 141,
      "hhhhhhhhhhhhhhhhhhhhhhhhhhhhhhhhhhhhhhhhhhhhhhhhhhhhhhhhhhhhhhhh": 142,
      "egf": 143,
      "abbbb": 144,
      "fd": 145,
      "eeddd": 146,
      "aaaaaaaaaaaaaaaaaaaaaaaaaaaaaaaaaaaaaaaaaaaaaaaaaaaaaaaaaaaaaaaa": 147,
      "ccccd": 148,
      "ecd": 149,
      "cbd": 150,
      "gghhh": 151,
      "ccddd": 152,
      "eeeff": 153,
      "efd": 154,
      "ged": 155,
      "ffffffff": 156,
      "cdddd": 157,
      "cccbb": 158,
      "ec": 159,
      "hhhhhh": 160,
      "dddddddd": 161,
      "ccc": 162,
      "eeeef": 163,
      "he": 164,
      "ccbbbb": 165,
      "da": 166,
      "ccccb": 167,
      "ghhhhh": 168,
      "aaaaab": 169,
      "ghf": 170,
      "aabbb": 171,
      "eeeed": 172,
      "ga": 173,
      "hb": 174,
      "gggggf": 175,
      "eeffff": 176,
      "cab": 177,
      "hd": 178,
      "ea": 179,
      "ceb": 180,
      "cdef": 181,
      "gghhhhhhhh": 182,
      "cccbbbb": 183,
      "edb": 184,
      "gdf": 185,
      "cee": 186,
      "ggffff": 187,
      "cde": 188,
      "hhhhhhh": 189,
      "ede": 190,
      "fa": 191,
      "ggggh": 192,
      "efe": 193,
      "hc": 194,
      "ggggff": 195,
      "gcf": 196,
      "ghhhhhh": 197,
      "efffff": 198,
      "aaaaaab": 199,
      "ddf": 200,
      "ggghh": 201,
      "cedd": 202,
      "eedddd": 203,
      "bbbbbbbbbbbbbbbb": 204,
      "gggfff": 205,
      "ccdddd": 206,
      "dcb": 207,
      "gggggggggggggggg": 208,
      "efgf": 209,
      "cded": 210,
      "cfb": 211,
      "aaabbb": 212,
      "cce": 213,
      "gge": 214,
      "gbgb": 215,
      "ghgf": 216,
      "dcd": 217,
      "eedf": 218,
      "def": 219,
      "cff": 220,
      "ccf": 221,
      "dff": 222,
      "ghhhhhhhhhhhhhhhh": 223,
      "dbb": 224,
      "cbbbbbb": 225,
      "cccbbb": 226,
      "ggggggf": 227,
      "gfe": 228,
      "efed": 229,
      "aaaabb": 230,
      "aabbbb": 231,
      "cbab": 232,
      "cbcd": 233,
      "ccdf": 234,
      "gee": 235,
      "aaaaa": 236,
      "ddb": 237,
      "ceff": 238,
      "aaaaaaab": 239,
      "aba": 240,
      "ggghhh": 241,
      "gfed": 242,
      "ghhhhhhh": 243,
      "eddddd": 244,
      "ccccdd": 245,
      "gggffff": 246,
      "gfffff": 247,
      "cccddd": 248,
      "eeefff": 249,
      "gege": 250,
      "dbdb": 251,
      "cddddd": 252,
      "eddf": 253,
      "ceed": 254,
      "eeeffff": 255,
      "cccccd": 256,
      "bbbbbbb": 257,
      "edef": 258,
      "aaaaaaaab": 259,
      "cdff": 260,
      "ccbbbbb": 261,
      "dfdf": 262,
      "cfcf": 263,
      "eeeeff": 264,
      "cece": 265,
      "gggggff": 266,
      "ccccbb": 267,
      "cdcb": 268,
      "eeeddd": 269,
      "eeeedd": 270,
      "hgh": 271,
      "aaaaabb": 272,
      "ccef": 273,
      "ggghhhhhhhh": 274,
      "edddddd": 275,
      "cdcdd": 276,
      "gfef": 277,
      "abbbbb": 278,
      "ggfd": 279,
      "edcb": 280,
      "geff": 281,
      "dde": 282,
      "fe": 283,
      "ccdb": 284,
      "gghhhhh": 285,
      "bbbbbbbbb": 286,
      "ceef": 287,
      "edcd": 288,
      "dee": 289,
      "aaaaaa": 290,
      "cbbbbbbb": 291,
      "aaaaaaa": 292,
      "ghgggg": 293,
      "hhhhhhhhhhhhhhhhhhhhhhhh": 294,
      "dfd": 295,
      "cddf": 296,
      "ecbb": 297,
      "dc": 298,
      "eeeeed": 299,
      "gggggggggggg": 300,
      "ffffff": 301,
      "gged": 302,
      "cdddddd": 303,
      "caca": 304,
      "gfgggg": 305,
      "ccbcb": 306,
      "cfd": 307,
      "ghggf": 308,
      "eeeeef": 309,
      "ghhf": 310,
      "ggd": 311,
      "effffff": 312,
      "cccccb": 313,
      "gfgff": 314,
      "ccccccd": 315,
      "geef": 316,
      "hhf": 317,
      "ghhgf": 318,
      "edde": 319,
      "hfhf": 320,
      "ggghhhh": 321,
      "caab": 322,
      "aaaaaaaaaaaaaaaaaaaaaaaa": 323,
      "cbbcd": 324,
      "cbbab": 325,
      "gggggggf": 326,
      "efggf": 327,
      "ecc": 328,
      "cddb": 329,
      "ebb": 330,
      "cbaab": 331,
      "ebeb": 332,
      "ece": 333,
      "gdb": 334,
      "eeded": 335,
      "gghhhhhh": 336,
      "gdd": 337,
      "gaga": 338,
      "hgf": 339,
      "aaaaaabb": 340,
      "geb": 341,
      "effed": 342,
      "eefef": 343,
      "cbccd": 344,
      "hbhb": 345,
      "ggggfff": 346,
      "gdgd": 347,
      "eeb": 348,
      "gedd": 349,
      "gggghh": 350,
      "cbbd": 351,
      "cced": 352,
      "cccccdd": 353,
      "hhhhhhhhhhhhhhhhhhhhhhhhhhhhhhhhhhhhhhhhhhhhhhhhhhhhhhhhhhhhhhhhhhhhhhhhhhhhhhhhhhhhhhhhhhhhhhhhhhhhhhhhhhhhhhhhhhhhhhhhhhhhhhhh": 354,
      "effd": 355,
      "aaabbbb": 356,
      "bbbbbbbbbb": 357,
      "gbf": 358,
      "effgf": 359,
      "ecdd": 360,
      "ahahahah": 361,
      "eefd": 362,
      "aaaabbb": 363,
      "cccccccccccccccc": 364,
      "ggef": 365,
      "gffffff": 366,
      "dbd": 367,
      "aaaaaaaaaaaaaaaaaaaaaaaaaaaaaaaaaaaaaaaaaaaaaaaaaaaaaaaaaaaaaaaaaaaaaaaaaaaaaaaaaaaaaaaaaaaaaaaaaaaaaaaaaaaaaaaaaaaaaaaaaaaaaaaa": 368,
      "aaaaaaaaaab": 369,
      "cba": 370,
      "eefffff": 371,
      "eedb": 372,
      "ccbbbbbb": 373,
      "cedf": 374,
      "ccce": 375,
      "ccccbbb": 376,
      "cdbb": 377,
      "ghhhhhhhhhh": 378,
      "ggfed": 379,
      "ggfffff": 380,
      "eccd": 381,
      "cbcbb": 382,
      "ecf": 383,
      "ggfgf": 384,
      "caa": 385,
      "eddef": 386,
      "ege": 387,
      "eddcd": 388,
      "ddef": 389,
      "ffd": 390,
      "gghf": 391,
      "gffef": 392,
      "cdded": 393,
      "aaaaaaaaab": 394,
      "cbbbbbbbb": 395,
      "ahb": 396,
      "gghhhhhhh": 397,
      "ccdef": 398,
      "cabb": 399,
      "eggf": 400,
      "ghhhhhhhhhhhhhhhhhhhhhhhhhhhhhhhh": 401,
      "ccbd": 402,
      "dded": 403,
      "fbfb": 404,
      "geed": 405,
      "abbbbbb": 406,
      "ccccddd": 407,
      "ccded": 408,
      "aaaaaaabb": 409,
      "cdee": 410,
      "eddb": 411,
      "ghhhhhhhhh": 412,
      "aaaaaaaaaaaaaaaaaaaaaaaaaaaa": 413,
      "cdeed": 414,
      "ggggggff": 415,
      "gcgc": 416,
      "cccbcb": 417,
      "ggggggh": 418,
      "gggggh": 419,
      "eeeefff": 420,
      "aha": 421,
      "cdccb": 422,
      "ggfef": 423,
      "abd": 424,
      "eefed": 425,
      "ccbbbbbbbb": 426,
      "gggghhh": 427,
      "cdcbb": 428,
      "effef": 429,
      "ggfe": 430,
      "fafa": 431,
      "ggggggggf": 432,
      "abababab": 433,
      "cgb": 434,
      "gffd": 435,
      "ggghhhhh": 436,
      "dada": 437,
      "abbbbbbbb": 438,
      "eeeeeed": 439,
      "aabbbbb": 440,
      "cbcccc": 441,
      "ababb": 442,
      "edded": 443,
      "ghhhf": 444,
      "cdeff": 445,
      "hchc": 446,
      "hehe": 447,
      "cdcccc": 448,
      "gegf": 449,
      "cccdddd": 450,
      "eeeeddd": 451,
      "gghhhhhhhhhhhhhhhh": 452,
      "eecb": 453,
      "ggghgh": 454,
      "abbbbbbb": 455,
      "dddddd": 456,
      "bbd": 457,
      "fffffff": 458,
      "gfgfgf": 459,
      "cbdb": 460,
      "cccbbbbb": 461,
      "eefgf": 462,
      "ccde": 463,
      "aaaaabbb": 464,
      "cbcdd": 465,
      "eeedddd": 466,
      "caaab": 467,
      "eeeeedd": 468,
      "hdhd": 469,
      "eegf": 470,
      "eaea": 471,
      "eedef": 472,
      "eeeeeeeeeeeeeeee": 473,
      "ghhhhhhhhhhhhhhhhhhhhhhhh": 474,
      "eede": 475,
      "cbabb": 476,
      "dddddddddddddddd": 477,
      "ccdcd": 478,
      "ghhhgf": 479,
      "gghgf": 480,
      "ad": 481,
      "ghgff": 482,
      "ghhhhhhhhhhhh": 483,
      "hhhf": 484,
      "ghg": 485,
      "edbb": 486,
      "eeeeeef": 487,
      "ccddddd": 488,
      "eeddddd": 489,
      "hhgf": 490,
      "dcbb": 491,
      "hfh": 492,
      "efeff": 493,
      "cbcbcbcb": 494,
      "cbc": 495,
      "efffffff": 496,
      "ccccccb": 497,
      "cccef": 498,
      "ghghghgh": 499,
      "aaaaaaaaaaaab": 500,
      "cbdd": 501,
      "gggghhhhhhhh": 502,
      "ffed": 503,
      "eh": 504,
      "ebd": 505,
      "ffgf": 506,
      "gefef": 507,
      "ac": 508,
      "cbaaab": 509,
      "cbccb": 510,
      "gggggfff": 511,
      "egff": 512,
      "eeeeeff": 513,
      "ccbbbbbbb": 514,
      "cefff": 515,
      "eccb": 516,
      "ggggggg": 517,
      "cccdf": 518,
      "cbcbbb": 519,
      "dddf": 520,
      "cdccd": 521,
      "efeed": 522,
      "cccccccd": 523,
      "cdedd": 524,
      "ccee": 525,
      "ggee": 526,
      "cccccbb": 527,
      "deed": 528,
      "edededed": 529,
      "gggfgf": 530,
      "aaaaaaaabb": 531,
      "cbaa": 532,
      "egd": 533,
      "gghgh": 534,
      "gahah": 535,
      "ccbab": 536,
      "egh": 537,
      "gfdd": 538,
      "ghhhhhhhhhhh": 539,
      "ededd": 540,
      "aaaaaaaaaaab": 541,
      "eeedf": 542,
      "cdc": 543,
      "aca": 544,
      "aaabbbbb": 545,
      "cbcc": 546,
      "cddef": 547,
      "bab": 548,
      "cbcbbbb": 549,
      "gffgf": 550,
      "ddbb": 551,
      "ffffffffffffffff": 552,
      "egg": 553,
      "bd": 554,
      "cbbabb": 555,
      "edff": 556,
      "aaaaaaaaaaaaaaaaaaaaaaaaaaaaaaaaaaaaaaaaaaaaaaaa": 557,
      "fh": 558,
      "ggggffff": 559,
      "cccf": 560,
      "ggggghh": 561,
      "hahah": 562,
      "gfffffff": 563,
      "ccced": 564,
      "gfh": 565,
      "gghggf": 566,
      "ccdff": 567,
      "dfe": 568,
      "gggfffff": 569,
      "effe": 570,
      "dfef": 571,
      "cfc": 572,
      "ddff": 573,
      "cdeef": 574,
      "edeef": 575,
      "gggggggff": 576,
      "gggfd": 577,
      "aaaabbbb": 578,
      "ababab": 579,
      "acb": 580,
      "ggghhhhhh": 581,
      "aaaaaabbb": 582,
      "ggge": 583,
      "aabd": 584,
      "caaa": 585,
      "eeffffff": 586,
      "cbbbbbbbbb": 587,
      "edcbb": 588,
      "efefef": 589,
      "cceff": 590,
      "cbbbd": 591,
      "fgf": 592,
      "cdde": 593,
      "eeeedddd": 594,
      "ccccccdd": 595,
      "gggggg": 596,
      "eecd": 597,
      "gffe": 598,
      "ccccdddd": 599,
      "cdcdb": 600,
      "ccff": 601,
      "ccccbbbb": 602,
      "fbf": 603,
      "ghge": 604,
      "gggghhhh": 605,
      "eefe": 606,
      "edccd": 607,
      "bbbbbbbbbbbbbbbbbbbbbbbbbbbbbbbb": 608,
      "ddcd": 609,
      "ceeed": 610,
      "dbab": 611,
      "ceee": 612,
      "cfff": 613,
      "ccbcd": 614,
      "edddf": 615,
      "gffed": 616,
      "cccbbbbbb": 617,
      "gcfd": 618,
      "hggf": 619,
      "cdcdcdcd": 620,
      "aaaaaaaaabb": 621,
      "ghghgh": 622,
      "eeddf": 623,
      "edfd": 624,
      "ghhhhhhhhhhhhhh": 625,
      "ggffffff": 626,
      "gggggggh": 627,
      "bbbbbbbbbbb": 628,
      "eeeeeeed": 629,
      "eeefef": 630,
      "effffffff": 631,
      "ccbccd": 632,
      "aaaaaaaaaaaaaab": 633,
      "cceed": 634,
      "cecd": 635,
      "eeeeffff": 636,
      "ddcb": 637,
      "cddcb": 638,
      "cccdb": 639,
      "aad": 640,
      "ghhggf": 641,
      "efffef": 642,
      "eeefffff": 643,
      "deff": 644,
      "gggfed": 645,
      "ecfb": 646,
      "cedb": 647,
      "dbbb": 648,
      "aabbbbbb": 649,
      "eddcdd": 650,
      "eeeee": 651,
      "gggggffff": 652,
      "gfeef": 653,
      "cccccccdd": 654,
      "bbab": 655,
      "hg": 656,
      "cbbcdd": 657,
      "ceddd": 658,
      "ffe": 659,
      "ebdb": 660,
      "gefff": 661,
      "ccddf": 662,
      "cabab": 663,
      "ghgg": 664,
      "gfee": 665,
      "effgff": 666,
      "ggged": 667,
      "gggfef": 668,
      "cbbcb": 669,
      "gegd": 670,
      "cccccbbb": 671,
      "ggghhhhhhh": 672,
      "dcdd": 673,
      "gggef": 674,
      "cccccddd": 675,
      "gghhhhhhhhh": 676,
      "cbbaab": 677,
      "ehh": 678,
      "eddff": 679,
      "aaaaaaabbb": 680,
      "eeeddddd": 681,
      "eefggf": 682,
      "gfggf": 683,
      "ghhgff": 684,
      "cgbgb": 685,
      "eedcd": 686,
      "cecf": 687,
      "gedf": 688,
      "ghghf": 689,
      "hhhhhhhhhhhhhhhhhhhhhhhhhhhhhhhhhhhhhhhh": 690,
      "gghhhhhhhhhh": 691,
      "ceded": 692,
      "cbba": 693,
      "ggggghhh": 694,
      "ceeff": 695,
      "ggggggfff": 696,
      "ceedd": 697,
      "ccbaab": 698,
      "eeeeeeef": 699,
      "ccab": 700,
      "cccccbbbb": 701,
      "ghgd": 702,
      "dccd": 703,
      "aaaaaaaaaabb": 704,
      "cegf": 705,
      "cdfff": 706,
      "eeeeee": 707,
      "ededed": 708,
      "cdcccd": 709,
      "efdd": 710,
      "edcdd": 711,
      "aaabab": 712,
      "aaaaabbbb": 713,
      "gefd": 714,
      "edeff": 715,
      "efee": 716,
      "eddeff": 717,
      "gfgfgfgf": 718,
      "cccddddd": 719,
      "efgff": 720,
      "ebab": 721,
      "cdbbb": 722,
      "hhhgf": 723,
      "gggggggggggggggggggggggggggggggg": 724,
      "eefeed": 725,
      "ghhhhf": 726,
      "eeeeefff": 727,
      "eghh": 728,
      "eeeeeedd": 729,
      "gghhgf": 730,
      "dfgf": 731,
      "cdcbbb": 732,
      "dccb": 733,
      "ccdeed": 734,
      "cbaabb": 735,
      "cfgf": 736,
      "geee": 737,
      "ghhhhhhhhhhhhh": 738,
      "eddddddd": 739,
      "dddb": 740,
      "ffef": 741,
      "ebf": 742,
      "eeeeeeff": 743,
      "cbcbcb": 744,
      "eeeeeddd": 745,
      "ccdcdd": 746,
      "ccbbab": 747,
      "cgc": 748,
      "effggf": 749,
      "eced": 750,
      "ggghhhhhhhhhhhhhhhh": 751,
      "aabbbbbbb": 752,
      "cdcdcd": 753,
      "ghhhhgf": 754,
      "ghggff": 755,
      "cfe": 756,
      "ggeef": 757,
      "aac": 758,
      "eeeded": 759,
      "cccccccb": 760,
      "cabbb": 761,
      "geeef": 762,
      "eedddddd": 763,
      "efffed": 764,
      "cccdef": 765,
      "cbbccd": 766,
      "bbbbbbbbbbbb": 767,
      "dedd": 768,
      "ha": 769,
      "gggfe": 770,
      "cfdf": 771,
      "cddbb": 772,
      "cbdf": 773,
      "eddded": 774,
      "cddcd": 775,
      "cceef": 776,
      "gggggghh": 777,
      "cbce": 778,
      "dfff": 779,
      "ddddddd": 780,
      "cca": 781,
      "ccccccbb": 782,
      "cbccdd": 783,
      "aabab": 784,
      "ggfdd": 785,
      "dce": 786,
      "aaabbbbbb": 787,
      "ghff": 788,
      "ggffef": 789,
      "deef": 790,
      "eecbb": 791,
      "cbaaaab": 792,
      "gggghhhhh": 793,
      "cbbbbbbbbbb": 794,
      "gfffgf": 795,
      "eddeed": 796,
      "cbbbcd": 797,
      "ccdeff": 798,
      "caaaab": 799,
      "ghghhh": 800,
      "ccdddddd": 801,
      "cbcf": 802,
      "edddef": 803,
      "ba": 804,
      "ggggggggff": 805,
      "hgg": 806,
      "eeffgf": 807,
      "eedeef": 808,
      "eeffffffff": 809,
      "cccccc": 810,
      "ghhhhhhhhhhhhhhhhhhhhhhhhhhhhhhhhhhhhhhhhhhhhhhhhhhhhhhhhhhhhhhhh": 811,
      "eefffffff": 812,
      "gcgd": 813,
      "hahahahah": 814,
      "ccccbbbbb": 815,
      "cbaaa": 816,
      "eeffed": 817,
      "ggggggggh": 818,
      "eg": 819,
      "ggggggggggf": 820,
      "aaaaaaaaaaaaab": 821,
      "cbbbab": 822,
      "cccbbbbbbb": 823,
      "gffffffff": 824,
      "efeef": 825,
      "aaaaaaaaaa": 826,
      "ccedd": 827,
      "hhhhhhhhhhhhhhhhhhhhhhhhhhhhhhhhhhhhhhhhhhhhhhhh": 828,
      "ghhhhhf": 829,
      "cdbd": 830,
      "ggggfgf": 831,
      "hff": 832,
      "aaaaaaaaa": 833,
      "gdbb": 834,
      "cddcbb": 835,
      "gbgcf": 836,
      "ghghh": 837,
      "fef": 838,
      "ggfeef": 839,
      "ddcbb": 840,
      "fhh": 841,
      "gffeff": 842,
      "cddff": 843,
      "gbfcedd": 844,
      "ceeee": 845,
      "cdcddd": 846,
      "aaaaaaaabbb": 847,
      "gggggggggf": 848,
      "gghgggg": 849,
      "ggedd": 850,
      "hge": 851,
      "dedb": 852,
      "gggd": 853,
      "eeddef": 854,
      "cbcccb": 855,
      "gghhhhhhhhhhhh": 856,
      "efffd": 857,
      "ccbcbb": 858,
      "ggdb": 859,
      "eedbb": 860,
      "cgd": 861,
      "ggfee": 862,
      "hhhhhhhhhh": 863,
      "ecbbb": 864,
      "cdce": 865,
      "gahahahah": 866,
      "eededd": 867,
      "cddedd": 868,
      "ccdded": 869,
      "eedff": 870,
      "ghhge": 871,
      "abbbab": 872,
      "eeeeeffff": 873,
      "geeff": 874,
      "ccdbb": 875,
      "gdfd": 876,
      "gghhhhhhhhhhh": 877,
      "eeeeeeedd": 878,
      "gggffffff": 879,
      "eefeff": 880,
      "aaaabbbbb": 881,
      "ccdee": 882,
      "gedb": 883,
      "efdf": 884,
      "ebfb": 885,
      "cbcccd": 886,
      "efefefef": 887,
      "ccdccb": 888,
      "hghf": 889,
      "ggeb": 890,
      "cdbdb": 891,
      "ccddb": 892,
      "bbbd": 893,
      "ghgggf": 894,
      "aaaaaaaaaaabb": 895,
      "ddeff": 896,
      "caba": 897,
      "efedd": 898,
      "dbaab": 899,
      "cefd": 900,
      "ceeef": 901,
      "edee": 902,
      "ghhhggf": 903,
      "gffggf": 904,
      "ggghf": 905,
      "aaaaaabbbb": 906,
      "abbd": 907,
      "gegef": 908,
      "cdccbb": 909,
      "ccbcdd": 910,
      "egggf": 911,
      "ghhg": 912,
      "ggfffffff": 913,
      "efffgf": 914,
      "ccdcbb": 915,
      "ggeff": 916,
      "abbab": 917,
      "eedeff": 918,
      "aaaaaaaaaaaaaaaaaaaaaaaaaaaaaaaaaaaaaaaaaaaaaaaaaaaaaaaaaaaaaaaaaaaaaaaaaaaaaaaaaaaaaaaaaaaaaaaa": 919,
      "ghhhhhhhhhhhhhhh": 920,
      "dba": 921,
      "cccded": 922,
      "ccdcb": 923,
      "gebb": 924,
      "ababa": 925,
      "cdeeed": 926,
      "bf": 927,
      "ceced": 928,
      "ggffffffff": 929,
      "hhhhf": 930,
      "gghhhhhhhhhhhhhhhhhhhhhhhh": 931,
      "cbbbbbbbbbbbb": 932,
      "ddcdd": 933,
      "hghgh": 934,
      "ddee": 935,
      "hgd": 936,
      "gaha": 937,
      "eedcb": 938,
      "bba": 939,
      "ggffgf": 940,
      "ccdedd": 941,
      "eceb": 942,
      "gghhf": 943,
      "cfhh": 944,
      "aaaaaaaaaaaaaaaab": 945,
      "cbbaaab": 946,
      "gggggggfff": 947,
      "caabb": 948,
      "cbf": 949,
      "gghgff": 950,
      "cdcc": 951,
      "hahb": 952,
      "cdefff": 953,
      "dcc": 954,
      "cgf": 955,
      "cbbccb": 956,
      "gfdbb": 957,
      "ggecb": 958,
      "cbccbb": 959,
      "eddeef": 960,
      "cdfgf": 961,
      "cdeedd": 962,
      "cddddddd": 963,
      "ggggfffff": 964,
      "eeggf": 965,
      "aaaaaaaaaaa": 966,
      "gbgbf": 967,
      "ecdb": 968,
      "eeeeded": 969,
      "hhhhhhhhh": 970,
      "gggggghhh": 971,
      "ggghgf": 972,
      "ccccccccb": 973,
      "hchd": 974,
      "edfef": 975,
      "geedd": 976,
      "cbbbcb": 977,
      "edeed": 978,
      "ccbabb": 979,
      "ebbb": 980,
      "effeef": 981,
      "dddef": 982,
      "fffd": 983,
      "ccccccddd": 984,
      "ggfgff": 985,
      "hhhhhhhhhhhhhhhhhhhhhhhhhhhhhhhhhhhhhhhhhhhhhhhhhhhhhhhh": 986,
      "gagaga": 987,
      "ggffed": 988,
      "effedd": 989,
      "aaaaaaaaaaaaaaab": 990,
      "cbbcbb": 991,
      "edfdf": 992,
      "gbfb": 993,
      "eeefd": 994,
      "aaaaaaaaaaaabb": 995,
      "eba": 996,
      "gggghhhhhh": 997,
      "abaaab": 998,
      "ghggh": 999,
      "eeeffffff": 1000,
      "ggfedd": 1001,
      "hgff": 1002,
      "ccaab": 1003,
      "gce": 1004,
      "cccdddddd": 1005,
      "daca": 1006,
      "eedccd": 1007,
      "ggfeff": 1008,
      "ecccd": 1009,
      "ccccccccd": 1010,
      "eeedddddd": 1011,
      "cbbdd": 1012,
      "eeedef": 1013,
      "cddeef": 1014,
      "ggggg": 1015,
      "hfhe": 1016,
      "dfed": 1017,
      "ghhhhhgf": 1018,
      "hbhbhb": 1019,
      "dbcb": 1020,
      "gfffef": 1021,
      "abaab": 1022,
      "ccddef": 1023,
      "dfb": 1024,
      "ggggghhhh": 1025,
      "ghhhgff": 1026,
      "gggfgff": 1027,
      "ddded": 1028,
      "caaaa": 1029,
      "ghfd": 1030,
      "gghhhgf": 1031,
      "aaaaaaaaabbb": 1032,
      "hhg": 1033,
      "hhhhhhhhhhhh": 1034,
      "eeffef": 1035,
      "aabbbbbbbb": 1036,
      "eedcbb": 1037,
      "gcfdeedf": 1038,
      "ggdd": 1039,
      "eeeefffff": 1040,
      "ghhff": 1041,
      "aaaaaaabbbb": 1042,
      "cccdcd": 1043,
      "cbabbb": 1044,
      "ccbbbbbbbbb": 1045,
      "ggffd": 1046,
      "gggee": 1047,
      "aaad": 1048,
      "ggggggffff": 1049,
      "eeefed": 1050,
      "ghgggh": 1051,
      "cbcef": 1052,
      "aacf": 1053,
      "ccba": 1054,
      "ccdeef": 1055,
      "eebb": 1056,
      "ccccccbbb": 1057,
      "dddddddddd": 1058,
      "ghgfd": 1059,
      "ghhhhhhhhhhhhhhhhhh": 1060,
      "eeedb": 1061,
      "cbaaabb": 1062,
      "cbcbd": 1063,
      "ddbbb": 1064,
      "ehhh": 1065,
      "aaaaabbbbb": 1066,
      "cccccdddd": 1067,
      "ghged": 1068,
      "eeffd": 1069,
      "ggfggf": 1070,
      "effeff": 1071,
      "eggh": 1072,
      "gahaha": 1073,
      "eedcdd": 1074,
      "eeefgf": 1075,
      "ccbaaab": 1076,
      "ffffffffff": 1077,
      "hhhhhhhhhhhhh": 1078,
      "efffffffff": 1079,
      "eefgff": 1080,
      "eeddb": 1081,
      "fffef": 1082,
      "cbbbbbbbbbbb": 1083,
      "ghggggf": 1084,
      "edddddddd": 1085,
      "ghgggggggg": 1086,
      "degf": 1087,
      "ccbbd": 1088,
      "cccbbbbbbbb": 1089,
      "eecdd": 1090,
      "hhhhhf": 1091,
      "ghhgd": 1092,
      "egef": 1093,
      "gcgcf": 1094,
      "gggggfgf": 1095,
      "ccbcbbb": 1096,
      "cddded": 1097,
      "ccdccd": 1098,
      "ggghhhhhhhhhh": 1099,
      "ggggggghh": 1100,
      "ghgfff": 1101,
      "eeddddddd": 1102,
      "ceffff": 1103,
      "gecb": 1104,
      "ecdf": 1105,
      "ceggf": 1106,
      "gegfgf": 1107,
      "ccbbcd": 1108,
      "hfgf": 1109,
      "cdddf": 1110,
      "hhhhhhhhhhh": 1111,
      "eddedd": 1112,
      "gghhhf": 1113,
      "eedded": 1114,
      "abbcb": 1115,
      "cefed": 1116,
      "abbbbbbbbb": 1117,
      "cccccccccccc": 1118,
      "geddd": 1119,
      "ggghggf": 1120,
      "effdd": 1121,
      "ebaab": 1122,
      "ababbb": 1123,
      "cdced": 1124,
      "aaabd": 1125,
      "ecdcd": 1126,
      "cefgf": 1127,
      "cdddb": 1128,
      "cbbdf": 1129,
      "eeegf": 1130,
      "fffed": 1131,
      "ecddd": 1132,
      "ggghhhhhhhhh": 1133,
      "ecab": 1134,
      "caaabb": 1135,
      "eghhh": 1136,
      "gghhhhhhhhhhhhhh": 1137,
      "eeeeeefff": 1138,
      "cbbabbb": 1139,
      "dddddddddddddddddddddddddddddddd": 1140,
      "efgggf": 1141,
      "effeed": 1142,
      "ceceb": 1143,
      "hhhhhhhhhhhhhhhhhhhhhhhhhhhhhhhhhhhhhhhhhhhhhhhhhhhhhhhhhhhhhhhhhhhhhhhhhhhhhhhhhhhhhhhhhhhhhhhhhhhhhhhhhhhhhhhhhhhhhhhhhhhhhhhhhhhhhhhhhhhhhhhhhhhhhhhhhhhhhhhhhhhhhhhhhhhhhhhhhhhhhhhhhhhhhhhh": 1144,
      "eggg": 1145,
      "gcgb": 1146,
      "caaaaab": 1147,
      "cedddd": 1148,
      "ccbcbcb": 1149,
      "daea": 1150,
      "ghhgggg": 1151,
      "gghghgh": 1152,
      "ccbdd": 1153,
      "cccbd": 1154,
      "cddccd": 1155,
      "cccbab": 1156,
      "eddccd": 1157,
      "cbbbbab": 1158,
      "ccccbbbbbb": 1159,
      "cddeed": 1160,
      "eeeeeeddd": 1161,
      "ccbbabb": 1162,
      "baab": 1163,
      "ecbab": 1164,
      "eegff": 1165,
      "ggeed": 1166,
      "cccccccccccccccccccccccccccccccc": 1167,
      "ccddddddd": 1168,
      "gghhhhhhhhhhhhh": 1169,
      "fffgf": 1170,
      "eddbb": 1171,
      "hhhhgf": 1172,
      "cbaaaaab": 1173,
      "aaaaaaaaaabbb": 1174,
      "gghggff": 1175,
      "aaaaaaaaaaaaaaaaaab": 1176,
      "ccccdf": 1177,
      "efefd": 1178,
      "eeccd": 1179,
      "eeeeedddd": 1180,
      "eeeeeeeef": 1181,
      "cbbbccd": 1182,
      "egfgf": 1183,
      "cdccdd": 1184,
      "gddd": 1185,
      "ceeedd": 1186,
      "edbbb": 1187,
      "aaaaabab": 1188,
      "gdge": 1189,
      "cedbb": 1190,
      "bbbbbbbbbbbbb": 1191,
      "gggggggggggf": 1192,
      "dbeb": 1193,
      "cfcfcfcf": 1194,
      "hfhgh": 1195,
      "gggggggggff": 1196,
      "cacaca": 1197,
      "efefff": 1198,
      "eefeef": 1199,
      "gggghhhhhhh": 1200,
      "effee": 1201,
      "cbbbcbb": 1202,
      "cbbbcdd": 1203,
      "cbcdf": 1204,
      "hdhe": 1205,
      "effgggf": 1206,
      "eeeeeeeff": 1207,
      "cdeee": 1208,
      "gggggggffff": 1209,
      "cdeddd": 1210,
      "eddee": 1211,
      "cbca": 1212,
      "eedeed": 1213,
      "ghhhgh": 1214,
      "ddeef": 1215,
      "ggggfed": 1216,
      "cbbbabb": 1217,
      "aaabbbbbbb": 1218,
      "eedddf": 1219,
      "cbde": 1220,
      "hahahb": 1221,
      "gffeef": 1222,
      "ddccd": 1223,
      "cdeeff": 1224,
      "cddcdd": 1225,
      "cfef": 1226,
      "eeeeddddd": 1227,
      "cbcddd": 1228,
      "abaca": 1229,
      "cccde": 1230,
      "gfgggf": 1231,
      "cfh": 1232,
      "gdfdf": 1233,
      "gcfb": 1234,
      "ddccb": 1235,
      "cbbce": 1236,
      "dbf": 1237,
      "gggffef": 1238,
      "aabbab": 1239,
      "hhhhhhhhhhhhhh": 1240,
      "faea": 1241,
      "hhge": 1242,
      "gfffffffff": 1243,
      "ghhfd": 1244,
      "ccccded": 1245,
      "eeccb": 1246,
      "cccccccbb": 1247,
      "hhgff": 1248,
      "eccbb": 1249,
      "cdfd": 1250,
      "gghgg": 1251,
      "ghhgh": 1252,
      "gghgggf": 1253,
      "hhgd": 1254,
      "eddccb": 1255,
      "dbdbdb": 1256,
      "cbbbaab": 1257,
      "geeee": 1258,
      "ggffggf": 1259,
      "ddeed": 1260,
      "gghhggf": 1261,
      "cccdff": 1262,
      "abbaab": 1263,
      "dbaa": 1264,
      "cddeff": 1265,
      "ddddddddddd": 1266,
      "ggedf": 1267,
      "cccee": 1268,
      "fed": 1269,
      "gfgfff": 1270,
      "aaaaaaaaaaaaaaaaaaaaaaaaaaaaaaaaaaaaaaaaaaaaaaaaaaaaaaaa": 1271,
      "eccdd": 1272,
      "cad": 1273,
      "gfeff": 1274,
      "ggggghhhhh": 1275,
      "ggggggggggggf": 1276,
      "ccbccb": 1277,
      "ggggggggfff": 1278,
      "dfggf": 1279,
      "aaaaaaaaaaaaa": 1280,
      "ghhhhhhhhhhhhhhhhhhhh": 1281,
      "ecccc": 1282,
      "bbabb": 1283,
      "cdddef": 1284,
      "gbfd": 1285,
      "cdcbbbb": 1286,
      "aaaabbbbbb": 1287,
      "cfbgbgb": 1288,
      "gggghhhhhhhhhhhhhhhh": 1289,
      "aaaaaaaabbbb": 1290,
      "dddff": 1291,
      "ccefff": 1292,
      "ccccddddd": 1293,
      "geeed": 1294,
      "gffdd": 1295,
      "aabbaab": 1296,
      "ecbd": 1297,
      "decd": 1298,
      "dddddddddddd": 1299,
      "gffeed": 1300,
      "eefee": 1301,
      "geffff": 1302,
      "cceee": 1303,
      "ggggfd": 1304,
      "gffee": 1305,
      "cddee": 1306,
      "gghff": 1307,
      "bbcd": 1308,
      "cceeed": 1309,
      "baa": 1310,
      "gggfggf": 1311,
      "ccabb": 1312,
      "eeddcd": 1313,
      "geh": 1314,
      "cdddddddd": 1315,
      "gfedd": 1316,
      "cbbccbb": 1317,
      "gfdef": 1318,
      "eeeefef": 1319,
      "cddccb": 1320,
      "gggggfffff": 1321,
      "edddff": 1322,
      "aaaaaaaaaaaaabb": 1323,
      "gggfeef": 1324,
      "gggffffffff": 1325,
      "aaaaaaaaaaaaaaaaaaaab": 1326,
      "eggff": 1327,
      "cbddd": 1328,
      "cccbccd": 1329,
      "cec": 1330,
      "cdddcd": 1331,
      "gghghf": 1332,
      "eedee": 1333,
      "ecece": 1334,
      "eeeeeeeeeeeeeeeeeeeeeeeeeeeeeeee": 1335,
      "ggecd": 1336,
      "efffeff": 1337,
      "ggggfef": 1338,
      "cfbgb": 1339,
      "eefedd": 1340,
      "gghghhh": 1341,
      "ecgb": 1342,
      "ccceff": 1343,
      "ebaa": 1344,
      "aaaaaaaaaaaaaabb": 1345,
      "gfffed": 1346,
      "ghgghh": 1347,
      "acf": 1348,
      "cdbab": 1349,
      "ababbbbb": 1350,
      "gehe": 1351,
      "aaabaaab": 1352,
      "ghhhhggf": 1353,
      "cccccbbbbb": 1354,
      "ghgef": 1355,
      "aaaaaabbbbb": 1356,
      "ccbbbbbbbbbb": 1357,
      "eeeedf": 1358,
      "ccbccdd": 1359,
      "ggghhhhhhhhhhh": 1360,
      "egggg": 1361,
      "ghhhhhhhhhhhhhhhhhhhhhhhhhhhhhhhhhhhhhhhhhhhhhhhh": 1362,
      "aaac": 1363,
      "cbbaabb": 1364,
      "ghhgggf": 1365,
      "dcbbb": 1366,
      "gcd": 1367,
      "abababb": 1368,
      "gfffgff": 1369,
      "edbab": 1370,
      "efdbb": 1371,
      "cecdb": 1372,
      "ddedd": 1373,
      "cccddf": 1374,
      "ccegf": 1375,
      "af": 1376,
      "cbaaaa": 1377,
      "cccdcdd": 1378,
      "acd": 1379,
      "ghhggff": 1380,
      "dbaaab": 1381,
      "ccccde": 1382,
      "cababb": 1383,
      "abbbbbbbbbbbbbbbb": 1384,
      "cbcbbbbb": 1385,
      "gahb": 1386,
      "ghhhhhhhhhhhhhhhhhhh": 1387,
      "gggggghhhh": 1388,
      "gfffggf": 1389,
      "aaabbbbbbbb": 1390,
      "eeffgff": 1391,
      "gcgdf": 1392,
      "cfbfb": 1393,
      "egfd": 1394,
      "cbda": 1395,
      "eefdd": 1396,
      "aabaab": 1397,
      "eddddddddd": 1398,
      "cbbcf": 1399,
      "fafb": 1400,
      "effffffffffff": 1401,
      "gdgdf": 1402,
      "gegdf": 1403,
      "ccbaa": 1404,
      "cddbbb": 1405,
      "ghe": 1406,
      "cccccdcd": 1407,
      "gedef": 1408,
      "aaababb": 1409,
      "ggghhhhhhhhhhhhhhhhhhhhhhhh": 1410,
      "dadb": 1411,
      "ccdcccd": 1412,
      "ggghhgf": 1413,
      "aaaaaaaaaaaaaaaaaaaaaaaaaaaaaaaaaaaaaaaaaaaaaaaaaaaaaaaaaaaaaaaaaaaaaaaaaaaaaaaaaaaaaaaaaaaaaaaaaaaaaaaaaaaaaaaaaaaaaaaaaaaaaaaaaaaaaaaaaaaaaaaaaaaaaaaaaaaaaaaaaaaaaaaaaaaaaaaaaaaaaaaaaaaaaaaa": 1414,
      "ghghhhh": 1415,
      "cbbaaaab": 1416,
      "hchb": 1417,
      "eeeeeeeed": 1418,
      "cecdd": 1419,
      "gggeef": 1420,
      "edddedd": 1421,
      "dcf": 1422,
      "ggggggghhh": 1423,
      "cbaabbb": 1424,
      "cdfed": 1425,
      "cccccccbbbb": 1426,
      "abf": 1427,
      "ceefff": 1428,
      "fcf": 1429,
      "cbbbcbbb": 1430,
      "gegff": 1431,
      "gbfceddecfb": 1432,
      "hhggf": 1433,
      "gefdf": 1434,
      "efggff": 1435,
      "cceb": 1436,
      "fc": 1437,
      "eeefffffff": 1438,
      "cbe": 1439,
      "ecaab": 1440,
      "ccbbaab": 1441,
      "ccaaab": 1442,
      "ggggggggggff": 1443,
      "ghhhhhhhhhhhhhhhhh": 1444,
      "eeeede": 1445,
      "ghhghh": 1446,
      "efb": 1447,
      "gffgff": 1448,
      "gdff": 1449,
      "ghhhhhhgf": 1450,
      "ceeb": 1451,
      "eefefef": 1452,
      "efffeed": 1453,
      "cegg": 1454,
      "fagaga": 1455,
      "ecbbbb": 1456,
      "gggfffffff": 1457,
      "ghhhge": 1458,
      "cbbcbbb": 1459,
      "ecef": 1460,
      "edfdfdf": 1461,
      "gggfgggf": 1462,
      "effffffffff": 1463,
      "efh": 1464,
      "egfff": 1465,
      "ghhhff": 1466,
      "ccaa": 1467,
      "aaaaaaaaaaabbb": 1468,
      "ccccccdddd": 1469,
      "eddddf": 1470,
      "eeededd": 1471,
      "cabbbb": 1472,
      "hhff": 1473,
      "eeefeff": 1474,
      "cfggf": 1475,
      "edccb": 1476,
      "hegf": 1477,
      "ghhgg": 1478,
      "gghhhhhhhhhhhhhhh": 1479,
      "eeeeefef": 1480,
      "ggghhhhhhhhhhhh": 1481,
      "fffffffff": 1482,
      "cdcccb": 1483,
      "cdcdcdd": 1484,
      "ghhgghh": 1485,
      "cccff": 1486,
      "cdecb": 1487,
      "ghhhhhhhhhhhhhhhhhhhhh": 1488,
      "caaaaaab": 1489,
      "cdccbbb": 1490,
      "ghhhhhhf": 1491,
      "cdddcdd": 1492,
      "eddcbb": 1493,
      "aaabaab": 1494,
      "efffeef": 1495,
      "eeeefd": 1496,
      "haha": 1497,
      "ceeddd": 1498,
      "cbdff": 1499,
      "edcbbb": 1500,
      "cccdeff": 1501,
      "ghhggh": 1502,
      "abbbbbbbbbb": 1503,
      "ehf": 1504,
      "ccceed": 1505,
      "cbaaaaaab": 1506,
      "effffef": 1507,
      "edddeed": 1508,
      "gfgfgff": 1509,
      "eeeeeded": 1510,
      "edddeff": 1511,
      "eeefeed": 1512,
      "dcbab": 1513,
      "aaaabab": 1514,
      "aaaaaaaaaaaaaaaaaaaaaaaaaaaaaaaaaaaaaaaaaaaaaaaaaaaaaaaaaaaa": 1515,
      "eeefggf": 1516,
      "cceedd": 1517,
      "bbaab": 1518,
      "ccdfff": 1519,
      "abbbabb": 1520,
      "gffffgf": 1521,
      "cccdeed": 1522,
      "bbdf": 1523,
      "cebeb": 1524,
      "gggfee": 1525,
      "eefdf": 1526,
      "aaaaaaaaaaaaaaaaab": 1527,
      "eefffef": 1528,
      "cgh": 1529,
      "ggggffffff": 1530,
      "gggeff": 1531,
      "ccefd": 1532,
      "gggfedd": 1533,
      "ghhged": 1534,
      "ggfffgf": 1535,
      "gahahaha": 1536,
      "gghhhhhhhhhhhhhhhhhhhhhhhhhhhhhhhh": 1537,
      "ccccbbbbbbb": 1538,
      "cdbcb": 1539,
      "ghhhhhhhhhhhhhhhhhhhhhh": 1540,
      "edddeef": 1541,
      "ghhgfff": 1542,
      "ccccdef": 1543,
      "aaaaabbbbbb": 1544,
      "gddf": 1545,
      "eefffed": 1546,
      "cebfb": 1547,
      "gggffed": 1548,
      "gggffgf": 1549,
      "ccfd": 1550,
      "eeeddf": 1551,
      "cfed": 1552,
      "ddfff": 1553,
      "cbbbccb": 1554,
      "edddcd": 1555,
      "ggfeed": 1556,
      "faga": 1557,
      "gghhgff": 1558,
      "cbcbdb": 1559,
      "cccccccddd": 1560,
      "ccddff": 1561,
      "dgf": 1562,
      "abbbbbbbbbbb": 1563,
      "edfgf": 1564,
      "ghhghhh": 1565,
      "ch": 1566,
      "gghgggh": 1567,
      "eddde": 1568,
      "eeeeffffff": 1569,
      "ggffeff": 1570,
      "aaaaaaabbbbb": 1571,
      "cceeff": 1572,
      "cbcccbb": 1573,
      "geddf": 1574,
      "effffgf": 1575,
      "abababa": 1576,
      "daeaea": 1577,
      "bbbbbbbbbbbbbb": 1578,
      "ccbdb": 1579,
      "ddddf": 1580,
      "cfcfcf": 1581,
      "effffed": 1582,
      "cccbbbbbbbbb": 1583,
      "ccbbcdd": 1584,
      "ggfgggf": 1585,
      "cbbbbbbbbbbbbbbbbbbbb": 1586,
      "ceedb": 1587,
      "ccbcccb": 1588,
      "cccdded": 1589,
      "hghhh": 1590,
      "ccdbbb": 1591,
      "ecff": 1592,
      "ghhhhhhhhhhhhhhhhhhhhhhh": 1593,
      "egege": 1594,
      "ccccccbbbb": 1595,
      "ccbbbbbbbbbbbbbbbb": 1596,
      "aaaaaaaaabbbb": 1597,
      "edfb": 1598,
      "cecdcd": 1599,
      "gggggggghh": 1600,
      "cebdb": 1601,
      "cbbbbd": 1602,
      "ccbaabb": 1603,
      "eeedeef": 1604,
      "aacd": 1605,
      "efgg": 1606,
      "gbgc": 1607,
      "aaaaaaaaaaaabbb": 1608,
      "eddcccd": 1609,
      "cg": 1610,
      "cbbcccb": 1611,
      "ggggge": 1612,
      "cbcccccccc": 1613,
      "ccbbbd": 1614,
      "gggggfd": 1615,
      "cccccbcb": 1616,
      "gfffd": 1617,
      "cgg": 1618,
      "cbced": 1619,
      "cdcdddd": 1620,
      "eeddff": 1621,
      "cfhhh": 1622,
      "aaaaaaaaaaaaaaaaaaaaaab": 1623,
      "aace": 1624,
      "cdeeee": 1625,
      "eeddcdd": 1626,
      "ace": 1627,
      "ghhgfd": 1628,
      "cbbcef": 1629,
      "hahahahb": 1630,
      "gghhhhgf": 1631,
      "eeddeff": 1632,
      "ceddecfb": 1633,
      "cbccccb": 1634,
      "dfhh": 1635,
      "ggffe": 1636,
      "ddcbbb": 1637,
      "ghghghf": 1638,
      "gggggggggggggggggggggggg": 1639,
      "ccbbbbbbbbbbb": 1640,
      "efffe": 1641,
      "acaca": 1642,
      "efffedd": 1643,
      "dedbb": 1644,
      "gghhhggf": 1645,
      "ecdef": 1646,
      "aaaaaaaaaaaaaaaaaaaaaaab": 1647,
      "eafafa": 1648,
      "cddddddddd": 1649,
      "dfh": 1650,
      "ecee": 1651,
      "gggfeff": 1652,
      "dfdfd": 1653,
      "aaaaaaaaaaaaaaaaaaab": 1654,
      "cdeeef": 1655,
      "cdedb": 1656,
      "cddcbbb": 1657,
      "cbbbbabb": 1658,
      "cdcccdd": 1659,
      "eeeeeeffff": 1660,
      "ccdddddddd": 1661,
      "eddcddd": 1662,
      "adb": 1663,
      "ggggghhhhhh": 1664,
      "ecdff": 1665,
      "hfhfh": 1666,
      "eeeeeedddd": 1667,
      "gghggggf": 1668,
      "cdcdf": 1669,
      "ccdeeed": 1670,
      "cdbbbb": 1671,
      "bbf": 1672,
      "ccdcddd": 1673,
      "ceedf": 1674,
      "cdfggf": 1675,
      "aaaaaaaaaaaaaa": 1676,
      "ggggghgggg": 1677,
      "ababbbb": 1678,
      "aaaaaaaaaaaaaaabb": 1679,
      "ghhhhgff": 1680,
      "cbccbbb": 1681,
      "ghghhhhh": 1682,
      "eeddded": 1683,
      "ccceef": 1684,
      "abbbaab": 1685,
      "eeeffgf": 1686,
      "cbbaaabb": 1687,
      "eeeeeeeffff": 1688,
      "cccccccbbb": 1689,
      "cedff": 1690,
      "ghhhghhh": 1691,
      "ccdcdcd": 1692,
      "aaaabd": 1693,
      "gffffef": 1694,
      "eedeeed": 1695,
      "cdcccccccc": 1696,
      "effgfff": 1697,
      "eeeffed": 1698,
      "cccbaab": 1699,
      "cbaaaabb": 1700,
      "gfdb": 1701,
      "cffd": 1702,
      "ccddedd": 1703,
      "hhhhhhhhhhhhhhh": 1704,
      "eefgggf": 1705,
      "gghhhhhhhhhhhhhhhhhhhhhhhhhhhhhhhhhhhhhhhhhhhhhhhhhhhhhhhhhhhhhhhh": 1706,
      "gghgggggggg": 1707,
      "ccfff": 1708,
      "cbccccd": 1709,
      "hehehe": 1710,
      "eededf": 1711,
      "ccdccbb": 1712,
      "eeffggf": 1713,
      "hhhggf": 1714,
      "gefe": 1715,
      "hcgd": 1716,
      "gggghggf": 1717,
      "efffgff": 1718,
      "ccddbb": 1719,
      "edddded": 1720,
      "ggdbb": 1721,
      "eededed": 1722,
      "ghggfff": 1723,
      "cbabbbb": 1724,
      "cge": 1725,
      "cbbcddd": 1726,
      "eeeeeee": 1727,
      "cdcf": 1728,
      "gggedd": 1729,
      "gde": 1730,
      "cbbabbbb": 1731,
      "dddbb": 1732,
      "caaaaa": 1733,
      "eeeeefffff": 1734,
      "cbbde": 1735,
      "eeffeef": 1736,
      "gghghh": 1737,
      "efffggf": 1738,
      "efeedd": 1739,
      "cbbbdd": 1740,
      "ggeee": 1741,
      "dfdfdf": 1742,
      "hhhff": 1743,
      "ccdeedd": 1744,
      "gced": 1745,
      "gfb": 1746,
      "gcb": 1747,
      "efeeef": 1748,
      "cea": 1749,
      "ghhhhhhhhhhhhhhhhhhhhhhhhhhhhhhhhhhhhhhhhhhhhhhhhhhhhhhhh": 1750,
      "dab": 1751,
      "efhh": 1752,
      "gffffffffffff": 1753,
      "cffff": 1754,
      "ggebb": 1755,
      "ddde": 1756,
      "efde": 1757,
      "cbdbdb": 1758,
      "ggggggfgf": 1759,
      "cbbaa": 1760,
      "cdefed": 1761,
      "cccdccb": 1762,
      "cccedd": 1763,
      "ccccdb": 1764,
      "cbbccdd": 1765,
      "gggffd": 1766,
      "cbccddd": 1767,
      "eeffedd": 1768,
      "edededededededed": 1769,
      "gggged": 1770,
      "aaaaaaaaaaaaaaaaaaaaab": 1771,
      "cfcfb": 1772,
      "gbhb": 1773,
      "hahaha": 1774,
      "efdb": 1775,
      "ccedf": 1776,
      "geedf": 1777,
      "gecd": 1778,
      "aabbbab": 1779,
      "gggghgf": 1780,
      "ggffgff": 1781,
      "aababb": 1782,
      "bbbab": 1783,
      "gggfdd": 1784,
      "cececece": 1785,
      "cededd": 1786,
      "eeedff": 1787,
      "ccaaa": 1788,
      "ccbcbbbb": 1789,
      "ccbaaaab": 1790,
      "ggggggfffff": 1791,
      "cebb": 1792,
      "ccdefff": 1793,
      "hhhhhgf": 1794,
      "fdbb": 1795,
      "eedddddddd": 1796,
      "ccccf": 1797,
      "deggf": 1798,
      "ecbaab": 1799,
      "cddddf": 1800,
      "edededd": 1801,
      "ccccc": 1802,
      "hdf": 1803,
      "ggggghhhhhhh": 1804,
      "cddcccd": 1805,
      "ggeeef": 1806,
      "ccdcbbb": 1807,
      "ggeeff": 1808,
      "eedeeff": 1809,
      "cdefd": 1810,
      "ccccef": 1811,
      "dbabb": 1812,
      "ccccccccdd": 1813,
      "ggggghgh": 1814,
      "gffffffffff": 1815,
      "ccbccbb": 1816,
      "ccddeef": 1817,
      "ghhgggh": 1818,
      "hhhgff": 1819,
      "cbcbbbbbb": 1820,
      "cdddded": 1821,
      "ghggghh": 1822,
      "ccdde": 1823,
      "cdddbb": 1824,
      "cccccddddd": 1825,
      "geeeff": 1826,
      "cbbc": 1827,
      "ghgggff": 1828,
      "ggb": 1829,
      "cdccccd": 1830,
      "ccbcccd": 1831,
      "hehd": 1832,
      "cdffff": 1833,
      "cccccbbbbbb": 1834,
      "hggff": 1835,
      "cccab": 1836,
      "cccbbab": 1837,
      "gfge": 1838,
      "cefe": 1839,
      "eeeeeeefff": 1840,
      "debb": 1841,
      "gbb": 1842,
      "ggec": 1843,
      "ceddb": 1844,
      "cbbcccd": 1845,
      "efffee": 1846,
      "cfdd": 1847,
      "eeede": 1848,
      "dbbbb": 1849,
      "eedfd": 1850,
      "cedfd": 1851,
      "ccdddb": 1852,
      "eada": 1853,
      "efffdd": 1854,
      "eedddef": 1855,
      "eedcbbb": 1856,
      "aaaaaaaaaabbbb": 1857,
      "gffedd": 1858,
      "aabf": 1859,
      "cbbbbbbbbbbbbb": 1860,
      "ffffffffffffffffffffffffffffffff": 1861,
      "gddb": 1862,
      "aaacf": 1863,
      "gede": 1864,
      "ggdf": 1865,
      "ecedd": 1866,
      "eedde": 1867,
      "bbbbbbbbbbbbbbbbbbbbbbbbbbbbbbbbbbbbbbbbbbbbbbbbbbbbbbbbbbbbbbbb": 1868,
      "geeb": 1869,
      "ghhggggf": 1870,
      "ggghhhhhhhhhhhhhh": 1871,
      "gcfdeedfcgb": 1872,
      "aaabbab": 1873,
      "efefeff": 1874,
      "eefggff": 1875,
      "edfe": 1876,
      "gdgdgd": 1877,
      "cccbcd": 1878,
      "ghhhhhggf": 1879,
      "eeffeff": 1880,
      "hahahahahahb": 1881,
      "gbgbgcf": 1882,
      "gggggggggfff": 1883,
      "gchb": 1884,
      "eeeb": 1885,
      "eeeeeeeddd": 1886,
      "eeeeffffffff": 1887,
      "eedcccd": 1888,
      "eededdd": 1889,
      "ccefe": 1890,
      "gggggghhhhh": 1891,
      "ccbbbab": 1892,
      "eeefe": 1893,
      "eec": 1894,
      "ddfd": 1895,
      "bbbbbbbbbbbbbbb": 1896,
      "eddddef": 1897,
      "gghggh": 1898,
      "ddbab": 1899,
      "cbcccdd": 1900,
      "cfge": 1901,
      "ccddeff": 1902,
      "abbabb": 1903,
      "eeeddddddd": 1904,
      "cdbaab": 1905,
      "gghhhhf": 1906,
      "aaaaaaaaaaaaaaaabb": 1907,
      "ghgee": 1908,
      "ccbbccd": 1909,
      "ggghhhhhhhhhhhhh": 1910,
      "ggde": 1911,
      "dffd": 1912,
      "gggfgfgf": 1913,
      "eefffffffff": 1914,
      "edfff": 1915,
      "ccefed": 1916,
      "aaaba": 1917,
      "aaaabbbbbbb": 1918,
      "ccbba": 1919,
      "eefefff": 1920,
      "cede": 1921,
      "cdeffff": 1922,
      "eefffd": 1923,
      "eedbbb": 1924,
      "gefeff": 1925,
      "eddeeed": 1926,
      "aaaaaaaaaaaaaaaaaaaaaaaab": 1927,
      "gggghf": 1928,
      "ccddccd": 1929,
      "cgcgc": 1930,
      "eefeeef": 1931,
      "ggggggggffff": 1932,
      "hhfd": 1933,
      "ghhhgd": 1934,
      "eeeeeddddd": 1935,
      "ghgghhh": 1936,
      "cddeeed": 1937,
      "cdddccd": 1938,
      "cbcbcbb": 1939,
      "ggede": 1940,
      "cbaaaaaaab": 1941,
      "ghggg": 1942,
      "gceb": 1943,
      "eeffe": 1944,
      "ccbcc": 1945,
      "ceeeed": 1946,
      "gcef": 1947,
      "eecbbb": 1948,
      "ghhhhhhhgf": 1949,
      "cdeeedd": 1950,
      "edeeed": 1951,
      "edcccd": 1952,
      "gghge": 1953,
      "ceddf": 1954,
      "dfde": 1955,
      "cbbbbaab": 1956,
      "bbbbab": 1957,
      "ggfgfgf": 1958,
      "dfdd": 1959,
      "aaabbaab": 1960,
      "efdff": 1961,
      "cbbcdf": 1962,
      "gahahahb": 1963,
      "ggggfgff": 1964,
      "ebdd": 1965,
      "ggggef": 1966,
      "eegggf": 1967,
      "dedff": 1968,
      "cbbcccc": 1969,
      "hghh": 1970,
      "ccbcccc": 1971,
      "gegegf": 1972,
      "cfa": 1973,
      "cabd": 1974,
      "gahahb": 1975,
      "aaaaaaaaaaaaaaa": 1976,
      "dbcd": 1977,
      "eddfff": 1978,
      "ccdddf": 1979,
      "cbbbbbab": 1980,
      "cfde": 1981,
      "aaaaaaaabbbbb": 1982,
      "cghh": 1983,
      "aaaaaabbbbbb": 1984,
      "ebaaab": 1985,
      "eeeddef": 1986,
      "ghhhhhhhhhhhhhhhhhhhhhhhhhhhhhhhhhhhhhhhhhhhhhhhhhhhhhhhhhhhhhhhhhhhhhhhhhhhhhhhhhhhhhhhhhhhhhhhhhhhhhhhhhhhhhhhhhhhhhhhhhhhhhhhh": 1987,
      "gdef": 1988,
      "gggggggggggh": 1989,
      "gffgggf": 1990,
      "fbgb": 1991,
      "cceddd": 1992,
      "ghd": 1993,
      "aaaad": 1994,
      "gghhhhhhhhhhhhhhhhhh": 1995,
      "ccecd": 1996,
      "cbbaaaaab": 1997,
      "eefeedd": 1998,
      "ahahahahahahahah": 1999,
      "ccedb": 2000,
      "cccddb": 2001,
      "gggge": 2002,
      "cccddddddd": 2003,
      "eecccd": 2004,
      "cecfb": 2005,
      "cbdef": 2006,
      "ghghhhhhh": 2007,
      "cbbbaaab": 2008,
      "cdccccb": 2009,
      "gfffe": 2010,
      "gggggggghhh": 2011,
      "eefffgf": 2012,
      "ghfff": 2013,
      "eedccb": 2014,
      "ggffeef": 2015,
      "gdgc": 2016,
      "ggghhf": 2017,
      "cddccdd": 2018,
      "ggggghhhhhhhh": 2019,
      "cbcee": 2020,
      "gggggggggggff": 2021,
      "hhhge": 2022,
      "aabbbbbbbbb": 2023,
      "efgfed": 2024,
      "ceffd": 2025,
      "eeedeff": 2026,
      "cddeddd": 2027,
      "ghhgef": 2028,
      "eeecd": 2029,
      "hcgdf": 2030,
      "cbcded": 2031,
      "gggggfed": 2032,
      "cbded": 2033,
      "dbdbd": 2034,
      "cehh": 2035,
      "cbbaaa": 2036,
      "aaf": 2037,
      "cccddef": 2038,
      "eedfff": 2039,
      "gafb": 2040,
      "ebebeb": 2041,
      "fbfbfb": 2042,
      "ccbbbbbbbbbbbb": 2043,
      "ghggggh": 2044,
      "ceeeef": 2045,
      "cddfff": 2046,
      "caaaabb": 2047,
      "cbbbccbb": 2048,
      "cbbf": 2049,
      "ccfgf": 2050,
      "ghhhggff": 2051,
      "eedccdd": 2052,
      "ghhhg": 2053,
      "caaaaaaab": 2054,
      "gded": 2055,
      "cacb": 2056,
      "cbabd": 2057,
      "eddefff": 2058,
      "ggggged": 2059,
      "gegege": 2060,
      "gdfb": 2061,
      "effggff": 2062,
      "cbbccbbb": 2063,
      "gggffggf": 2064,
      "hgggf": 2065,
      "dfee": 2066,
      "cefggf": 2067,
      "ccbabbb": 2068,
      "gghhhhhf": 2069,
      "eeeedddddd": 2070,
      "cccdcccd": 2071,
      "eeeffffffff": 2072,
      "aabbaaab": 2073,
      "cgcf": 2074,
      "cccbbbbbbbbbb": 2075,
      "cbbbbcd": 2076,
      "cddde": 2077,
      "ghgggggf": 2078,
      "ddfgf": 2079,
      "ffgff": 2080,
      "cbcde": 2081,
      "aaaaaaaaaaaaaaaaaaaaaaaaaaab": 2082,
      "ggghgff": 2083,
      "gfedef": 2084,
      "ggggggghhhh": 2085,
      "ghhfe": 2086,
      "ggggggggggh": 2087,
      "ccdccdd": 2088,
      "ghhhgggf": 2089,
      "ggegf": 2090,
      "eedfcgb": 2091,
      "cbbcc": 2092,
      "ggghhhgf": 2093,
      "gggggffffff": 2094,
      "cecedd": 2095,
      "ababbbbbb": 2096,
      "ghhhfd": 2097,
      "cbaaabbb": 2098,
      "abaaaab": 2099,
      "ggggggggggggggf": 2100,
      "ghhgghhh": 2101,
      "effeeef": 2102,
      "efffffffffff": 2103,
      "ghgfef": 2104,
      "ccdcdb": 2105,
      "eeeggf": 2106,
      "eeddeed": 2107,
      "ghhhhhhhhhhhhhhhhhhhhhhhhhhh": 2108,
      "dbcf": 2109,
      "ccccccccbb": 2110,
      "ededf": 2111,
      "cbbba": 2112,
      "ghhhhge": 2113,
      "aaba": 2114,
      "hdhchc": 2115,
      "ddcccd": 2116,
      "gggggggggggggf": 2117,
      "eeffeed": 2118,
      "cdfe": 2119,
      "gehf": 2120,
      "eeddeef": 2121,
      "cbdbb": 2122,
      "gfgef": 2123,
      "ededdd": 2124,
      "dddeff": 2125,
      "dbbd": 2126,
      "ccbbaaab": 2127,
      "hdhdhe": 2128,
      "ccbce": 2129,
      "gfdbbb": 2130,
      "chh": 2131,
      "dcdff": 2132,
      "cdedbb": 2133,
      "aabaaab": 2134,
      "ccdcccc": 2135,
      "ddddb": 2136,
      "cccbcdd": 2137,
      "hhhhhhf": 2138,
      "ggggffef": 2139,
      "cbbddd": 2140,
      "caabbb": 2141,
      "cadb": 2142,
      "cdeb": 2143,
      "ggggfe": 2144,
      "geefff": 2145,
      "aabbabb": 2146,
      "ggfffef": 2147,
      "dbaaaab": 2148,
      "efffefff": 2149,
      "ghgge": 2150,
      "fbfbf": 2151,
      "ghfb": 2152,
      "abbbbbbbbbbbb": 2153,
      "cdcdddddd": 2154,
      "edddcdd": 2155,
      "gggfgfff": 2156,
      "ggedb": 2157,
      "eeeedef": 2158,
      "ccbaaa": 2159,
      "ccecb": 2160,
      "cbbbbbbbbbbbbbb": 2161,
      "gahahahahaha": 2162,
      "cdegf": 2163,
      "ghgdb": 2164,
      "aabbd": 2165,
      "cccbcbb": 2166,
      "eddeedd": 2167,
      "ffb": 2168,
      "eeefgff": 2169,
      "gedbb": 2170,
      "eeedbb": 2171,
      "eeeefed": 2172,
      "ghhhhhhhf": 2173,
      "aaaaaaaaaaaaaabbb": 2174,
      "effffd": 2175,
      "ffdd": 2176,
      "gghhhgff": 2177,
      "dededd": 2178,
      "cege": 2179,
      "gfggh": 2180,
      "ccddcbb": 2181,
      "cebd": 2182,
      "ebe": 2183,
      "edddee": 2184,
      "ccdeeff": 2185,
      "dcaab": 2186,
      "ggffgggf": 2187,
      "ggffee": 2188,
      "hgggg": 2189,
      "ffggf": 2190,
      "cbaaaaa": 2191,
      "aadf": 2192,
      "cggf": 2193,
      "ccddcd": 2194,
      "eeeffef": 2195,
      "cccdee": 2196,
      "ccbcbd": 2197,
      "cbcff": 2198,
      "cccdedd": 2199,
      "cbbbdf": 2200,
      "aaaaaaaaaaaaabbb": 2201,
      "gggghhhhhhhhhh": 2202,
      "ccccbbbbbbbb": 2203,
      "cbef": 2204,
      "ccddcdd": 2205,
      "aaaaaaabbbbbb": 2206,
      "gggecb": 2207,
      "ghhhhhhhhhhhhhhhhhhhhhhhhhhhhh": 2208,
      "ehhhh": 2209,
      "effeeff": 2210,
      "hef": 2211,
      "eeefeef": 2212,
      "gfhf": 2213,
      "hgfd": 2214,
      "ebea": 2215,
      "cddddb": 2216,
      "eddecfb": 2217,
      "eeeeeeeeff": 2218,
      "eeefefef": 2219,
      "ccccccbbbbb": 2220,
      "ghghhhhhhhh": 2221,
      "dbaaa": 2222,
      "dbbab": 2223,
      "cedee": 2224,
      "cddeeff": 2225,
      "ghhgfe": 2226,
      "ccccdddddd": 2227,
      "cccdbb": 2228,
      "eeedcd": 2229,
      "edddddddddd": 2230,
      "ccbcddd": 2231,
      "egfed": 2232,
      "ggeddd": 2233,
      "hhhhhhhhhhhhhhhhhh": 2234,
      "gcab": 2235,
      "gghgghh": 2236,
      "ghhhgghh": 2237,
      "hfd": 2238,
      "gggffeff": 2239,
      "gggeed": 2240,
      "edbaab": 2241,
      "ccca": 2242,
      "ccddeed": 2243,
      "gghhhhhhhhhhhhhhhhhhhh": 2244,
      "eghhhh": 2245,
      "dedef": 2246,
      "bbbcd": 2247,
      "cdefgf": 2248,
      "edfde": 2249,
      "ggefff": 2250,
      "ggggggggggfff": 2251,
      "ccdeee": 2252,
      "cbbbcbbbb": 2253,
      "gfffgggf": 2254,
      "ddccbb": 2255,
      "ceeeff": 2256,
      "edfed": 2257,
      "gagb": 2258,
      "dccbb": 2259,
      "aaaaaaaaaaaaaaaaaaaaaaaaaaaaaaaaaaaaaaaaaaaaaaaaaaaaaaaaaaaaaaaaaaaaaaaaaaaaaaaa": 2260,
      "fagagaga": 2261,
      "gghhhhhgf": 2262,
      "cbcdb": 2263,
      "ecded": 2264,
      "cccbabb": 2265,
      "gebab": 2266,
      "eeeefffffff": 2267,
      "cedef": 2268,
      "hdgd": 2269,
      "dfgff": 2270,
      "egfgff": 2271,
      "ccefgf": 2272,
      "ggffeed": 2273,
      "cddccbb": 2274,
      "cfee": 2275,
      "gghhhhhhhhhhhhhhhhhhhhhhhhhhhhhhhhhhhhhhhh": 2276,
      "ecaa": 2277,
      "gefgf": 2278,
      "gedff": 2279,
      "dfeff": 2280,
      "aaaaabbbbbbb": 2281,
      "bbbbbbbbbbbbbbbbb": 2282,
      "ccdeddd": 2283,
      "ghggggff": 2284,
      "hchbhb": 2285,
      "aaaaaaaaaaabbbb": 2286,
      "eeddedd": 2287,
      "ggggffffffff": 2288,
      "ghhhhhgff": 2289,
      "cfgg": 2290,
      "ccbaaabb": 2291,
      "fhhh": 2292,
      "efdef": 2293,
      "cccbcbbb": 2294,
      "ccdfd": 2295,
      "ghfh": 2296,
      "cbaaaaabb": 2297,
      "dfded": 2298,
      "eeffgggf": 2299,
      "ddce": 2300,
      "gggggggfffff": 2301,
      "fffe": 2302,
      "eeedded": 2303,
      "defed": 2304,
      "ghhhghh": 2305,
      "ecde": 2306,
      "geded": 2307,
      "cefef": 2308,
      "abbcbb": 2309,
      "ggffedd": 2310,
      "dbdbdbdb": 2311,
      "aaabbbab": 2312,
      "abbbbab": 2313,
      "edbd": 2314,
      "ccccdcd": 2315,
      "gghghhhh": 2316,
      "aaaabaaab": 2317,
      "ggfffed": 2318,
      "dfge": 2319,
      "ggggfggf": 2320,
      "gegdgd": 2321,
      "ggggggggggggh": 2322,
      "eegd": 2323,
      "dddcd": 2324,
      "efefe": 2325,
      "gfffeff": 2326,
      "ggggggghgh": 2327,
      "ccccccccccd": 2328,
      "ccbbbbab": 2329,
      "eeefedd": 2330,
      "aaaaaabab": 2331,
      "ggghhhhhhhhhhhhhhhhhhhhhhhhhhhhhhhh": 2332,
      "ggggfgfgf": 2333,
      "cccdeef": 2334,
      "eece": 2335,
      "eeedeed": 2336,
      "deb": 2337,
      "gggfeed": 2338,
      "cddeedd": 2339,
      "dfhhh": 2340,
      "cccccdef": 2341,
      "cccdccd": 2342,
      "cababab": 2343,
      "abbbbbbbbbbbbb": 2344,
      "gggggef": 2345,
      "gggggghhhhhh": 2346,
      "eab": 2347,
      "cdddedd": 2348,
      "ccddded": 2349,
      "cbbcbbbb": 2350,
      "gbfcf": 2351,
      "geeeef": 2352,
      "ecaaab": 2353,
      "ggfffffffff": 2354,
      "dbce": 2355,
      "dadada": 2356,
      "ecdcdd": 2357,
      "ggghhggf": 2358,
      "gffefff": 2359,
      "abacaca": 2360,
      "ggggggggggggff": 2361,
      "gghgfff": 2362,
      "eeedccd": 2363,
      "ccbbbcd": 2364,
      "eghf": 2365,
      "edfggf": 2366,
      "cbcbcbbbb": 2367,
      "gggghhhhhhhhh": 2368,
      "eceff": 2369,
      "cbbabab": 2370,
      "aaaaabd": 2371,
      "dddee": 2372,
      "ddc": 2373,
      "abbaaab": 2374,
      "ghhhhhhggf": 2375,
      "gghggfff": 2376,
      "dcbaab": 2377,
      "aaace": 2378,
      "cfcfd": 2379,
      "gggggfef": 2380,
      "cdgf": 2381,
      "ggghhhf": 2382,
      "ggedef": 2383,
      "ghgffff": 2384,
      "dbdf": 2385,
      "ggghhhhhhhhhhhhhhh": 2386,
      "ccccccccddd": 2387,
      "bbbbd": 2388,
      "cfbf": 2389,
      "ghhhgfd": 2390,
      "eeefee": 2391,
      "aaaaaaaaaaaaaaaaaabb": 2392,
      "eeffee": 2393,
      "ggggfffffff": 2394,
      "eeeeedddddd": 2395,
      "gggfffgf": 2396,
      "cceggf": 2397,
      "aaabbaaab": 2398,
      "bbcf": 2399,
      "eddccbb": 2400,
      "cbbaabbb": 2401,
      "ghfgf": 2402,
      "ebcb": 2403,
      "aaaaaaaaabbbbb": 2404,
      "cbdcd": 2405,
      "cccdcdcd": 2406,
      "dbdd": 2407,
      "cbbbce": 2408,
      "gghgfd": 2409,
      "eeeeeeeeed": 2410,
      "efgfef": 2411,
      "eeeeeeeedd": 2412,
      "eeffdd": 2413,
      "cdddff": 2414,
      "hhhhhhgf": 2415,
      "cceeee": 2416,
      "ggffdd": 2417,
      "dddeef": 2418,
      "cebf": 2419,
      "effgfgf": 2420,
      "gcgbgb": 2421,
      "cbbced": 2422,
      "dfdfdfdf": 2423,
      "geeddd": 2424,
      "cbbbcccb": 2425,
      "aaacd": 2426,
      "eeddccd": 2427,
      "hfb": 2428,
      "cccccdf": 2429,
      "hfhfhf": 2430,
      "hged": 2431,
      "ccbbccbb": 2432,
      "gfffffffffff": 2433,
      "cbcccbbb": 2434,
      "eeeeeffffff": 2435,
      "gghhhhggf": 2436,
      "ghhhghhhh": 2437,
      "ccdfgf": 2438,
      "hhhhhhhhhhhhhhhhhhhh": 2439,
      "ecba": 2440,
      "cdbcbcb": 2441,
      "eeedeeed": 2442,
      "ggggfeef": 2443,
      "efeffff": 2444,
      "eddbbb": 2445,
      "ccccbd": 2446,
      "ghhhhhhhhhhhhhhhhhhhhhhhhhhhhhhh": 2447,
      "gggffe": 2448,
      "cbbbbcdd": 2449,
      "ccbbabbb": 2450,
      "gfffgfff": 2451,
      "eeeefgf": 2452,
      "cccced": 2453,
      "ggghhhhhhhhhhhhhhhhhhhhhhhhhhhhhhhhhhhhhhhhhhhhhhhhhhhhhhhhhhhhhhhh": 2454,
      "ceffed": 2455,
      "eceef": 2456,
      "eddcb": 2457,
      "eddccdd": 2458,
      "aaaaaaaaaaaaaaaaaaaaaaaaaaaaaaaaaaaaaaaaaaaaaaaaaaaaaaaaaaaaaaaaaaaaaaaaaaaaaaaaaaaaaaaaaaaaaaaaaaaaaaaaaaaaaaaaaaaaaaaaaaaaaaaaaaaaaaaaaaaaaaaaaaaaaaaaaaaaaaaa": 2459,
      "ghghggf": 2460,
      "cdddeff": 2461,
      "aaaaaaaaaaaaaaaaaaaaaaaaab": 2462,
      "edddb": 2463,
      "cbbbccdd": 2464,
      "aaaaaaaaaaaaaaaaabb": 2465,
      "cccbbabb": 2466,
      "gaf": 2467,
      "gecbb": 2468,
      "ggggghgf": 2469,
      "gghhhhhhhhhhhhhhhhhhh": 2470,
      "ceccb": 2471,
      "cccce": 2472,
      "ccbbbccd": 2473,
      "ceghh": 2474,
      "fggf": 2475,
      "ededb": 2476,
      "cccccdddddd": 2477,
      "eeeddb": 2478,
      "ababababab": 2479,
      "cbbbabbb": 2480,
      "cdba": 2481,
      "cdffd": 2482,
      "cabaab": 2483,
      "ccdddef": 2484,
      "bbdd": 2485,
      "ffffgf": 2486,
      "gggdd": 2487,
      "cegff": 2488,
      "eeeffd": 2489,
      "aaaaaaaaaaaaaaaaaaaaaaaaaaaaaaaaaaaaaaaaaaaaaaaaaaaaaaaaaaaaaaaaaaaaaaaaaaaaaaaaaaaaaaaaaaaaaaaaaaaaaaaaaaaaaaaa": 2490,
      "ccaaaab": 2491,
      "ccbbccb": 2492,
      "gefde": 2493,
      "eddcdcd": 2494,
      "aaabbbbbbbbb": 2495,
      "eeedcdd": 2496,
      "ggggghggf": 2497,
      "cbcdff": 2498,
      "cccccbbbbbbb": 2499,
      "cda": 2500,
      "hgggh": 2501,
      "hhhgd": 2502,
      "cbbbbccd": 2503,
      "ggfffggf": 2504,
      "aaaaaaaaaaaaaaaaaaaaaaaaaaaaaaab": 2505,
      "cefffff": 2506,
      "ebebdb": 2507,
      "cccbbd": 2508,
      "cccccded": 2509,
      "edddccd": 2510,
      "ecbabb": 2511,
      "gegegege": 2512,
      "ccbdf": 2513,
      "gfdff": 2514,
      "cecbb": 2515,
      "eedefff": 2516,
      "decbb": 2517,
      "gcfcf": 2518,
      "gedddd": 2519,
      "ccccdcdd": 2520,
      "ggggfgggf": 2521,
      "gfdcd": 2522,
      "ghggghhh": 2523,
      "cdfef": 2524,
      "cdddeef": 2525,
      "ccddee": 2526,
      "ghhghhhh": 2527,
      "cceeef": 2528,
      "ccbaaaaab": 2529,
      "gggghhhhhhhhhhhhhhhhhhhhhhhh": 2530,
      "ghhhgfff": 2531,
      "aaaabaab": 2532,
      "cgbgbgbgb": 2533,
      "dede": 2534,
      "edddeddd": 2535,
      "effefff": 2536,
      "cbbbbbd": 2537,
      "ccbbbabb": 2538,
      "cbaabbbb": 2539,
      "ghhhhhhhhhhhhhhhhhhhhhhhhhh": 2540,
      "ccede": 2541,
      "eddedf": 2542,
      "ccbbdd": 2543,
      "cefgff": 2544,
      "ffffef": 2545,
      "cdeeddd": 2546,
      "cdddcddd": 2547,
      "ccceee": 2548,
      "chb": 2549,
      "eddeeff": 2550,
      "eeddee": 2551,
      "cbcbcbbb": 2552,
      "cbcdef": 2553,
      "gcfdeed": 2554,
      "cddddef": 2555,
      "cccccccccdd": 2556,
      "ghhhhhhhhhhhhhhhhhhhhhhhhh": 2557,
      "eeeeeeeeef": 2558,
      "gafa": 2559,
      "aaaaaaaaaaaaaaaaaaaaaaaaaab": 2560,
      "cfgd": 2561,
      "ghhhged": 2562,
      "caaaaaa": 2563,
      "cbaaaaaaaab": 2564,
      "eeegff": 2565,
      "aaaababb": 2566,
      "ddefff": 2567,
      "cededed": 2568,
      "efffffd": 2569,
      "ghghghghghgh": 2570,
      "hfhghgh": 2571,
      "egge": 2572,
      "aaaaaaaaaaaaaaaaaaaa": 2573,
      "gghhhhhhhhhhhhhhhhh": 2574,
      "effffgff": 2575,
      "gffffed": 2576,
      "cbcbcbcbcbcbcbcb": 2577,
      "ggffggff": 2578,
      "fbeb": 2579,
      "cfcgb": 2580,
      "cegggf": 2581,
      "bbbdd": 2582,
      "abababbb": 2583,
      "caaaaaaaab": 2584,
      "ghhghf": 2585,
      "cbbaaaaaab": 2586,
      "hhhfd": 2587,
      "gghhhhhgh": 2588,
      "hhhhhhhhhhhhhhhhhhhhhhhhhhhhhhhhhhhhhhhhhhhhhhhhhhhhhhhhhhhhhhhhhhhhhhhhhhhhhhhhhhhhhhhhhhhhhhhhhhhhhhhhhhhhhhhhhhhhhhhhhhhhhhhhhhhhhhhhhhhhhhhhhhhhhhhhhhhhhhhhhhhhhhhhhhhhhhhhhhhhhhhhhhhhhhhhhhhhhhhhhhhhhhhhhhhhhhhhhhhhhhhhhhhhhhhhhhhhhhhhhhhhhhhhhhhhhhhhhhhhhhhhhhhhhhhhhhhhhhhhhhhhhhhhhhhhhhhhhhhhhhhhhhhhhhhhhhhhhhhh": 2589,
      "aaaaaaaaaaaabbbb": 2590,
      "efefdf": 2591,
      "ccccbab": 2592,
      "baaab": 2593,
      "cccefff": 2594,
      "aabbbaab": 2595,
      "gghhhhhhhhhhhhhhhhhhhhh": 2596,
      "ddddef": 2597,
      "cgdf": 2598,
      "cdcbab": 2599,
      "ghgeef": 2600,
      "egfh": 2601,
      "cceded": 2602,
      "eedeedd": 2603,
      "cbbcccbb": 2604,
      "eghgf": 2605,
      "eeecdd": 2606,
      "ghhhgggg": 2607,
      "ghhhhff": 2608,
      "hahahahaha": 2609,
      "gggggggggffff": 2610,
      "ggfffgff": 2611,
      "ccbbbbbbbbbbbbb": 2612,
      "ccccccccbbb": 2613,
      "abbbaaab": 2614,
      "gcc": 2615,
      "ccbcdf": 2616,
      "gchchc": 2617,
      "hhhhhhhhhhhhhhhhhhh": 2618,
      "edfeff": 2619,
      "ccccccc": 2620,
      "efedef": 2621,
      "eeededed": 2622,
      "eeghh": 2623,
      "efffffgf": 2624,
      "cccbcccb": 2625,
      "gggggggggggggggggggggggggggg": 2626,
      "cbbdff": 2627,
      "decb": 2628,
      "cedeed": 2629,
      "cefdd": 2630,
      "aaaaaaaaaaaaaaaaaaaaaaaaaaaaaaaaaaaaaaaaaaaaaaaaaaaaaaaaaaaaaaaaaaaaaaaaaaaaaaaaaaaaaaaaaaaaaaaaaaaaaaaaaaaaaaaaaaaaaaaaaaaaaaaaaaaaaaaaaaaaaaaaaaaaaaaaaaaaaaaaaaaaaaaaaaaaaaaaaaaaaaaaaaaaaaaaaaaaaaaaaaaaaaaaaaaaaaaaaaaaaaaaaaaaaaaaaaaaaaaaaaaaaaaaaaaaaaaaaaaaaaaaaaaaaaaaaaaaaaaaaaaaaaaaaaaaaaaaaaaaaaaaaaaaaaaaaaaaaaaa": 2631,
      "eefgfff": 2632,
      "hdhdhd": 2633,
      "heh": 2634,
      "hehf": 2635,
      "dbaabb": 2636,
      "edeeff": 2637,
      "cdddcccd": 2638,
      "ccccdff": 2639,
      "cecb": 2640,
      "effffggf": 2641,
      "aaaaaaaaaaaaaaaaaaaabb": 2642,
      "cbbbcccd": 2643,
      "efffgggf": 2644,
      "cccbaaab": 2645,
      "ggghggff": 2646,
      "bbaaab": 2647,
      "fffdd": 2648,
      "eeeeeefffff": 2649,
      "cbcbccd": 2650,
      "effeddd": 2651,
      "egfef": 2652,
      "ghhhhhhhhgf": 2653,
      "hgef": 2654,
      "cdfb": 2655,
      "eddddb": 2656,
      "dad": 2657,
      "cbbbbbabb": 2658,
      "ggggggghhhhh": 2659,
      "ghhhgghhh": 2660,
      "gggffgff": 2661,
      "cdddccb": 2662,
      "cbbded": 2663,
      "hgb": 2664,
      "caaabbb": 2665,
      "eccf": 2666,
      "eeefeeef": 2667,
      "ecddceb": 2668,
      "eedfdf": 2669,
      "cabbbbb": 2670,
      "aabdd": 2671,
      "cbbbaabb": 2672,
      "fffffffffff": 2673,
      "gdde": 2674,
      "ceddddd": 2675,
      "cbcab": 2676,
      "ghhhggh": 2677,
      "hhhhggf": 2678,
      "ghgdd": 2679,
      "gggggghhhhhhh": 2680,
      "cccccccccccd": 2681,
      "eeeccd": 2682,
      "hhhhhhhhhhhhhhhhhhhhh": 2683,
      "cac": 2684,
      "deeb": 2685,
      "eecc": 2686,
      "abba": 2687,
      "dbccb": 2688,
      "cdddeed": 2689,
      "cccccef": 2690,
      "aabbbbbbbbbb": 2691,
      "ghhhgg": 2692,
      "decf": 2693,
      "dece": 2694,
      "eebbb": 2695,
      "gggggggggggggggggggggggggggggggggggggggggggggggggggggggggggggggg": 2696,
      "aabdf": 2697,
      "gdgf": 2698,
      "ccddcccd": 2699,
      "cccbdb": 2700,
      "cddfd": 2701,
      "cdfgff": 2702,
      "effeedd": 2703,
      "ghhhgggh": 2704,
      "cbbaaaabb": 2705,
      "cddbab": 2706,
      "hgfe": 2707,
      "hfhfhgh": 2708,
      "cbcdddd": 2709,
      "eeefdd": 2710,
      "cdeggf": 2711,
      "ggghhgff": 2712,
      "defff": 2713,
      "abbba": 2714,
      "eeefgggf": 2715,
      "edeggf": 2716,
      "cddcbbbb": 2717,
      "edddeeed": 2718,
      "cbcbcbd": 2719,
      "gahahahaha": 2720,
      "cccbbbbbbbbbbb": 2721,
      "gghhhhhhhhhhhhhhhhhhhhhh": 2722,
      "efffffef": 2723,
      "ghgfgf": 2724,
      "dddeed": 2725,
      "ecbcd": 2726,
      "ccbbcbb": 2727,
      "ecbaaab": 2728,
      "hhhhhhhhhhhhhhhhhhhhhh": 2729,
      "cecece": 2730,
      "dfgg": 2731,
      "dbba": 2732,
      "cedbbb": 2733,
      "cdddcbb": 2734,
      "eeefefff": 2735,
      "bbce": 2736,
      "effggggf": 2737,
      "ghhhhhhhhf": 2738,
      "cceeedd": 2739,
      "gghghhhhh": 2740,
      "edccdd": 2741,
      "gdbbb": 2742,
      "ccdccbbb": 2743,
      "gchbhb": 2744,
      "ccbcccbb": 2745,
      "hhd": 2746,
      "ccbddd": 2747,
      "aaaaaaaaaabbbbb": 2748,
      "bbcdd": 2749,
      "dcba": 2750,
      "hhfe": 2751,
      "dddddddddddddddddddddddddddddddddddddddddddddddddddddddddddddddd": 2752,
      "hcf": 2753,
      "gfffeef": 2754,
      "gghhgggf": 2755,
      "gggggfgff": 2756,
      "cdeeeed": 2757,
      "gghgggff": 2758,
      "ddddddddddddd": 2759,
      "ccccce": 2760,
      "eegg": 2761,
      "gghhge": 2762,
      "ecfd": 2763,
      "abbbabbb": 2764,
      "hhgef": 2765,
      "cdcbbbbb": 2766,
      "dbc": 2767,
      "eege": 2768,
      "aaaaaaaaaaaaaaaaaaaaaaaaaaaaaaaaaaaaaaaaaaaa": 2769,
      "aaabbd": 2770,
      "cccaab": 2771,
      "cccccccdddd": 2772,
      "gghghgggg": 2773,
      "ffffd": 2774,
      "ggghgggf": 2775,
      "gggghhhhhhhhhhh": 2776,
      "cdbaa": 2777,
      "efge": 2778,
      "ecce": 2779,
      "hhhhhhhhhhhhhhhhhhhhhhh": 2780,
      "eedfb": 2781,
      "ccccddf": 2782,
      "gffge": 2783,
      "cccccccccccccccccccccccc": 2784,
      "gghhggff": 2785,
      "eeecbb": 2786,
      "gggghhgf": 2787,
      "gahahahahahb": 2788,
      "eggggf": 2789,
      "aaaaba": 2790,
      "cdbdbdb": 2791,
      "eefeeff": 2792,
      "eddeddd": 2793,
      "bbbbbbbbbbbbbbbbbb": 2794,
      "eddcbbb": 2795,
      "hhhhhhhhhhhhhhhhhhhhhhhhhhhhhhhhhhhhhhhhhhhhhhhhhhhhhhhhhhhhhhhhhhhhhhhhhhhhhhhhhhhhhhhhhhhhhhhhhhhhhhhhhhhhhhhhhhhhhhhhhhhhhhhhhhhhhhhhhhhhhhhhhhhhhhhhhhhhhhhhhhhhhhhhhhhhhhhhhhhhhhhhhhhhhhhhhhhhhhhhhhhhhhhhhhhhhhhhhhhhhhhhhhhhhhhhhhhhhhhhhhhhhhhhhhhhhhhhhhhhhhhhhhhhhhhhhhhhhhhhhhhhhhhhhhhhhhhhhhhhhhhhhhhhhhhhhhhhhhhhhhhhhhhhhhhhh": 2796,
      "eeddcccd": 2797,
      "gggggghhhhhhhh": 2798,
      "ggfgfff": 2799,
      "gdgcgc": 2800,
      "caad": 2801,
      "cccccccbcb": 2802,
      "fhf": 2803,
      "ddbbbb": 2804,
      "aaaabbbbbbbb": 2805,
      "ccbbbcdd": 2806,
      "eecf": 2807,
      "ccbccccd": 2808,
      "cccbccdd": 2809,
      "effgggff": 2810,
      "cdcccbb": 2811,
      "ebaaa": 2812,
      "caaaaabb": 2813,
      "eeccbb": 2814,
      "dbcbb": 2815,
      "hdhc": 2816,
      "ffffed": 2817,
      "ccceeed": 2818,
      "eebab": 2819,
      "hahahaha": 2820,
      "ccbcef": 2821,
      "cdcdef": 2822,
      "gfgfgfgfgf": 2823,
      "edfefef": 2824,
      "ghghhhhhhh": 2825,
      "eedccbb": 2826,
      "cfhhhh": 2827,
      "ababaca": 2828,
      "cegfd": 2829,
      "ccccbccd": 2830,
      "ccccbbbbbbbbb": 2831,
      "cebebeb": 2832,
      "aaaaaaaaaaaaaaaaaaabb": 2833,
      "fffggf": 2834,
      "eeffgfff": 2835,
      "ghhggghh": 2836,
      "ghggggggf": 2837,
      "ddbd": 2838,
      "eefeeed": 2839,
      "ghhhhhhhhhgf": 2840,
      "ggghgggh": 2841,
      "aaaaababb": 2842,
      "abababababab": 2843,
      "aaaaaaaaaaaaaaaaaaaaaaaaaaaaab": 2844,
      "fbfcf": 2845,
      "cedfe": 2846,
      "ggggffed": 2847,
      "cdeefff": 2848,
      "eefefd": 2849,
      "ccddcb": 2850,
      "ccbcbbbbb": 2851,
      "ededef": 2852,
      "aaaaaaaaaaaaaaaaaaaaaaaaaaaab": 2853,
      "eeeeeeded": 2854,
      "gca": 2855,
      "gfgfggf": 2856,
      "hghhhh": 2857,
      "gfgfgfff": 2858,
      "ggeedd": 2859,
      "cbeb": 2860,
      "gcfdf": 2861,
      "aaaaaaaabab": 2862,
      "cdcddf": 2863,
      "ccedcb": 2864,
      "cdccddd": 2865,
      "ecccb": 2866,
      "geffgf": 2867,
      "cegh": 2868,
      "ceegf": 2869,
      "ceefd": 2870,
      "eddcccdd": 2871,
      "cbcce": 2872,
      "cbed": 2873,
      "ededff": 2874,
      "hahbhb": 2875,
      "cfgfd": 2876,
      "eeefdf": 2877,
      "eaeaea": 2878,
      "eedede": 2879,
      "eddfgf": 2880,
      "ccaabb": 2881,
      "aaaaaaaaaaaaaaaaaaaaaaaaaaaaaaaaaaaaaaaaaaaaaaaaaaaaaaaaaaaaaaaaaaaaaaaaaaaaaaaaaaaaaaaaaaaaaaaaaaaaaaaaaaaaaaaaaaaaaaaaaaaaaaaaaaaaaaaaaaaaaaaaaaaaaaaaaaaaaaaaaaaaaaaaaaaaaaaaaaaaaaaaaaaaaaaaaaaaaaaaaaaaaaaaaaaaaaaaaaaaaaaaaaaaaaaaaaaaaaaaaaaaaaaaaaaaaaaaaaaaaaaaaaaaaaaaaaaaaaaaaaaaaaaaaaaaaaaaaaaaaaaaaaaaaaaaaaaaaaaaaaaaaaaaaaaaa": 2882,
      "cbbbccbbb": 2883,
      "ceedddd": 2884,
      "eefffeff": 2885,
      "eeeeeefef": 2886,
      "efffeedd": 2887,
      "ehhf": 2888,
      "gghhhhhhhhhhhhhhhhhhhhhhh": 2889,
      "cbbcbcb": 2890,
      "cdedddd": 2891,
      "edddeeff": 2892,
      "dfdb": 2893,
      "edfdd": 2894,
      "efefed": 2895,
      "gfffffef": 2896,
      "cdbeb": 2897,
      "cbbbcbcb": 2898,
      "ghhhghgh": 2899,
      "dcaa": 2900,
      "cbbbbaaab": 2901,
      "hhged": 2902,
      "hggh": 2903,
      "ghhgfef": 2904,
      "eeeeefed": 2905,
      "eeeffgff": 2906,
      "eeggg": 2907,
      "ecccdd": 2908,
      "efffeeff": 2909,
      "geefd": 2910,
      "ababaaab": 2911,
      "eged": 2912,
      "cfgff": 2913,
      "cccdcbb": 2914,
      "aaaaaaabab": 2915,
      "ggggfeff": 2916,
      "geffd": 2917,
      "cbcbbbbbbb": 2918,
      "cbbbcef": 2919,
      "ggggffgf": 2920,
      "efebb": 2921,
      "hgge": 2922,
      "dddcdd": 2923,
      "eedcddd": 2924,
      "ggggd": 2925,
      "fge": 2926,
      "faeb": 2927,
      "dffed": 2928,
      "eeddddddddd": 2929,
      "ddccdd": 2930,
      "ggfeeff": 2931,
      "fdf": 2932,
      "gghhff": 2933,
      "fdef": 2934,
      "ccbbaabb": 2935,
      "cababbb": 2936,
      "cbccbbbb": 2937,
      "gdbab": 2938,
      "gghgggggf": 2939,
      "fffeff": 2940,
      "dfgggf": 2941,
      "eccbbb": 2942,
      "ebabb": 2943,
      "gffffd": 2944,
      "cbceff": 2945,
      "cbbbcddd": 2946,
      "bbbbbbbbbbbbbbbbbbb": 2947,
      "cceffff": 2948,
      "efffeeef": 2949,
      "gggfffffffff": 2950,
      "cdcbaab": 2951,
      "ghhgee": 2952,
      "eddddddddddd": 2953,
      "ccdcccdd": 2954,
      "eeggff": 2955,
      "ghhgfed": 2956,
      "ddeee": 2957,
      "ghhhhhhhhhhhhhhhhhhhhhhhhhhhh": 2958,
      "cefdb": 2959,
      "aaaaaaaabbbbbb": 2960,
      "cccccbcd": 2961,
      "ccccccddddd": 2962,
      "aaaaad": 2963,
      "ghhfff": 2964,
      "efege": 2965,
      "gedde": 2966,
      "cdccbbbb": 2967,
      "ghgedd": 2968,
      "cfdeedf": 2969,
      "cdecd": 2970,
      "gghggggh": 2971,
      "eeddbb": 2972,
      "gggffgggf": 2973,
      "aabbbabb": 2974,
      "cbbabbbbb": 2975,
      "ccbccbbb": 2976,
      "ggggfedd": 2977,
      "ghgghhhh": 2978,
      "eeedddddddd": 2979,
      "efeeed": 2980,
      "dddedd": 2981,
      "eeeefeff": 2982,
      "cddcddd": 2983,
      "gggggggggggfff": 2984,
      "eedddff": 2985,
      "cdffed": 2986,
      "gggggggghhhh": 2987,
      "gghhhhhhgf": 2988,
      "ccccccbbbbbb": 2989,
      "ggghhhggf": 2990,
      "cccbdd": 2991,
      "effffeff": 2992,
      "ggggghf": 2993,
      "ghgeb": 2994,
      "cccba": 2995,
      "cada": 2996,
      "ddbaab": 2997,
      "gggghhhhhhhhhhhh": 2998,
      "eedeeef": 2999,
      "edba": 3000,
      "ecbbd": 3001,
      "ededeef": 3002,
      "aaaaaaaaaaaaaaabbb": 3003,
      "ggfde": 3004,
      "bbbdf": 3005,
      "cbdddd": 3006,
      "dffgf": 3007,
      "gghghggf": 3008,
      "ccdbdb": 3009,
      "ggggggffffff": 3010,
      "eeddccb": 3011,
      "eeeededd": 3012,
      "efffffed": 3013,
      "aaaaaaaaaaaaaaaaaaaaabb": 3014,
      "ggggggggfffff": 3015,
      "eeedee": 3016,
      "hgfff": 3017,
      "cddefff": 3018,
      "cbbbcdf": 3019,
      "ceedbb": 3020,
      "cddeee": 3021,
      "bbbaab": 3022,
      "eeeeedf": 3023,
      "ddecfb": 3024,
      "deced": 3025,
      "cbaaaaaabb": 3026,
      "ggfffd": 3027,
      "ccccdeff": 3028,
      "ebbd": 3029,
      "egegf": 3030,
      "edede": 3031,
      "ghhgggff": 3032,
      "edddfff": 3033,
      "aabbaabb": 3034,
      "cbabbbbb": 3035,
      "ceggg": 3036,
      "ddedf": 3037,
      "gba": 3038,
      "ffee": 3039,
      "ccccdded": 3040,
      "geffegd": 3041,
      "ggggghhhhhhhhh": 3042,
      "dddfff": 3043,
      "ebcf": 3044,
      "cbcbab": 3045,
      "cbddf": 3046,
      "gghggghh": 3047,
      "gggggfffffff": 3048,
      "gggggggggghh": 3049,
      "geggf": 3050,
      "cccdcddd": 3051,
      "ccdce": 3052,
      "gffggff": 3053,
      "cdcef": 3054,
      "cbbababb": 3055,
      "hahahahahb": 3056,
      "gchbhbhb": 3057,
      "eeeedeef": 3058,
      "ccbccddd": 3059,
      "decdb": 3060,
      "ggeddf": 3061,
      "ccdbd": 3062,
      "eeeeeeedddd": 3063,
      "cdddddddddd": 3064,
      "eeefffffffff": 3065,
      "cfcgbgb": 3066,
      "acab": 3067,
      "ffeef": 3068,
      "ccbbbaab": 3069,
      "ccddeeff": 3070,
      "ecbdf": 3071,
      "cbcdcd": 3072,
      "eededddd": 3073,
      "cdcddddd": 3074,
      "dddded": 3075,
      "hhhg": 3076,
      "ccdcbbbb": 3077,
      "gghgd": 3078,
      "ccdfed": 3079,
      "ddeeed": 3080,
      "cbdbd": 3081,
      "gggfggff": 3082,
      "gghg": 3083,
      "ccbc": 3084,
      "efded": 3085,
      "gggffeef": 3086,
      "ggghghf": 3087,
      "eeffffgf": 3088,
      "ccddddddddd": 3089,
      "aaaaabbbbbbbb": 3090,
      "cbaaaaaa": 3091,
      "cefee": 3092,
      "gffffgff": 3093,
      "aaaac": 3094,
      "efefgf": 3095,
      "ggggfee": 3096,
      "ghhhhhhgff": 3097,
      "gggeee": 3098,
      "ccbcf": 3099,
      "ccbaabbb": 3100,
      "gfffggff": 3101,
      "eeeeeeddddd": 3102,
      "ccccdcdcd": 3103,
      "cbbbbbbab": 3104,
      "hfff": 3105,
      "gec": 3106,
      "cadada": 3107,
      "aaaaaabbbbbbb": 3108,
      "ddeeff": 3109,
      "hhhhhhhhhhhhhhhhhhhhhhhhhhh": 3110,
      "cdedf": 3111,
      "gcefb": 3112,
      "ggdcb": 3113,
      "edddeedd": 3114,
      "aaabaaaab": 3115,
      "effeeed": 3116,
      "ghghhhhhhhhhh": 3117,
      "ceebb": 3118,
      "aaaaaaaaaaaaaaaabbb": 3119,
      "efegfgf": 3120,
      "ccdeeef": 3121,
      "gghhgghh": 3122,
      "cedfdf": 3123,
      "abbbbabb": 3124,
      "eeffffed": 3125,
      "eddeeef": 3126,
      "aae": 3127,
      "gdee": 3128,
      "ccccbcbcb": 3129,
      "ghgfed": 3130,
      "hhhhhhhhhhhhhhhhh": 3131,
      "ggfdb": 3132,
      "gagaha": 3133,
      "cffed": 3134,
      "ghhggfff": 3135,
      "egggff": 3136,
      "decdd": 3137,
      "effddd": 3138,
      "aaaabbab": 3139,
      "ddcc": 3140,
      "ggfdf": 3141,
      "cedeef": 3142,
      "aaaaabaab": 3143,
      "gggggggggggggff": 3144,
      "gggedf": 3145,
      "efgfff": 3146,
      "gffdf": 3147,
      "cdfhh": 3148,
      "eedcbbbb": 3149,
      "ccccccbcb": 3150,
      "gdeb": 3151,
      "ghhhggggf": 3152,
      "eeccdd": 3153,
      "cfhf": 3154,
      "ccccccccdddd": 3155,
      "efhhh": 3156,
      "caabd": 3157,
      "cehhh": 3158,
      "bbbbbab": 3159,
      "edfded": 3160,
      "ebbbb": 3161,
      "dddbbb": 3162,
      "ccbde": 3163,
      "gefdd": 3164,
      "gbfced": 3165,
      "ededededed": 3166,
      "cdddbbb": 3167,
      "eeeeeeeefff": 3168,
      "ggggggghhhhhh": 3169,
      "cccdddddddd": 3170,
      "cefedd": 3171,
      "ggghhhhgf": 3172,
      "eeeeddddddd": 3173,
      "gghhhhgff": 3174,
      "ccddeeed": 3175,
      "ecdbb": 3176,
      "ceh": 3177,
      "edddcccd": 3178,
      "acbb": 3179,
      "ddcbbbb": 3180,
      "cecddd": 3181,
      "cecfd": 3182,
      "gggggge": 3183,
      "ggefd": 3184,
      "eeeeddf": 3185,
      "ecaaa": 3186,
      "gfgffef": 3187,
      "ggddf": 3188,
      "gghhhhhhhhhhhhhhhhhhhhhhhhhhhhhhhhhhhhhhhhhhhhhhhh": 3189,
      "cdcbcd": 3190,
      "ebaaaab": 3191,
      "eefffeef": 3192,
      "gcedd": 3193,
      "ggggggggggffff": 3194,
      "ccbbcbbb": 3195,
      "aaaaaaaaaaaaaaaaaaaaaabb": 3196,
      "ggfeeef": 3197,
      "gggeeef": 3198,
      "cdcdcddd": 3199,
      "cdfge": 3200,
      "ghhhhggff": 3201,
      "ccbbbbbbbbbbbbbb": 3202,
      "ccdcccb": 3203,
      "cdcdded": 3204,
      "eeffeeff": 3205,
      "cbccdddd": 3206,
      "fffee": 3207,
      "gggffeed": 3208,
      "hehdhd": 3209,
      "ggdcd": 3210,
      "cbceed": 3211,
      "aaaaaaaaaaaaaaaaaa": 3212,
      "ggfge": 3213,
      "cfdfd": 3214,
      "adf": 3215,
      "edddefff": 3216,
      "aaaaaaabbbbbbb": 3217,
      "eedbab": 3218,
      "eefffeed": 3219,
      "cfded": 3220,
      "ghggffff": 3221,
      "cbbbbbbbbbbbbbbb": 3222,
      "hhhhhhhhhhhhhhhhhhhhhhhhhhhhh": 3223,
      "fffeef": 3224,
      "aaabbabb": 3225,
      "eceed": 3226,
      "gcdb": 3227,
      "ccbcccccccc": 3228,
      "gfffffgf": 3229,
      "eeeefefef": 3230,
      "fdd": 3231,
      "ggggggggghh": 3232,
      "eeeegf": 3233,
      "dfgfd": 3234,
      "cdfgggf": 3235,
      "eca": 3236,
      "ffeff": 3237,
      "eccdf": 3238,
      "eddeee": 3239,
      "edfdfd": 3240,
      "cccabb": 3241,
      "dcccd": 3242,
      "gghhhggff": 3243,
      "aaabbbbbbbbbb": 3244,
      "ghhhgfe": 3245,
      "ccbcccdd": 3246,
      "gdddd": 3247,
      "ghhhhgd": 3248,
      "eedddeef": 3249,
      "eeedcbb": 3250,
      "aaaaaaaaaabab": 3251,
      "acbd": 3252,
      "cecfcf": 3253,
      "gcfdee": 3254,
      "ghhhhgggf": 3255,
      "cdecbb": 3256,
      "cfdfdf": 3257,
      "babb": 3258,
      "dbaaaaab": 3259,
      "cedecd": 3260,
      "gghhhhhggf": 3261,
      "efecb": 3262,
      "cbbbaaaab": 3263,
      "cccccccccccccccccccccccccccccccccccccccccccccccccccccccccccccccc": 3264,
      "ghhhhhge": 3265,
      "edbaaab": 3266,
      "ccddccdd": 3267,
      "cbbbbbaab": 3268,
      "aaaaaabd": 3269,
      "ghhhhfd": 3270,
      "cbccccdd": 3271,
      "aaaaaaaaaaaaaaaaaaaaaa": 3272,
      "ccceedd": 3273,
      "hah": 3274,
      "cccccbd": 3275,
      "eeefeedd": 3276,
      "ccdcc": 3277,
      "hhhhgff": 3278,
      "gefegf": 3279,
      "cdcbd": 3280,
      "eedeeedd": 3281,
      "ceddecf": 3282,
      "eeefffef": 3283,
      "eedeee": 3284,
      "hhhhhhhgf": 3285,
      "dec": 3286,
      "ggggee": 3287,
      "gghgghhh": 3288,
      "ggggghhhhhhhhhh": 3289,
      "ebdccdb": 3290,
      "ababababb": 3291,
      "gefffff": 3292,
      "ccccddddddd": 3293,
      "eddddded": 3294,
      "gdgdgdf": 3295,
      "eefffgff": 3296,
      "cbcbbbbbbbb": 3297,
      "degff": 3298,
      "cccddff": 3299,
      "gefb": 3300,
      "gbfbf": 3301,
      "cccbbbbbbbbbbbb": 3302,
      "cbccdb": 3303,
      "ccddbbb": 3304,
      "hhhhhhhf": 3305,
      "eeeeedef": 3306,
      "efdeef": 3307,
      "cdbcbd": 3308,
      "ghhhfe": 3309,
      "gggghghgh": 3310,
      "abbbd": 3311,
      "ccbbaaaab": 3312,
      "geeedd": 3313,
      "eeebb": 3314,
      "gghgfe": 3315,
      "eeeeeeeeddd": 3316,
      "acc": 3317,
      "ccccced": 3318,
      "eeffggff": 3319,
      "ghhggg": 3320,
      "eedfef": 3321,
      "hhfb": 3322,
      "aaaacf": 3323,
      "gdgcf": 3324,
      "ccbbcccb": 3325,
      "ghhhhhhhhhhhhhhhhhhhhhhhhhhhhhh": 3326,
      "gggggd": 3327,
      "ebc": 3328,
      "abbbbbbbbbbbbbb": 3329,
      "efegff": 3330,
      "ggfddd": 3331,
      "cffgf": 3332,
      "ccbabbbb": 3333,
      "cdddee": 3334,
      "cbbbcccbb": 3335,
      "aaaaabaaab": 3336,
      "cedfef": 3337,
      "dcbabb": 3338,
      "aaabbbaab": 3339,
      "ggggggggggggggggf": 3340,
      "gghggggff": 3341,
      "geeeed": 3342,
      "cdebb": 3343,
      "ghhhhhhhhhf": 3344,
      "gegfff": 3345,
      "ggfggff": 3346,
      "cbccf": 3347,
      "cddeded": 3348,
      "eeefggff": 3349,
      "cddddcd": 3350,
      "eeeeede": 3351,
      "edddbb": 3352,
      "ghggfgf": 3353,
      "ehe": 3354,
      "hchchd": 3355,
      "effgffff": 3356,
      "eecdf": 3357,
      "ccbaaaaaab": 3358,
      "ghhhhghhh": 3359,
      "ccccccccccccd": 3360,
      "cbcccccd": 3361,
      "hhgghh": 3362,
      "cccbcbbbb": 3363,
      "cccccbbbbbbbb": 3364,
      "ebcd": 3365,
      "eeededdd": 3366,
      "cegd": 3367,
      "gggghgff": 3368,
      "abababbbb": 3369,
      "dcaaab": 3370,
      "gggfffef": 3371,
      "dedeef": 3372,
      "ghhhhhhhggf": 3373,
      "gggfggggf": 3374,
      "cdddccdd": 3375,
      "egdf": 3376,
      "ceeffff": 3377,
      "effffeef": 3378,
      "cacacaca": 3379,
      "ghhhhgfd": 3380,
      "eggd": 3381,
      "eeeedb": 3382,
      "eeeeeeeeeef": 3383,
      "ghgb": 3384,
      "gdbd": 3385,
      "eddddeef": 3386,
      "eddfd": 3387,
      "ccdeeedd": 3388,
      "ccaaabb": 3389,
      "eeeedddddddd": 3390,
      "hhhhhhhhhhhhhhhhhhhhhhhhhh": 3391,
      "cbaaaabbb": 3392,
      "ghggef": 3393,
      "dcdbb": 3394,
      "edddddf": 3395,
      "cbbbbabbb": 3396,
      "fffgff": 3397,
      "ghhfb": 3398,
      "cddbbbb": 3399,
      "ccbccccb": 3400,
      "eeedcccd": 3401,
      "gghhhhhhf": 3402,
      "eedcccdd": 3403,
      "ccbbbbabb": 3404,
      "hghggf": 3405,
      "cccccccbbbbb": 3406,
      "gefed": 3407,
      "ghfhf": 3408,
      "gfedff": 3409,
      "ebdbd": 3410,
      "cccbcccd": 3411,
      "ddcddd": 3412,
      "ccdced": 3413,
      "gghhhff": 3414,
      "cccbbaab": 3415,
      "aaaaaaaaaaaaaaaaaaaaaaabb": 3416,
      "cddcccdd": 3417,
      "cdfgfd": 3418,
      "eddccbbb": 3419,
      "gggggggghhhhh": 3420,
      "ada": 3421,
      "ecabb": 3422,
      "cdcdcdcdd": 3423,
      "cddcc": 3424,
      "ddeedd": 3425,
      "ggggffd": 3426,
      "eedddeff": 3427,
      "ghhghhhhh": 3428,
      "hcgc": 3429,
      "gghged": 3430,
      "ggghggggf": 3431,
      "aaaaaaaaaaaaaaaaaaaaaaaaaaaaaab": 3432,
      "cccbccbb": 3433,
      "ddcf": 3434,
      "gebbb": 3435,
      "cdbbbbb": 3436,
      "ccbaaaabb": 3437,
      "cefecb": 3438,
      "eeefffed": 3439,
      "ggfefff": 3440,
      "cdcded": 3441,
      "ccbcbdb": 3442,
      "ffffffffffff": 3443,
      "eeedeeff": 3444,
      "cbbbddd": 3445,
      "gfffee": 3446,
      "ebdbdb": 3447,
      "abdf": 3448,
      "cbbccccd": 3449,
      "cbbcdef": 3450,
      "ccdefd": 3451,
      "cbbcee": 3452,
      "ghhgggggf": 3453,
      "edfee": 3454,
      "cdbdcd": 3455,
      "cccccde": 3456,
      "eefggggf": 3457,
      "gffffeff": 3458,
      "cbbbcc": 3459,
      "eeffffffffff": 3460,
      "ddcdf": 3461,
      "aaaaaaaaabbbbbb": 3462,
      "fffffgf": 3463,
      "cbbdb": 3464,
      "hhb": 3465,
      "cbdee": 3466,
      "cbbdef": 3467,
      "eedcc": 3468,
      "ggffffef": 3469,
      "eaa": 3470,
      "gggfeeff": 3471,
      "eedddedd": 3472,
      "eedcdf": 3473,
      "gghfd": 3474,
      "ggghhhhhhhhhhhhhhhhhhhhhhhhhhhhhhhhhhhhhhhh": 3475,
      "eeeddded": 3476,
      "cbbef": 3477,
      "cdbaaab": 3478,
      "eeeeefd": 3479,
      "eeddcddd": 3480,
      "eeffffef": 3481,
      "ghgc": 3482,
      "gggggggfgf": 3483,
      "ceghhh": 3484,
      "cbbaaabbb": 3485,
      "ddeb": 3486,
      "aabbaa": 3487,
      "hhhhhhhhhhhhhhhhhhhhhhhhhhhhhhh": 3488,
      "cgbgbhb": 3489,
      "ceccd": 3490,
      "effdb": 3491,
      "cabaca": 3492,
      "eeeeffgf": 3493,
      "efffgfff": 3494,
      "bbbabb": 3495,
      "ghgfe": 3496,
      "cbbbde": 3497,
      "gggggffef": 3498,
      "ddddddddd": 3499,
      "ggefef": 3500,
      "gegeff": 3501,
      "bbbbabb": 3502,
      "ggfffgggf": 3503,
      "eeeffeef": 3504,
      "hhhhhhhhhhhhhhhhhhhhhhhhhhhhhhhhhhhhhhhhhhhhhhhhhhhhhhhhhhhhhhhhhhhhhhhhhhhhhhhhhhhhhhhhhhhhhhhhhhhhhhhhhhhhhhhhhhhhhhhhhhhhhhhhhhhhhhhhhhhhhhhhhhhhhhhhhhhhhhhhhhhhhhhhhhhhhhhhhhhhhhhhhhhhhhhhhhhhhhhhhhhhhhhhhhhhhhhhhhhhhhhhhhhhhhhhhhhhhhhhhhhhhhhhhhhhhhhh": 3505,
      "cccbccb": 3506,
      "efffefef": 3507,
      "eeeeeeeeeed": 3508,
      "ggggggfed": 3509,
      "ggfb": 3510,
      "gah": 3511,
      "hegd": 3512,
      "deeed": 3513,
      "dfeef": 3514,
      "eeeeffed": 3515,
      "ggefe": 3516,
      "ghfef": 3517,
      "cdbbab": 3518,
      "ffh": 3519,
      "cbcbcbcbcbcb": 3520,
      "ababaab": 3521,
      "acbcb": 3522,
      "eadb": 3523,
      "bbbcdd": 3524,
      "cdeded": 3525,
      "hfhfhfh": 3526,
      "ggeeed": 3527,
      "caaaaaaa": 3528,
      "ccbbaaabb": 3529,
      "ccdddcdd": 3530,
      "cbbcde": 3531,
      "cccddeef": 3532,
      "eeeefeed": 3533,
      "cccccdb": 3534,
      "aaaaaaaaaaabbbbb": 3535,
      "eeffeeef": 3536,
      "eeddeeed": 3537,
      "effffeed": 3538,
      "ebda": 3539,
      "ceeeddd": 3540,
      "aaaabbaab": 3541,
      "eeeeefffffff": 3542,
      "gffffggf": 3543,
      "gfgfgggf": 3544,
      "ggffffgf": 3545,
      "gggeb": 3546,
      "cbbcded": 3547,
      "add": 3548,
      "ecbcf": 3549,
      "gecdf": 3550,
      "gegegd": 3551,
      "hehehf": 3552,
      "cbaaaaaaaaab": 3553,
      "ecddb": 3554,
      "hgee": 3555,
      "gffeeef": 3556,
      "cccdeeed": 3557,
      "cacf": 3558,
      "eeeefggf": 3559,
      "abbbbbbbbbbbbbbb": 3560,
      "dddccd": 3561,
      "ggghghhh": 3562,
      "eedddb": 3563,
      "effeee": 3564,
      "aaadf": 3565,
      "eeedddf": 3566,
      "ccceeff": 3567,
      "gggffee": 3568,
      "aaaaaaaaaaaaaaaaaaaaa": 3569,
      "cbbaba": 3570,
      "cecedf": 3571,
      "cccddedd": 3572,
      "cdefggf": 3573,
      "ebebd": 3574,
      "aaaaaaaaaaaaaabbbb": 3575,
      "geddef": 3576,
      "eeddddf": 3577,
      "cddddded": 3578,
      "cbbaaaa": 3579,
      "cabaaaab": 3580,
      "ccbbccdd": 3581,
      "ggffeedd": 3582,
      "cefgggf": 3583,
      "gefded": 3584,
      "aaaaaaaaaaaaaaaaaaa": 3585,
      "gggeeff": 3586,
      "ghhghgh": 3587,
      "cbccccbb": 3588,
      "abbbbbab": 3589,
      "hggggf": 3590,
      "ghhgghhhh": 3591,
      "effgggg": 3592,
      "gfffffd": 3593,
      "cdfee": 3594,
      "eeeffggf": 3595,
      "gggfffed": 3596,
      "dcbaaab": 3597,
      "ghhhhhhhhhhhhhhhhhhhhhhhhhhhhhhhhhhh": 3598,
      "gefeef": 3599,
      "ccbbbbd": 3600,
      "gggdb": 3601,
      "ccdcdddd": 3602,
      "ccdefed": 3603,
      "hhhhhhhhhhhhhhhhhhhhhhhhhhhh": 3604,
      "eeeeeeeeeeeeeeeeeeeeeeee": 3605,
      "cccdfff": 3606,
      "ecdee": 3607,
      "gggggggggh": 3608,
      "ghhhhhhhhhhhhhhhhhhhhhhhhhhhhhhhhhhhhhhhh": 3609,
      "aabbbaaab": 3610,
      "cebfbfb": 3611,
      "ghhd": 3612,
      "gggggfggf": 3613,
      "gffeedd": 3614,
      "ghhggghhh": 3615,
      "cabf": 3616,
      "gfgd": 3617,
      "ddfed": 3618,
      "gghgge": 3619,
      "ffedd": 3620,
      "bbbbaab": 3621,
      "cddcccb": 3622,
      "hhhhge": 3623,
      "egeb": 3624,
      "cbcccbbbb": 3625,
      "ggggggggghhh": 3626,
      "aaaaaaaaaaaaabbbb": 3627,
      "efefeed": 3628,
      "eefffedd": 3629,
      "eeedfd": 3630,
      "ggefgf": 3631,
      "ghhhhghf": 3632,
      "ebfbfb": 3633,
      "eeegggf": 3634,
      "hhgggf": 3635,
      "ccccdeed": 3636,
      "dbbabb": 3637,
      "cbbbcf": 3638,
      "gggggggggggggggf": 3639,
      "ggddd": 3640,
      "eddddcdd": 3641,
      "ccbdcd": 3642,
      "aabbaaaab": 3643,
      "acadada": 3644,
      "bbbbbbbbbbbbbbbbbbbb": 3645,
      "ecfcf": 3646,
      "cbbaaaaabb": 3647,
      "hgghh": 3648,
      "ggffefff": 3649,
      "gggegf": 3650,
      "cdeeeff": 3651,
      "ddba": 3652,
      "eddcdddd": 3653,
      "dfegf": 3654,
      "gghhhgggf": 3655,
      "defggf": 3656,
      "cdec": 3657,
      "ccbbce": 3658,
      "gggefff": 3659,
      "dedbbb": 3660,
      "edddddef": 3661,
      "ghhgffff": 3662,
      "cddddddddddd": 3663,
      "gfebb": 3664,
      "ccbaaaa": 3665,
      "ccbbcccd": 3666,
      "eefffggf": 3667,
      "cbbbbbccd": 3668,
      "gagafb": 3669,
      "eggfd": 3670,
      "aabbbbbbbbbbb": 3671,
      "ebdf": 3672,
      "gggggee": 3673,
      "egghh": 3674,
      "ecbce": 3675,
      "cbbaaaaaaab": 3676,
      "ggggfdd": 3677,
      "eeeeefgf": 3678,
      "cddfe": 3679,
      "gggghgh": 3680,
      "aaababbb": 3681,
      "efffffffffffff": 3682,
      "cdede": 3683,
      "ccccccccccdd": 3684,
      "gfgfh": 3685,
      "edededdd": 3686,
      "cccbbbd": 3687,
      "cbbcccdd": 3688,
      "geg": 3689,
      "gfgfd": 3690,
      "egfdd": 3691,
      "aaaf": 3692,
      "hhhhhhhhhhhhhhhhhhhhhhhhhhhhhhhhhhh": 3693,
      "cbccc": 3694,
      "ccbbdf": 3695,
      "aacef": 3696,
      "geccd": 3697,
      "ggggggfef": 3698,
      "aabbbbab": 3699,
      "aacff": 3700,
      "dbcbcb": 3701,
      "gggghhhhhhhhhhhhhh": 3702,
      "cddeeef": 3703,
      "ccccbbab": 3704,
      "ghgged": 3705,
      "gghghhhhhh": 3706,
      "ccdccccd": 3707,
      "gfde": 3708,
      "ggghhhhhhhhhhhhhhhhhh": 3709,
      "aaaaaaaaaaaaaaaaaaaaaaa": 3710,
      "cdefef": 3711,
      "effdf": 3712,
      "ggffgfff": 3713,
      "eeeeedcd": 3714,
      "gefee": 3715,
      "abbbbaab": 3716,
      "ghb": 3717,
      "cbbbbbbbbbbbbbbbb": 3718,
      "ccdfggf": 3719,
      "cbaabd": 3720,
      "eefeffff": 3721,
      "ccddccb": 3722,
      "cbbbcbbbbb": 3723,
      "dedee": 3724,
      "gghhgfff": 3725,
      "cddccbbb": 3726,
      "cdfdd": 3727,
      "gggghhhhhhhhhhhhh": 3728,
      "cbbbaaabb": 3729,
      "cghf": 3730,
      "eefeddd": 3731,
      "ghhggggh": 3732,
      "gggffedd": 3733,
      "cbcbbab": 3734,
      "ccdeffff": 3735,
      "cbbcdcb": 3736,
      "ccddeddd": 3737,
      "gfgffgf": 3738,
      "aaaaaaaaaaaaaaaaaaaaaaaaaaaaaaaaaaaaaaaaaaaaaaaaaaaaaaaaaaaaaaaaaaaaaaaaaaaaaaaaaaaaaaaaaaaaaaaaaaaaaaaaaaaaaaaaaaaaaaaaaaaaaaaaaaaaaaaaaaaaaaaaaaaaaaaaaaaaaaaaaaaaaaaaaaaaaaaaaaaaaaaaaaaaaaaaaaaaaaaaaaaaaaaaaaaaaaaaaaaaaaaaaaaaaaaaaaaaaaaaaaaaaaaaaaaaaaaa": 3739,
      "dacaca": 3740,
      "cdcdcdcdcdcdcdcd": 3741,
      "eeeeeeeeeeeeeeeeeeeeeeeeeeeeeeeeeeeeeeeeeeeeeeeeeeeeeeeeeeeeeeee": 3742,
      "cccdeedd": 3743,
      "cededf": 3744,
      "ccec": 3745,
      "eddddeff": 3746,
      "caaaaaaaa": 3747,
      "efddd": 3748,
      "ecdeff": 3749,
      "egegd": 3750,
      "cccdefff": 3751,
      "gffeeff": 3752,
      "ccfhh": 3753,
      "ggggfgfff": 3754,
      "cccccccccccdd": 3755,
      "eddddedd": 3756,
      "efegege": 3757,
      "ccdddded": 3758,
      "ggggggggfgf": 3759,
      "eeecb": 3760,
      "ccbbcddd": 3761,
      "ccabbb": 3762,
      "cceffd": 3763,
      "cbbbba": 3764,
      "cccdbbb": 3765,
      "gbga": 3766,
      "hghhhhh": 3767,
      "eccc": 3768,
      "eeddefff": 3769,
      "ecfdf": 3770,
      "ababbbbbbbb": 3771,
      "ccccbbbbbbbbbb": 3772,
      "cddeeedd": 3773,
      "ghhhhged": 3774,
      "ecdddd": 3775,
      "cededdd": 3776,
      "gcbb": 3777,
      "cdedef": 3778,
      "eeeeb": 3779,
      "gghggg": 3780,
      "gdcd": 3781,
      "cbabbbbbb": 3782,
      "fee": 3783,
      "ecbaaaab": 3784,
      "gggffggff": 3785,
      "gefggf": 3786,
      "gece": 3787,
      "ghhgggggggg": 3788,
      "efdee": 3789,
      "dcdb": 3790,
      "ghhgdb": 3791,
      "gab": 3792,
      "ghhhhhhhhggf": 3793,
      "cbaaaaaaaa": 3794,
      "eedeefff": 3795,
      "abbbaabb": 3796,
      "efegd": 3797,
      "ggggggghhhhhhh": 3798,
      "cfdb": 3799,
      "eafa": 3800,
      "cbcdbb": 3801,
      "cceefff": 3802,
      "ccccccbbbbbbb": 3803,
      "ghhfef": 3804,
      "efffeffff": 3805,
      "cbbbbcbb": 3806,
      "gghghghghgh": 3807,
      "gffgfff": 3808,
      "ecaaaab": 3809,
      "hhhhff": 3810,
      "cccbbcdd": 3811,
      "ccedbb": 3812,
      "cdcdbb": 3813,
      "ggggeef": 3814,
      "gghhhhhhhgf": 3815,
      "cccdccbb": 3816,
      "ccdbbbb": 3817,
      "gbab": 3818,
      "ghhhghhhhh": 3819,
      "eeeededed": 3820,
      "eeeccb": 3821,
      "eddeeedd": 3822,
      "gehd": 3823,
      "gcaab": 3824,
      "hhgfff": 3825,
      "ghhhhhhhhhhf": 3826,
      "cdeeeef": 3827,
      "gbd": 3828,
      "ghghfh": 3829,
      "cbbbbcbbb": 3830,
      "edfegf": 3831,
      "ddfggf": 3832,
      "ggedcd": 3833,
      "gghgfef": 3834,
      "ccbbbcbbb": 3835,
      "efffeeed": 3836,
      "ccddcbbb": 3837,
      "degggf": 3838,
      "cbaaaaaaaaaaaaaaaaaaaaaaaaaaaaaaaa": 3839,
      "cdddcbbb": 3840,
      "eeddddef": 3841,
      "bbbbbbbbbbbbbbbbbbbbb": 3842,
      "eghhhhh": 3843,
      "dcdcdd": 3844,
      "hhhhhhhhhhhhhhhhhhhhhhhhhhhhhh": 3845,
      "efffggff": 3846,
      "gegefef": 3847,
      "cdcdbd": 3848,
      "aaaaaababb": 3849,
      "cbaaabbbb": 3850,
      "ccbbbbbab": 3851,
      "eceddd": 3852,
      "ghgggfff": 3853,
      "efffeddd": 3854,
      "eddddff": 3855,
      "gdfef": 3856,
      "gghfff": 3857,
      "gfgfed": 3858,
      "gffefef": 3859,
      "ebed": 3860,
      "eeddeedd": 3861,
      "ceggff": 3862,
      "cceeddd": 3863,
      "ccdecb": 3864,
      "ccbbabbbb": 3865,
      "ddfef": 3866,
      "cbbcbbbbb": 3867,
      "ccdccccb": 3868,
      "cccbbcd": 3869,
      "ggeeee": 3870,
      "cccbcccccccc": 3871,
      "cbbbbaabb": 3872,
      "dbcef": 3873,
      "gfgfef": 3874,
      "fffffef": 3875,
      "cgbhb": 3876,
      "edededededededededededededededed": 3877,
      "eddcccc": 3878,
      "deccb": 3879,
      "ccddddf": 3880,
      "ehhhhh": 3881,
      "ghhhhg": 3882,
      "cbbccccb": 3883,
      "cccbaabb": 3884,
      "cdbdd": 3885,
      "aaabbbabb": 3886,
      "hfhghf": 3887,
      "cebbb": 3888,
      "ghhhggghh": 3889,
      "ggghgggg": 3890,
      "ghhhhgghh": 3891,
      "dfecb": 3892,
      "cccbbbab": 3893,
      "ggeeeff": 3894,
      "ead": 3895,
      "ggggggggggggfff": 3896,
      "ghhhhgfff": 3897,
      "ggghff": 3898,
      "cbbbbcb": 3899,
      "ccdc": 3900,
      "dbca": 3901,
      "cbad": 3902,
      "ddccbbb": 3903,
      "cbdbbb": 3904,
      "ccdddbb": 3905,
      "dfefef": 3906,
      "geffe": 3907,
      "dbaaaa": 3908,
      "hhhfe": 3909,
      "fgd": 3910,
      "hfhfhe": 3911,
      "ghhgeef": 3912,
      "ghghhhhhhhhhhhh": 3913,
      "gfgfgffff": 3914,
      "eeeeddef": 3915,
      "eeeedff": 3916,
      "ccgf": 3917,
      "gggfeeef": 3918,
      "aaaaaabaaab": 3919,
      "cbcbcbcbbbb": 3920,
      "aaaaaaaaaaaaaaaaaaaaaaaaaaaaaaaaaaaaaaaaaaaaaaaaaaaaaaaaaaaaaaaaaaaaaaaaaaaaaaaaaaaaaaaa": 3921,
      "gghfgf": 3922,
      "cdcedd": 3923,
      "eegfff": 3924,
      "ddcef": 3925,
      "cbbbaa": 3926,
      "gchc": 3927,
      "gfefggf": 3928,
      "cbabab": 3929,
      "ccbbccbbb": 3930,
      "cfbfbfb": 3931,
      "ggedcb": 3932,
      "gghggghhh": 3933,
      "efgfeef": 3934,
      "cbaaaaaaabb": 3935,
      "ccdeeee": 3936,
      "eeeddcdd": 3937,
      "ggghgggggggg": 3938,
      "efedbb": 3939,
      "ghhhhhhhhhhhhhhhhhhhhhhhhhhhhhhhhhhhhh": 3940,
      "hhhhhhhhhhhhhhhhhhhhhhhhhhhhhhhhhhhhh": 3941,
      "ahaha": 3942,
      "eeeddff": 3943,
      "aabcd": 3944,
      "aaaaaaaaaaaaaaaaaaaaaaaaaaaaaaaaaaab": 3945,
      "fafafafa": 3946,
      "gcff": 3947,
      "eeffeedd": 3948,
      "ceefed": 3949,
      "ccccccccbbbb": 3950,
      "efdbbb": 3951,
      "efegef": 3952,
      "hhgfd": 3953,
      "efdedd": 3954,
      "ddegf": 3955,
      "gghhggggf": 3956,
      "ghgggggff": 3957,
      "gggffeedd": 3958,
      "gggfffggf": 3959,
      "ecbbbbb": 3960,
      "fffedd": 3961,
      "dfgd": 3962,
      "eefddd": 3963,
      "hfhehe": 3964,
      "cbaaaaaaa": 3965,
      "eecddd": 3966,
      "edddeeef": 3967,
      "ggfdbbb": 3968,
      "fgff": 3969,
      "cbbbabbbb": 3970,
      "efefefefef": 3971,
      "cfce": 3972,
      "aaaaaaaaaaaaaaaaa": 3973,
      "fhhhh": 3974,
      "ccccdddddddd": 3975,
      "aabba": 3976,
      "aaaabbbbbbbbb": 3977,
      "ggfffeff": 3978,
      "cddddedd": 3979,
      "ggedff": 3980,
      "abababababababab": 3981,
      "cececed": 3982,
      "cegge": 3983,
      "cccceff": 3984,
      "gggfgggff": 3985,
      "cefdbb": 3986,
      "ccccdcccd": 3987,
      "aaaaaaaaaaaaaaaaaabbb": 3988,
      "ghgggghh": 3989,
      "fec": 3990,
      "cccbaaaab": 3991,
      "gaa": 3992,
      "gggecbb": 3993,
      "ccbcded": 3994,
      "gggghhf": 3995,
      "gfgfgef": 3996,
      "eddddcd": 3997,
      "aaaaaaaaaaaabab": 3998,
      "eeeeeeefffff": 3999,
      "eecfb": 4000,
      "ghhhgfed": 4001,
      "ggdef": 4002,
      "cbbccddd": 4003,
      "gghfe": 4004,
      "deee": 4005,
      "ccceb": 4006,
      "edbabb": 4007,
      "cddfef": 4008,
      "dfeed": 4009,
      "gfeed": 4010,
      "ggggffggf": 4011,
      "cbbbbccbb": 4012,
      "ggggfeed": 4013,
      "gfdeff": 4014,
      "ccfggf": 4015,
      "dfggff": 4016,
      "eedddded": 4017,
      "gebaab": 4018,
      "cbcccccb": 4019,
      "gdc": 4020,
      "ccdffff": 4021,
      "eeeddeff": 4022,
      "cababbbb": 4023,
      "aacdd": 4024,
      "gfffeed": 4025,
      "ghhhhhggff": 4026,
      "fffeed": 4027,
      "efeb": 4028,
      "efggfed": 4029,
      "aaaabbbab": 4030,
      "effffedd": 4031,
      "ghed": 4032,
      "eeeffedd": 4033,
      "cdfhhh": 4034,
      "cbdcdb": 4035,
      "ddeddd": 4036,
      "decdcd": 4037,
      "cccddbb": 4038,
      "gcgcgd": 4039,
      "eeffefff": 4040,
      "gbgd": 4041,
      "cdcbabb": 4042,
      "egee": 4043,
      "ccdeeddd": 4044,
      "cdcab": 4045,
      "cdfh": 4046,
      "gggghggff": 4047,
      "ghgedf": 4048,
      "fcedd": 4049,
      "aaabbaaaab": 4050,
      "gggggfgggf": 4051,
      "ccfb": 4052,
      "ggghhhhhhhhhhhhhhhhhhhh": 4053,
      "eccef": 4054,
      "gggede": 4055,
      "dfeb": 4056,
      "cdggf": 4057,
      "ccddeedd": 4058,
      "ghhhgef": 4059,
      "eefgggff": 4060,
      "ghggghhhh": 4061,
      "cbbcdddd": 4062,
      "ccccddef": 4063,
      "ceefef": 4064,
      "eghhf": 4065,
      "ccccbaab": 4066,
      "ddeeef": 4067,
      "eeh": 4068,
      "ccceddd": 4069,
      "fdff": 4070,
      "cccddeff": 4071,
      "ecdccd": 4072,
      "cdbabb": 4073,
      "ggedbb": 4074,
      "eeeeeeffffff": 4075,
      "eeeeeeeeeeed": 4076,
      "ggggggghhhhhhhh": 4077,
      "abbbabbbb": 4078,
      "ggeefff": 4079,
      "ccbf": 4080,
      "dcaaa": 4081,
      "cccddded": 4082,
      "edfeed": 4083,
      "hch": 4084,
      "hhhhhhhhhhhhhhhhhhhhhhhhh": 4085,
      "gefefef": 4086,
      "gggggggggghhh": 4087,
      "ccaaaa": 4088,
      "ccaaaaab": 4089,
      "ccdedb": 4090,
      "gffffeef": 4091,
      "ecbcdd": 4092,
      "cbbbbbcdd": 4093,
      "aaaaaaaaaaaaaaaaaaaaaaaaaaaaaaaaab": 4094,
      "eeeedeff": 4095,
      "cdcba": 4096,
      "aaced": 4097,
      "ghggd": 4098,
      "ccfed": 4099,
      "eeced": 4100,
      "eeedddef": 4101,
      "cbdcdd": 4102,
      "ggfffeef": 4103,
      "dddcbb": 4104,
      "cdcdcdb": 4105,
      "ghhhhhff": 4106,
      "ahahahahahahahahahahahahahahahah": 4107,
      "ccbaaaaaaab": 4108,
      "gghggggggf": 4109,
      "cdddccbb": 4110,
      "eaeb": 4111,
      "dcbbbb": 4112,
      "gggghhhgf": 4113,
      "gegegef": 4114,
      "eccdb": 4115,
      "cccdccdd": 4116,
      "ghhhhhgggf": 4117,
      "efgfdd": 4118,
      "ghhhhhhhgff": 4119,
      "gggggggffffff": 4120,
      "ghhhhhhhhhgh": 4121,
      "cbbbc": 4122,
      "aaaabbaaab": 4123,
      "ccbbbcbb": 4124,
      "ccbbbbaab": 4125,
      "cfgggf": 4126,
      "eeddccbb": 4127,
      "effefef": 4128,
      "cccccccddddd": 4129,
      "cbcbdbdb": 4130,
      "cfeb": 4131,
      "ggffeeef": 4132,
      "cccaaab": 4133,
      "aaaaaaaaaaaaaaaaaaaaaaaabb": 4134,
      "gbfcee": 4135,
      "ggggghhhhhhhhhhh": 4136,
      "cdcccccd": 4137,
      "eedddeed": 4138,
      "cceeb": 4139,
      "hhgee": 4140,
      "fafafa": 4141,
      "ccbced": 4142,
      "eeffeddd": 4143,
      "ggggggggggghh": 4144,
      "gfgfgfgff": 4145,
      "hhhhhggf": 4146,
      "gggfffgff": 4147,
      "hfge": 4148,
      "gfggggfff": 4149,
      "gggffdd": 4150,
      "cefeef": 4151,
      "eeeffffffffff": 4152,
      "cdddeeed": 4153,
      "aaabbaabb": 4154,
      "ggffffffffff": 4155,
      "geeded": 4156,
      "hhhhhhhhhhhhhhhhhhhhhhhhhhhhhhhhhhhhhh": 4157,
      "gggggfeef": 4158,
      "ebebebeb": 4159,
      "cceecb": 4160,
      "dbccd": 4161,
      "cdcee": 4162,
      "gggecd": 4163,
      "ebbab": 4164,
      "hha": 4165,
      "hhhhhhhhhhhhhhhhhhhhhhhhhhhhhhhhhhhh": 4166,
      "cdedbbb": 4167,
      "cgbgbhbhb": 4168,
      "gdfeefd": 4169,
      "acabab": 4170,
      "eeeeeeeeedd": 4171,
      "cccccddddddd": 4172,
      "gahaga": 4173,
      "hhhd": 4174,
      "ghhhhgghhh": 4175,
      "hhggff": 4176,
      "ddec": 4177,
      "cdcdced": 4178,
      "gghhhhhhhhhhhhhhhhhhhhhhhhhhhhhhhhhhhhhhhhhhhhhhhhhhhhhhhh": 4179,
      "aaaabaaaab": 4180,
      "ccbbbbbbbbbbbbbbb": 4181,
      "aade": 4182,
      "gggggffed": 4183,
      "bbc": 4184,
      "gedeff": 4185,
      "eefde": 4186,
      "gghhgggh": 4187,
      "dadaca": 4188,
      "eccddd": 4189,
      "ghhgge": 4190,
      "ghhhghhhhhh": 4191,
      "aaaaabbab": 4192,
      "eeecccd": 4193,
      "geddff": 4194,
      "gahahahahb": 4195,
      "gggdf": 4196,
      "cdcdccb": 4197,
      "cbbbbbcd": 4198,
      "hhgh": 4199,
      "eddeffff": 4200,
      "eccccd": 4201,
      "aadd": 4202,
      "eecbbbb": 4203,
      "ccdcccccccc": 4204,
      "efdedf": 4205,
      "deedd": 4206,
      "cbbca": 4207,
      "cddbaab": 4208,
      "cbbcff": 4209,
      "cceedb": 4210,
      "ghhggggff": 4211,
      "cdcdcccd": 4212,
      "dcabb": 4213,
      "eeeffeff": 4214,
      "gghhhhhhggf": 4215,
      "ccbbbaaab": 4216,
      "bbde": 4217,
      "efedff": 4218,
      "ghgggggggf": 4219,
      "hgdb": 4220,
      "gdhchc": 4221,
      "hfggf": 4222,
      "cfceb": 4223,
      "cccfff": 4224,
      "cbbbbbbabb": 4225,
      "hhgfe": 4226,
      "aaaaaaaaaabbbbbb": 4227,
      "cfegf": 4228,
      "cdbf": 4229,
      "hfhfhfhf": 4230,
      "deeff": 4231,
      "ggghghghgh": 4232,
      "gbeb": 4233,
      "edfgff": 4234,
      "ccedddd": 4235,
      "efgfd": 4236,
      "cbbaaaaaaaab": 4237,
      "cbcced": 4238,
      "ccbbbdd": 4239,
      "dced": 4240,
      "eedfc": 4241,
      "dbcdd": 4242,
      "ccbbbccdd": 4243,
      "aaaaaaaaabab": 4244,
      "ghggfd": 4245,
      "aaaaaaaaaaaabbbbb": 4246,
      "ccdbab": 4247,
      "eaab": 4248,
      "ghghgf": 4249,
      "ecbcef": 4250,
      "efefefff": 4251,
      "eeeedded": 4252,
      "ghhhgghhhh": 4253,
      "cbbceff": 4254,
      "gggggggggggffff": 4255,
      "effffffffffffffffffff": 4256,
      "edecece": 4257,
      "caaaaaaaaab": 4258,
      "ebce": 4259,
      "edefggf": 4260,
      "bdb": 4261,
      "cbee": 4262,
      "cdcdccd": 4263,
      "cdcccddd": 4264,
      "cddce": 4265,
      "fffffffffffff": 4266,
      "ddddded": 4267,
      "cfg": 4268,
      "cbbbcccc": 4269,
      "hgfef": 4270,
      "gdhd": 4271,
      "hcgcf": 4272,
      "eccce": 4273,
      "ddddff": 4274,
      "gegfgff": 4275,
      "cccccccccddd": 4276,
      "hhhhhhhhhhhhhhhhhhhhhhhhhhhhhhhhhhhhhhh": 4277,
      "ebca": 4278,
      "baaaab": 4279,
      "ggggggfffffff": 4280,
      "cbbcdb": 4281,
      "ccddcddd": 4282,
      "eeeeeeeddddd": 4283,
      "eeddeeff": 4284,
      "cdcbcb": 4285,
      "cbcabb": 4286,
      "cddedddd": 4287,
      "dfhhhh": 4288,
      "eddccccd": 4289,
      "eedecd": 4290,
      "eeefeeff": 4291,
      "deddd": 4292,
      "ccbcccbbb": 4293,
      "cdcdcdddd": 4294,
      "aaaaaaaaaaaaaaaaaaaaaaaaaaaaaaaaaaaaaaaab": 4295,
      "aaaaabaaaab": 4296,
      "cgbhahahb": 4297,
      "edeced": 4298,
      "gggghhggf": 4299,
      "cbff": 4300,
      "gggedb": 4301,
      "cdccbcb": 4302,
      "gfgffff": 4303,
      "efegf": 4304,
      "ecedf": 4305,
      "efdeded": 4306,
      "ccccbcdd": 4307,
      "ddcccb": 4308,
      "efggggf": 4309,
      "ddfb": 4310,
      "cfhhf": 4311,
      "gffddd": 4312,
      "gggghghf": 4313,
      "ccccee": 4314,
      "cbbccbbbb": 4315,
      "caabbbb": 4316,
      "geba": 4317,
      "dbaaabb": 4318,
      "cdccc": 4319,
      "bbbccd": 4320,
      "cdddddf": 4321,
      "gahahagbfcedd": 4322,
      "caaaaaabb": 4323,
      "gbgcfdeedf": 4324,
      "ghhhhhhhhhhhhhhhhhhhhhhhhhhhhhhhhhhhhhh": 4325,
      "ebaabb": 4326,
      "ccefef": 4327,
      "gggfggh": 4328,
      "aaabdf": 4329,
      "gbgbfb": 4330,
      "ececed": 4331,
      "gfdf": 4332,
      "bbbbbbbbbbbbbbbbbbbbbb": 4333,
      "abbcbbb": 4334,
      "gggfeddd": 4335,
      "aaaaaba": 4336,
      "ghhgdd": 4337,
      "gcaa": 4338,
      "eddcbbbb": 4339,
      "gggggggggfffff": 4340,
      "ghgfee": 4341,
      "aaaaaaaaaaaaaaaaaaaaaaaaaaaaaaaaaaaaaaaaaaaaaaaaaaaaaaaaaaaaaaaaaaaaaaaaaaaaaaaaaaaaaaaaaaaaaaaaaaaaaaaaaaaaaaaaaaaaaaaaaaaaaaaaaaaaaaaaaaaaaaaaaaaaaaaaaaaaaaaaaaaaaaaaaaaaaaaaaaaaaaaaaaaaaaaaaaaaaaaaaaaaaaaaaaaaaaaaaaaaaaaa": 4342,
      "ecccef": 4343,
      "ghhgfgf": 4344,
      "dbdcd": 4345,
      "gggde": 4346,
      "cdcdff": 4347,
      "ggggghhgf": 4348,
      "gghhgd": 4349,
      "dedeed": 4350,
      "gebd": 4351,
      "eeddccdd": 4352,
      "caf": 4353,
      "gfdcdf": 4354,
      "cbbcccbbb": 4355,
      "edcbaab": 4356,
      "ghgeff": 4357,
      "ggdc": 4358,
      "gddgb": 4359,
      "eeeeeeeeeff": 4360,
      "ccffd": 4361,
      "abaabb": 4362,
      "gghgfed": 4363,
      "aaabbbbbbbbbbb": 4364,
      "ggffggggf": 4365,
      "cbcbdcd": 4366,
      "ccbbbccbb": 4367,
      "aaabbbaaab": 4368,
      "cbcbbbbbbbbbb": 4369,
      "hhhhhhhhhhhhhhhhhhhhhhhhhhhhhhhhhh": 4370,
      "ghhhgggff": 4371,
      "gggggged": 4372,
      "cecdcdd": 4373,
      "cbbbcdef": 4374,
      "gfgfgfgggg": 4375,
      "eeeefgff": 4376,
      "cbbbbbbbbbbbbbbbbb": 4377,
      "ghhhggfff": 4378,
      "cedbab": 4379,
      "cbaaaaaaaaaab": 4380,
      "hhhgh": 4381,
      "ccccdeef": 4382,
      "hghhhhhh": 4383,
      "eecef": 4384,
      "eeeeecd": 4385,
      "cbcbcbcccc": 4386,
      "cccddcdd": 4387,
      "gghhgghhh": 4388,
      "ggffffed": 4389,
      "cdcbbbbbb": 4390,
      "gfffedd": 4391,
      "gfdccd": 4392,
      "gggeddd": 4393,
      "ddefd": 4394,
      "ccbcde": 4395,
      "eeefeeed": 4396,
      "eddfed": 4397,
      "ceghhhh": 4398,
      "gghghghf": 4399,
      "ccbbcef": 4400,
      "ggggffeff": 4401,
      "gghhhhhgff": 4402,
      "eccdff": 4403,
      "cbbaabbbb": 4404,
      "aaaaaabbbbbbbb": 4405,
      "ddgf": 4406,
      "ggffeeff": 4407,
      "aaaaaaaaaaaaaaaaaaaaaaaaaaaaaaaaaaaaaaaaaaaaaaaaaaaaaaaaaaaaaaaaaaaaaaaaaaaaaaaaaaaaaaaaaaaa": 4408,
      "dbbaab": 4409,
      "aaaaaaaaaaaaaaaaabbb": 4410,
      "geefgf": 4411,
      "cbcedd": 4412,
      "eeddfff": 4413,
      "eeeeeeeedddd": 4414,
      "eaeada": 4415,
      "ccddefff": 4416,
      "ggghhhhhgf": 4417,
      "ceeeedd": 4418,
      "gedbbb": 4419,
      "cccbcccbb": 4420,
      "ccdccddd": 4421,
      "gggghgggf": 4422,
      "ggghhhgff": 4423,
      "cceeeed": 4424,
      "eeeddddddddd": 4425,
      "ghhhfff": 4426,
      "eeefeffff": 4427,
      "cccbaa": 4428,
      "aaaaaaaaaaaaaaaaaaaabbb": 4429,
      "ceghgf": 4430,
      "eeefffgf": 4431,
      "eggfff": 4432,
      "ccccccccccccb": 4433,
      "eecdb": 4434,
      "cddcccc": 4435,
      "cccbcddd": 4436,
      "cdfedd": 4437,
      "efeccd": 4438,
      "ghhhhghhhh": 4439,
      "debbb": 4440,
      "aaaaaaaabbbbbbb": 4441,
      "ccbbaaaaab": 4442,
      "cbddb": 4443,
      "efeeff": 4444,
      "cbcbbbbbbbbb": 4445,
      "gcgdgd": 4446,
      "cddfed": 4447,
      "ddced": 4448,
      "aaaaaad": 4449,
      "ggggggfgff": 4450,
      "cccdeeff": 4451,
      "ccddfff": 4452,
      "efecbb": 4453,
      "eeedbbb": 4454,
      "eedfgf": 4455,
      "eeeddeef": 4456,
      "eddddeed": 4457,
      "eeeeeddddddd": 4458,
      "dfedd": 4459,
      "acdd": 4460,
      "ffffggf": 4461,
      "ceghf": 4462,
      "cccbbaaab": 4463,
      "ebfa": 4464,
      "dcddd": 4465,
      "cccddeed": 4466,
      "hehehfh": 4467,
      "dfdbb": 4468,
      "ggggggggffffff": 4469,
      "cbbbccccd": 4470,
      "ggghhhhhhhhhhhhhhhhhhh": 4471,
      "cccbccccd": 4472,
      "edededededed": 4473,
      "cbbbbabbbb": 4474,
      "fffffed": 4475,
      "cefge": 4476,
      "aaaaaaaaaaaaaaaaaaaaaaaaabb": 4477,
      "ddcccc": 4478,
      "dbcbd": 4479,
      "efgfee": 4480,
      "edddeded": 4481,
      "edcdeff": 4482,
      "baaa": 4483,
      "ghhhhhhhhhhhhhhhhhhhhhhhhhhhhhhhhhhhh": 4484,
      "eeeddeed": 4485,
      "gghhhge": 4486,
      "dcdcd": 4487,
      "ggggggef": 4488,
      "cbbbaaaaab": 4489,
      "dehh": 4490,
      "effffffef": 4491,
      "efffddd": 4492,
      "gffffgggf": 4493,
      "ggggeff": 4494,
      "cdeffed": 4495,
      "ggfffgfff": 4496,
      "eeeefeef": 4497,
      "cfdeed": 4498,
      "cbcccddd": 4499,
      "egfee": 4500,
      "eeeffeed": 4501,
      "edddcddd": 4502,
      "aaaaaaaaaaaaaaaaaaaaaaaaaaaaaaaaaaaaaaaaaab": 4503,
      "haga": 4504,
      "aaaaaaaaaaaaaaaaaaaaaaaaaaaaaaaaaaaaaaaaaaaab": 4505,
      "geegf": 4506,
      "ghhhhhhhhhhhhhhhhhhhhhhhhhhhhhhhhh": 4507,
      "ghhhhhhhhhhhhhhhhhhhhhhhhhhhhhhhhhhhhhhhhhhhh": 4508,
      "chf": 4509,
      "cbbbbccdd": 4510,
      "eeeffgggf": 4511,
      "gffffffgf": 4512,
      "cddddcdd": 4513,
      "aaaaabbbbbbbbb": 4514,
      "cabaaab": 4515,
      "efgfe": 4516,
      "ghggggfff": 4517,
      "cdccbbbbb": 4518,
      "edddccb": 4519,
      "cgff": 4520,
      "ccdedcb": 4521,
      "degg": 4522,
      "cdeedb": 4523,
      "eeeeeeeeeeee": 4524,
      "dfdgd": 4525,
      "ghhgedd": 4526,
      "eefffe": 4527,
      "gggggffgf": 4528,
      "cfeff": 4529,
      "cbbe": 4530,
      "eefffdd": 4531,
      "ccaba": 4532,
      "cbccbbbbb": 4533,
      "cbaabbbbb": 4534,
      "cddddff": 4535,
      "aea": 4536,
      "gchd": 4537,
      "cbbbbbaaab": 4538,
      "abdd": 4539,
      "eefeee": 4540,
      "ddeggf": 4541,
      "gghgef": 4542,
      "cbcccbcb": 4543,
      "eeedccdd": 4544,
      "cdcccbbb": 4545,
      "eefgg": 4546,
      "cbbbbccb": 4547,
      "aaaaaaaaaaaaaaaaaaaaaaaaaaaaaaaaaaaaaab": 4548,
      "effffe": 4549,
      "abaaabb": 4550,
      "edece": 4551,
      "ggggfffgf": 4552,
      "ceeeeff": 4553,
      "cdegff": 4554,
      "cghhh": 4555,
      "cdfggff": 4556,
      "gagbgbf": 4557,
      "cedddddd": 4558,
      "gfgfggggf": 4559,
      "cccbbbbbbbbbbbbb": 4560,
      "dffef": 4561,
      "effffgggf": 4562,
      "ghhhhhhhhhhgf": 4563,
      "ebece": 4564,
      "ccccdee": 4565,
      "gggedef": 4566,
      "dbaaaaaab": 4567,
      "eeffggggf": 4568,
      "egfggf": 4569,
      "cabaaaaaab": 4570,
      "dddfd": 4571,
      "cccdcbbb": 4572,
      "gefefff": 4573,
      "edddde": 4574,
      "ccdeeeed": 4575,
      "cddddeed": 4576,
      "ccdcccbb": 4577,
      "gfffggggf": 4578,
      "fbd": 4579,
      "eceee": 4580,
      "ceddedf": 4581,
      "ghef": 4582,
      "abbbaaaab": 4583,
      "eddfggf": 4584,
      "cbbbbdd": 4585,
      "ebdcd": 4586,
      "eeeeefe": 4587,
      "ggffgggff": 4588,
      "gfgggghh": 4589,
      "eeedeedd": 4590,
      "cccccdcdd": 4591,
      "acef": 4592,
      "gghggfgf": 4593,
      "ggghgghh": 4594,
      "cbababb": 4595,
      "ggggghhhhhhhhhhhh": 4596,
      "egfe": 4597,
      "ddbaa": 4598,
      "cdccccdd": 4599,
      "gghghgf": 4600,
      "eefffee": 4601,
      "hghff": 4602,
      "edddccdd": 4603,
      "ccbbbccb": 4604,
      "ggdbbb": 4605,
      "aabaaaab": 4606,
      "cdfecb": 4607,
      "hed": 4608,
      "effge": 4609,
      "eccdef": 4610,
      "cdefffff": 4611,
      "cbccef": 4612,
      "efggfef": 4613,
      "eedddcdd": 4614,
      "ghhhhhhhhhhhhhhhhhhhhhhhhhhhhhhhhhhhhhhhhhh": 4615,
      "cbbcbd": 4616,
      "hfgd": 4617,
      "gghhgfd": 4618,
      "effefd": 4619,
      "gfedbb": 4620,
      "gghghghgh": 4621,
      "cccdcccdd": 4622,
      "cccbcbbbbb": 4623,
      "edbaa": 4624,
      "haa": 4625,
      "hgdd": 4626,
      "cbcbcbdb": 4627,
      "eeeeeeeeeeef": 4628,
      "aaaaaaaaaaaaaaabbbb": 4629,
      "cecfdf": 4630,
      "geeffff": 4631,
      "cceffed": 4632,
      "cbccdf": 4633,
      "dddccb": 4634,
      "hhhged": 4635,
      "cfcgcgc": 4636,
      "gfffffffffffff": 4637,
      "abaa": 4638,
      "hhhhgd": 4639,
      "ccccccccccb": 4640,
      "gggggggghhhhhh": 4641,
      "eeedfff": 4642,
      "eeedefff": 4643,
      "dddddddddddddd": 4644,
      "cbcbca": 4645,
      "ghhhhhhhhhhhhhhhhhhhhhhhhhhhhhhhhhh": 4646,
      "ghhhhggggf": 4647,
      "aaaaaaaaaaaaaaaaaaaaaaaaaaaaaaaab": 4648,
      "cbbbbbbbab": 4649,
      "cdcaab": 4650,
      "gggfefff": 4651,
      "gfgfge": 4652,
      "hhhhhhhhhhhhhhhhhhhhhhhhhhhhhhhhhhhhhhhhhhhh": 4653,
      "gcee": 4654,
      "ghhe": 4655,
      "eddce": 4656,
      "aaabf": 4657,
      "ffdb": 4658,
      "cbcdee": 4659,
      "ddffff": 4660,
      "cfecb": 4661,
      "eeefgfff": 4662,
      "egfb": 4663,
      "cedcbb": 4664,
      "bbbbbd": 4665,
      "ggghhhhf": 4666,
      "eeddcccdd": 4667,
      "cefeed": 4668,
      "cabababb": 4669,
      "ggghghh": 4670,
      "cfged": 4671,
      "aabbabbb": 4672,
      "cdffgf": 4673,
      "ccdedddd": 4674,
      "ecgd": 4675,
      "eddefed": 4676,
      "eeeeffef": 4677,
      "cbcddb": 4678,
      "gbfceed": 4679,
      "hhe": 4680,
      "cddc": 4681,
      "cddecd": 4682,
      "ggfh": 4683,
      "cbcbbabb": 4684,
      "cdceb": 4685,
      "cbbbccccb": 4686,
      "cddfgf": 4687,
      "eeeefffffffff": 4688,
      "eeeeeeeeffff": 4689,
      "ccddccbb": 4690,
      "cccccbbbbbbbbb": 4691,
      "egfgef": 4692,
      "cbbcdbb": 4693,
      "gfdce": 4694,
      "cbbbaaa": 4695,
      "eeeeeedf": 4696,
      "eeddde": 4697,
      "cdcbaaab": 4698,
      "cdccccbb": 4699,
      "cbccbcb": 4700,
      "gggfgffff": 4701,
      "aaaaaaaaaaaaaaaaaaaaaaaaaaaaaaaaaaaaaaaaaaaaaab": 4702,
      "cdddcccdd": 4703,
      "cedded": 4704,
      "ccccddb": 4705,
      "eddccddd": 4706,
      "cbbbaabbb": 4707,
      "gghggffff": 4708,
      "cbbbbaaaab": 4709,
      "ceffef": 4710,
      "gecc": 4711,
      "efefeef": 4712,
      "ccbbcccbb": 4713,
      "gggggfe": 4714,
      "cccccccbbbbbb": 4715,
      "dbde": 4716,
      "cbbbbbbbbbbbbbbbbbb": 4717,
      "gggeedd": 4718,
      "effffgfff": 4719,
      "cbcbaab": 4720,
      "gggggfeff": 4721,
      "cffb": 4722,
      "ccbaaaaabb": 4723,
      "cccdeddd": 4724,
      "ghgfdd": 4725,
      "gcefbhahahahahahb": 4726,
      "cbaaaaabbb": 4727,
      "cedeedf": 4728,
      "cbbdcb": 4729,
      "eedccbbb": 4730,
      "cedccd": 4731,
      "ggfffggff": 4732,
      "hhhgggf": 4733,
      "cbbbccddd": 4734,
      "ggebbb": 4735,
      "ebecd": 4736,
      "cbbaaaaaabb": 4737,
      "ghhhgfef": 4738,
      "egfge": 4739,
      "ababbbbbbbbb": 4740,
      "febb": 4741,
      "eedccddd": 4742,
      "cdfgg": 4743,
      "eeddddded": 4744,
      "abad": 4745,
      "eeefffd": 4746,
      "cbbabbbbbb": 4747,
      "dbda": 4748,
      "ghhhhhhhhhhhhhhhhhhhhhhhhhhhhhhhhhhhhhhh": 4749,
      "cceddb": 4750,
      "gffde": 4751,
      "hhhhhhhhhhhhhhhhhhhhhhhhhhhhhhhhh": 4752,
      "aabbaaabb": 4753,
      "cefb": 4754,
      "eefffefff": 4755,
      "cebab": 4756,
      "gheb": 4757,
      "ffgggf": 4758,
      "cdbccd": 4759,
      "cbdde": 4760,
      "cbcbcbbbbb": 4761,
      "ade": 4762,
      "gggghgggh": 4763,
      "ddcccdd": 4764,
      "dddddf": 4765,
      "eeededf": 4766,
      "ghhhhhhghf": 4767,
      "hhhhhhhhhhhhhhhhhhhhhhhhhhhhhhhhhhhhhhhhhhhhhh": 4768,
      "egfeef": 4769,
      "ggfdef": 4770,
      "gghhhgghh": 4771,
      "gggdbb": 4772,
      "aaaaaaaaaaaaaaaaaaaaaaaaaaaaaaaaaab": 4773,
      "cfcgd": 4774,
      "ccbcbbbbbb": 4775,
      "geffef": 4776,
      "effh": 4777,
      "aaaaaaaaaaaaaaaaaaaaaaaaaaaaaaaaaaaaaaab": 4778,
      "ccccdedd": 4779,
      "ggghhhhhf": 4780,
      "ggfggggf": 4781,
      "cbbbdef": 4782,
      "gggghhhhhhhhhhhhhhhhhhhhhhhhhhhhhhhhhhhhhhhhhhhhhhhhhhhhhhhhhhhhhhhh": 4783,
      "gghghhhhhhhh": 4784,
      "fbab": 4785,
      "aaaaaaaaaaaaaaaaaaabbb": 4786,
      "gghghhhhhhh": 4787,
      "gggffefff": 4788,
      "ddecd": 4789,
      "gggghggggf": 4790,
      "ccdedbb": 4791,
      "ghgggggggggggg": 4792,
      "gggggghhhhhhhhh": 4793,
      "dbabd": 4794,
      "cdcce": 4795,
      "eeeedeeed": 4796,
      "ghhhghf": 4797,
      "ccbaaabbb": 4798,
      "hehfh": 4799,
      "ghgfeef": 4800,
      "ccbbaa": 4801,
      "ggggggfd": 4802,
      "ccdccbbbb": 4803,
      "gffeee": 4804,
      "gagagafb": 4805,
      "aaaace": 4806,
      "dfdfef": 4807,
      "ggggggggghhhh": 4808,
      "cddcdb": 4809,
      "gfdee": 4810,
      "hege": 4811,
      "effffefef": 4812,
      "eeeedeed": 4813,
      "ggggggffffffff": 4814,
      "hhhgghh": 4815,
      "abaaa": 4816,
      "effecb": 4817,
      "ggecbb": 4818,
      "edddeeedd": 4819,
      "effedf": 4820,
      "effffee": 4821,
      "aabbaaa": 4822,
      "aaaaaaaaaaaaaaaaaaaaaaaaaaabb": 4823,
      "gahbhb": 4824,
      "ddcdb": 4825,
      "eefffeedd": 4826,
      "gggggfgfff": 4827,
      "cbbbcccdd": 4828,
      "ceeeeed": 4829,
      "ceg": 4830,
      "cdccccccd": 4831,
      "eddddccd": 4832,
      "cdefe": 4833,
      "efgd": 4834,
      "ggghhhhhhhhhhhhhhhhhhhhhhhhhhhhhhhhhhhhhhhhhhhhhhhh": 4835,
      "ggggggfgfgf": 4836,
      "eeeefedd": 4837,
      "eeeefefff": 4838,
      "ghhhhhgd": 4839,
      "cececf": 4840,
      "edcdf": 4841,
      "aaaaaaaaaaaaaaaabbbb": 4842,
      "dcbaa": 4843,
      "geeefff": 4844,
      "ceffgf": 4845,
      "aaaaaaaaaaaaaaaaaaaaaaaaaaaaaaaaaaaab": 4846,
      "gbgbgbgb": 4847,
      "gggghhhhhhhhhhhhhhh": 4848,
      "ccedcd": 4849,
      "ccccdbb": 4850,
      "deccd": 4851,
      "geedff": 4852,
      "caaad": 4853,
      "ggghhhhhhhhhhhhhhhhhhhhh": 4854,
      "cfggff": 4855,
      "edededf": 4856,
      "efffffgff": 4857,
      "ggfeee": 4858,
      "eeffeeed": 4859,
      "hfhd": 4860,
      "edbaaaab": 4861,
      "cbccccccd": 4862,
      "hhhggff": 4863,
      "ccccdccb": 4864,
      "ceecbb": 4865,
      "cbaba": 4866,
      "egb": 4867,
      "ggecdf": 4868,
      "ggghhhhhhhhhhhhhhhhhhhhhh": 4869,
      "eeddcbb": 4870,
      "eeefggggf": 4871,
      "gegegegf": 4872,
      "cdcddddddd": 4873,
      "eccff": 4874,
      "gfhgh": 4875,
      "aaaaaaabd": 4876,
      "cccedf": 4877,
      "ccccccccccddd": 4878,
      "cccbbccd": 4879,
      "edecdd": 4880,
      "ecbbab": 4881,
      "cdefee": 4882,
      "gdgdgdgd": 4883,
      "edfhh": 4884,
      "gggfh": 4885,
      "abababbbbb": 4886,
      "ebebfb": 4887,
      "gggffffffffff": 4888,
      "cfffff": 4889,
      "eeffgggff": 4890,
      "dededdd": 4891,
      "ghhhhgh": 4892,
      "eefffffffffff": 4893,
      "chhh": 4894,
      "egdb": 4895,
      "cdefedd": 4896,
      "eebd": 4897,
      "hhhhhhhhhhhhhhhhhhhhhhhhhhhhhhhhhhhhhhhhhh": 4898,
      "cccbabbb": 4899,
      "ccebb": 4900,
      "gecf": 4901,
      "gghhged": 4902,
      "ecdeed": 4903,
      "edce": 4904,
      "dbcdf": 4905,
      "cedcd": 4906,
      "cccbccddd": 4907,
      "ggfdcb": 4908,
      "aaaaaaaaaaaaaaaaaaaaaaaaaaaaaaaaaaaaab": 4909,
      "gfffgggff": 4910,
      "hhhhfd": 4911,
      "ccddcccdd": 4912,
      "gghhhghhh": 4913,
      "gddef": 4914,
      "ghghhhhhhhhhhhhhhhhhhhhhhhhhhhhhhhhhhhhhhhhhhhhhhhhhhhhhhhhhhhhhhhh": 4915,
      "eeddeddd": 4916,
      "cccdcdb": 4917,
      "ddddddddddddddddd": 4918,
      "gfedeff": 4919,
      "gfgggggggf": 4920,
      "eedcccc": 4921,
      "edefff": 4922,
      "abbaabb": 4923,
      "ghghghhh": 4924,
      "cddccddd": 4925,
      "ggfeddd": 4926,
      "gghgffff": 4927,
      "ccccdcddd": 4928,
      "cddeeee": 4929,
      "eedeeee": 4930,
      "aaacef": 4931,
      "gghhhhhhhhgf": 4932,
      "eefggfff": 4933,
      "egffff": 4934,
      "cbcaca": 4935,
      "dbabbb": 4936,
      "ebfd": 4937,
      "eaca": 4938,
      "ehgf": 4939,
      "gggggffffffff": 4940,
      "eeedcbbb": 4941,
      "gghhg": 4942,
      "ghhhhhgfd": 4943,
      "ghhhhhhhhhhhhhhhhhhhhhhhhhhhhhhhhhhhhhhhhhhhhhh": 4944,
      "accd": 4945,
      "ghgdf": 4946,
      "faf": 4947,
      "gggggggggg": 4948,
      "hhhhhgff": 4949,
      "eecdcd": 4950,
      "cbdeff": 4951,
      "cccbbbbab": 4952,
      "gbhbhb": 4953,
      "efdcd": 4954,
      "defgff": 4955,
      "cbcbcbbbbbb": 4956,
      "ccbbcbbbb": 4957,
      "gggebb": 4958,
      "gdab": 4959,
      "ecbaabb": 4960,
      "cccdddef": 4961,
      "ghgghhhhh": 4962,
      "cbbaaaaa": 4963,
      "ghhhhghhhhh": 4964,
      "ghhhgee": 4965,
      "cedfff": 4966,
      "efdgd": 4967,
      "ecbaa": 4968,
      "cddedf": 4969,
      "effggfff": 4970,
      "hhhhhhhhf": 4971,
      "gggfddd": 4972,
      "cccddccd": 4973,
      "aababbb": 4974,
      "gbgcfd": 4975,
      "edfcgb": 4976,
      "bbbbbbbbbbbbbbbbbbbbbbb": 4977,
      "ehhhf": 4978,
      "cddcbbbbb": 4979,
      "eefgfd": 4980,
      "gghhhhggff": 4981,
      "aaaabbd": 4982,
      "ggggggggggggggff": 4983,
      "fagagagafb": 4984,
      "cdefgff": 4985,
      "abbbbbabb": 4986,
      "eeeddcd": 4987,
      "ggeccd": 4988,
      "gggggedd": 4989,
      "gfffgffff": 4990,
      "ccbabd": 4991,
      "cbdcdcd": 4992,
      "aabbbbbbbbbbbb": 4993,
      "ccccccccbbbbb": 4994,
      "hchbhbhb": 4995,
      "gggggghhhhhhhhhh": 4996,
      "eedbbbb": 4997,
      "ebaaaa": 4998,
      "gfecbb": 4999,
      "gfffffed": 5000,
      "ecced": 5001,
      "gghgggfff": 5002,
      "ddddddddddddddd": 5003,
      "gggggfedd": 5004,
      "cccccbbbbbbbbbb": 5005,
      "caaaabbb": 5006,
      "ebaaaaab": 5007,
      "ddcdcd": 5008,
      "ehd": 5009,
      "bbbf": 5010,
      "effde": 5011,
      "cbdccb": 5012,
      "edecdcd": 5013,
      "ccbbcf": 5014,
      "ghhhhhhge": 5015,
      "eeeefe": 5016,
      "bbba": 5017,
      "gggfeedd": 5018,
      "cbdce": 5019,
      "ccfef": 5020,
      "eefhh": 5021,
      "ggggfggff": 5022,
      "eeeefeeef": 5023,
      "gbfceedf": 5024,
      "aaaaaaaaaaaaaaaaaaaaabbb": 5025,
      "ghhhhgggh": 5026,
      "ggeffff": 5027,
      "fdee": 5028,
      "cccccccccccb": 5029,
      "gggggeef": 5030,
      "abaaaaab": 5031,
      "aaaaaabaab": 5032,
      "gcfcfd": 5033,
      "cbbceed": 5034,
      "ggggggggggghhh": 5035,
      "eefffeeef": 5036,
      "dccdd": 5037,
      "cebdbdb": 5038,
      "hchdhd": 5039,
      "hhhghhh": 5040,
      "aaaaaaaaaaaaaaaaaaaaaaaaaabb": 5041,
      "eeeeeffffffff": 5042,
      "cbcbcbcbb": 5043,
      "caaaaaaaaaab": 5044,
      "bbcef": 5045,
      "cfcfdf": 5046,
      "ghfed": 5047,
      "efffffeff": 5048,
      "hggd": 5049,
      "ggghhhhggf": 5050,
      "aaaaaaabbbbbbbb": 5051,
      "bbbaaab": 5052,
      "abacb": 5053,
      "eeeededdd": 5054,
      "ccddddded": 5055,
      "aaaaaaababb": 5056,
      "gbgbfcf": 5057,
      "dfged": 5058,
      "ghghghgggg": 5059,
      "edefgff": 5060,
      "ddddde": 5061,
      "cbdced": 5062,
      "ecccf": 5063,
      "cgef": 5064,
      "gghhhhhhhhhhhhhhhhhhhhhhhhhhhhhhhhhhhhhhhhhhhhhhhhhhhhhhhhhhhhhhhhhhhhhhhhhhhhhhhhhhhhhhhhhhhhhhhhhhhhhhhhhhhhhhhhhhhhhhhhhhhhhhhh": 5065,
      "gggggghggf": 5066,
      "ggefggf": 5067,
      "ccfge": 5068,
      "gddff": 5069,
      "cbbdee": 5070,
      "cccccdded": 5071,
      "gfggggf": 5072,
      "ecdfff": 5073,
      "cbdfff": 5074,
      "aaabaaabb": 5075,
      "edecdb": 5076,
      "eddced": 5077,
      "eedce": 5078,
      "cdfdb": 5079,
      "gghhhhhhhhhgf": 5080,
      "ccdcdcdd": 5081,
      "geedef": 5082,
      "gdddf": 5083,
      "eedcccb": 5084,
      "hhhgfd": 5085,
      "aaababab": 5086,
      "cddddeef": 5087,
      "cdegggf": 5088,
      "cfdgd": 5089,
      "ccccbabb": 5090,
      "ggggffgff": 5091,
      "ccccccdddddd": 5092,
      "eddcccb": 5093,
      "dfhf": 5094,
      "ggghhgggf": 5095,
      "ecfcfb": 5096,
      "eeedeeef": 5097,
      "ghhhhghh": 5098,
      "cdcdbdb": 5099,
      "cccccccdddddd": 5100,
      "ggggggggggfgf": 5101,
      "cababaab": 5102,
      "hggfff": 5103,
      "cace": 5104,
      "ccbbbcccd": 5105,
      "cbbbbbbd": 5106,
      "efefee": 5107,
      "efeee": 5108,
      "ececf": 5109,
      "hghgf": 5110,
      "ggfdbb": 5111,
      "ccbded": 5112,
      "gfffgfgf": 5113,
      "cdefdd": 5114,
      "eefffgggf": 5115,
      "ffffgff": 5116,
      "effdbb": 5117,
      "cbcbdd": 5118,
      "eafb": 5119,
      "ccbaabbbb": 5120,
      "gghgghhhh": 5121,
      "eefffeeff": 5122,
      "eeba": 5123,
      "cdfffff": 5124,
      "ccbdef": 5125,
      "gggghhgff": 5126,
      "ededededd": 5127,
      "cdedccd": 5128,
      "ggdff": 5129,
      "cbbbded": 5130,
      "gghgggggff": 5131,
      "aaaaaaaababb": 5132,
      "eeedcddd": 5133,
      "ecdced": 5134,
      "cffdb": 5135,
      "ccccccdb": 5136,
      "eddeeee": 5137,
      "aaaaaababababab": 5138,
      "ecgbhahaha": 5139,
      "eddefd": 5140,
      "eedeeeef": 5141,
      "ebfafa": 5142,
      "gegegfgf": 5143,
      "effffefff": 5144,
      "gggggggggfgf": 5145,
      "gdce": 5146,
      "ccdddcccd": 5147,
      "ecedde": 5148,
      "dcdee": 5149,
      "eebaab": 5150,
      "hghghgh": 5151,
      "ggggggggggfffff": 5152,
      "aaaabdf": 5153,
      "cbbcdcd": 5154,
      "aaaabbabb": 5155,
      "effggg": 5156,
      "ccbbaabbb": 5157,
      "effdcb": 5158,
      "gggffffef": 5159,
      "eddcdf": 5160,
      "cceeeef": 5161,
      "gghggef": 5162,
      "cdddcdcd": 5163,
      "eeededddd": 5164,
      "cccddddddddd": 5165,
      "ddcbab": 5166,
      "aaaaaaaaabbbbbbb": 5167,
      "ghhghhhhhh": 5168,
      "ccccbcbbb": 5169,
      "hfgfgf": 5170,
      "caaabbbb": 5171,
      "gggggghf": 5172,
      "aaabbaaabb": 5173,
      "ggece": 5174,
      "effffffgf": 5175,
      "gggffgfff": 5176,
      "abbbbd": 5177,
      "dfdfdfd": 5178,
      "ghhhggghhh": 5179,
      "ccccbcbb": 5180,
      "eeeeeeffffffff": 5181,
      "eeedeeedd": 5182,
      "cefgfd": 5183,
      "cbaaaaaaaabb": 5184,
      "cddccccd": 5185,
      "ccccccccccccccd": 5186,
      "gfgfgfgfgfgf": 5187,
      "eeeeeeefef": 5188,
      "cccdde": 5189,
      "cabacb": 5190,
      "cabbbbbb": 5191,
      "edddeee": 5192,
      "dege": 5193,
      "ghhhhhgfff": 5194,
      "ccceffff": 5195,
      "eddbd": 5196,
      "gggggggggfgggg": 5197,
      "cbbbdff": 5198,
      "aaaaaaaaaaaaaabbbbb": 5199,
      "eedddee": 5200,
      "cbbbbcddd": 5201,
      "gghhhggggf": 5202,
      "aaaaac": 5203,
      "cbbbbbbaab": 5204,
      "ggeedf": 5205,
      "aaaaaaaaaaabbbbbb": 5206,
      "eefeeeff": 5207,
      "eccded": 5208,
      "gggggeff": 5209,
      "ceddbb": 5210,
      "gggghhhf": 5211,
      "ccccbbbbbbbbbbb": 5212,
      "efffggggf": 5213,
      "cccbba": 5214,
      "eeeeedcb": 5215,
      "cccdeee": 5216,
      "gagagaga": 5217,
      "deded": 5218,
      "eedcef": 5219,
      "gghhhgggh": 5220,
      "eggfef": 5221,
      "gggfeee": 5222,
      "gchchb": 5223,
      "ecaaaaab": 5224,
      "abacacaca": 5225,
      "eedddeeff": 5226,
      "gghhhgfff": 5227,
      "cccaa": 5228,
      "efedeff": 5229,
      "effffggff": 5230,
      "eegef": 5231,
      "cdab": 5232,
      "cdeeffff": 5233,
      "hgc": 5234,
      "bbbba": 5235,
      "cecde": 5236,
      "gghhhgh": 5237,
      "gggefef": 5238,
      "cbcbccb": 5239,
      "ddbaaab": 5240,
      "ggghhhhhhhhhhhhhhhhhhhhhhh": 5241,
      "egged": 5242,
      "eeddcdcd": 5243,
      "cbdgf": 5244,
      "ccdddff": 5245,
      "ccbbbbccd": 5246,
      "cddcccbb": 5247,
      "ddddbb": 5248,
      "ccccbccdd": 5249,
      "efeddd": 5250,
      "ggggedd": 5251,
      "cddcbcd": 5252,
      "gggggfee": 5253,
      "gggffffgf": 5254,
      "gcgcgdf": 5255,
      "ccbcdddd": 5256,
      "deegf": 5257,
      "ccbbcb": 5258,
      "cdceef": 5259,
      "abbabbb": 5260,
      "eghge": 5261,
      "ccccdccd": 5262,
      "ggghhhhhhhhhhhhhhhhh": 5263,
      "ghhhhgfe": 5264,
      "efffgfgf": 5265,
      "efffeee": 5266,
      "cbbbbcccd": 5267,
      "ccbbaaa": 5268,
      "ccbbde": 5269,
      "ecbdd": 5270,
      "ccdddccd": 5271,
      "aabbbbbbbbbbbbb": 5272,
      "ghhhhhhhhhhhhhhhhhhhhhhhhhhhhhhhhhhhhhhhhhhhhhhhhhhhhhhhhhhhhhhhhhhhhhhhhhhhhhhhhhhhhhhhhhhhhhhhhhhhhhhhhhhhhhhhhhhhhhhhhhhhhhhhhhhhhhhhhhhhhhhhhhhhhhhhhhhhhhhhhhhhhhhhhhhhhhhhhhhhhhhhhhhhhhhhh": 5273,
      "ggedddd": 5274,
      "cdeedddd": 5275,
      "aaaaaaaaaaaaaaaaaaaaaaaaaaa": 5276,
      "effgef": 5277,
      "ghhggggggf": 5278,
      "ghhhhhhghghghgh": 5279,
      "dddcccd": 5280,
      "edddedddd": 5281,
      "efgfgff": 5282,
      "cbbabd": 5283,
      "ccffff": 5284,
      "eddede": 5285,
      "aaaaacf": 5286,
      "gfhghf": 5287,
      "gcgbhb": 5288,
      "cbcbcbcbcbcbcbcbcbcbcbcbcbcbcbcb": 5289,
      "cccccbbcd": 5290,
      "eeeeeddcd": 5291,
      "cdfeed": 5292,
      "gcfbf": 5293,
      "ebba": 5294,
      "geddb": 5295,
      "abbdd": 5296,
      "hchdhe": 5297,
      "gghhhhhhhhhhhhhhhhhhhhhhhhhhh": 5298,
      "daeafafa": 5299,
      "dddeeff": 5300,
      "ebabd": 5301,
      "ccbbbabbb": 5302,
      "cgcgbgb": 5303,
      "gghgggggggf": 5304,
      "ecdded": 5305,
      "eeeeeedddddd": 5306,
      "bbbce": 5307,
      "ggggggggghhhhh": 5308,
      "gggggggghhhhhhh": 5309,
      "gggggggghgh": 5310,
      "ggggggggghgggg": 5311,
      "efefggf": 5312,
      "ccbbbcccb": 5313,
      "cbdeed": 5314,
      "eefded": 5315,
      "ccbcdef": 5316,
      "eefeeddd": 5317,
      "ecdce": 5318,
      "ccbaaaaaaaab": 5319,
      "efdfff": 5320,
      "cabdf": 5321,
      "ccbcee": 5322,
      "aaaaaaabaab": 5323,
      "eeeedbb": 5324,
      "abbccd": 5325,
      "ecfff": 5326,
      "cddeefff": 5327,
      "eeghhh": 5328,
      "eegggff": 5329,
      "eddeded": 5330,
      "cedcb": 5331,
      "gghhhhhhhhhhhhhhhhhhhhhhhhhh": 5332,
      "ggeded": 5333,
      "egfgfff": 5334,
      "cgbhahahahb": 5335,
      "effeeeff": 5336,
      "effffeeef": 5337,
      "cdddeedd": 5338,
      "hfgff": 5339,
      "hhfef": 5340,
      "hcgdfeefd": 5341,
      "edbbbb": 5342,
      "ccccccbbbbbbbb": 5343,
      "eecccdd": 5344,
      "cbcbcccd": 5345,
      "gghhghhh": 5346,
      "ccefggf": 5347,
      "ggghhggff": 5348,
      "dddefff": 5349,
      "bbbbbbab": 5350,
      "hhhhhhhhhhhhhhhhhhhhhhhhhhhhhhhhhhhhhhhhhhh": 5351,
      "eefefe": 5352,
      "cdbaaa": 5353,
      "gegegdf": 5354,
      "cabbd": 5355,
      "cegfe": 5356,
      "eeffffgff": 5357,
      "eedbaab": 5358,
      "eghhhhhh": 5359,
      "aaabaaa": 5360,
      "cbabdf": 5361,
      "aaaaaaaaaaaaaaaaaaaaaabbb": 5362,
      "efefdd": 5363,
      "ggghghhhhh": 5364,
      "aaaaabbaab": 5365,
      "gggggggggggghh": 5366,
      "geedddd": 5367,
      "cdeffd": 5368,
      "ccfh": 5369,
      "ecfa": 5370,
      "ebgb": 5371,
      "ghhhhhhhhgff": 5372,
      "eeffffd": 5373,
      "dadadada": 5374,
      "edeee": 5375,
      "cbaaaaaaaaaaab": 5376,
      "cddcdf": 5377,
      "cbbbbcccb": 5378,
      "ccbccbbbb": 5379,
      "ggghgfff": 5380,
      "cccccf": 5381,
      "cbbbccbbbb": 5382,
      "eeefeddd": 5383,
      "gggfffgggf": 5384,
      "ggfedf": 5385,
      "egfdb": 5386,
      "eehh": 5387,
      "eaf": 5388,
      "hhhhhhhhhhhhhhhhhhhhhhhhhhhhhhhhhhhhhhhhhhhhh": 5389,
      "ccdffd": 5390,
      "cbbbcded": 5391,
      "ceddecfbgbgb": 5392,
      "cbbbbdf": 5393,
      "cddddeff": 5394,
      "ccddeee": 5395,
      "eeccbbb": 5396,
      "cccccccccd": 5397,
      "eddeeddd": 5398,
      "eeddbbb": 5399,
      "eeeedeeff": 5400,
      "cbcddddd": 5401,
      "eddffff": 5402,
      "ggghggfff": 5403,
      "efgfeff": 5404,
      "aaaaaaaaaaaaaaaaaaaaaaaaaaaaaaaaaaaaaaaaaaaaaaaaaaaaaaaaaaaaaaaaaaaaaaaaaaaaaaaaaaaaaaaaaaaaaaaaaaaaaaaaaaaaaaaaaaaaaaaaaaaaaaaaaaaaaaaaaaaaaaaaaaaaaaaaaaaaaaaaaaaaaaaaaaaaaaaa": 5405,
      "caacf": 5406,
      "cbbbbaaabb": 5407,
      "cbccccbbb": 5408,
      "ccccccdf": 5409,
      "cbbbcccbbb": 5410,
      "ghhghghf": 5411,
      "cccccccccccccd": 5412,
      "aaaabbaaaab": 5413,
      "dcdccd": 5414,
      "gffffgfgf": 5415,
      "ggggffeef": 5416,
      "gghhhhhhhf": 5417,
      "cabababab": 5418,
      "cdefgggf": 5419,
      "gfggggggff": 5420,
      "eefefeff": 5421,
      "abbaa": 5422,
      "ccbbbaabb": 5423,
      "cddccccb": 5424,
      "eedccccd": 5425,
      "edddcbb": 5426,
      "ccbbcdf": 5427,
      "gggffeeef": 5428,
      "dddddef": 5429,
      "ahaa": 5430,
      "ebde": 5431,
      "efefeffff": 5432,
      "ecbaaaaab": 5433,
      "eeeedccd": 5434,
      "hhhhhhhhhhhhhhhhhhhhhhhhhhhhhhhhhhhhhhhhhhhhhhhhhhhh": 5435,
      "gggfge": 5436,
      "aabbbaabb": 5437,
      "gegfh": 5438,
      "bbabbb": 5439,
      "gfggff": 5440,
      "ddefed": 5441,
      "abbaaaab": 5442,
      "ceeefff": 5443,
      "dcbcd": 5444,
      "eegfgf": 5445,
      "gfeeff": 5446,
      "dededf": 5447,
      "gedcd": 5448,
      "aaaabbbbbbbbbb": 5449,
      "hhhgfff": 5450,
      "ccddddef": 5451,
      "cbcbccdd": 5452,
      "hhhhhhhhhhhhhhhhhhhhhhhhhhhhhhhhhhhhhhhhhhhhhhh": 5453,
      "eefeeee": 5454,
      "ccdddeff": 5455,
      "bbbbbbbbbbbbbbbbbbbbbbbb": 5456,
      "cceeeff": 5457,
      "aaaaaaaaaaaaabbbbb": 5458,
      "dffe": 5459,
      "aaaaaaaaaaaaaaaaaaaaaaaaaa": 5460,
      "hhhgef": 5461,
      "gdbaab": 5462,
      "cdcdcdcdcdcd": 5463,
      "bdd": 5464,
      "ccccceff": 5465,
      "efffffggf": 5466,
      "ffeed": 5467,
      "ghhhhgfed": 5468,
      "efffeeeff": 5469,
      "hfef": 5470,
      "ggghge": 5471,
      "ccegg": 5472,
      "eeggggf": 5473,
      "gdcf": 5474,
      "eeedddded": 5475,
      "cbbbcde": 5476,
      "gghhfd": 5477,
      "dcdeff": 5478,
      "eeeeefeff": 5479,
      "ceefffff": 5480,
      "edecf": 5481,
      "defdf": 5482,
      "aaabbbbab": 5483,
      "bbbde": 5484,
      "effffeedd": 5485,
      "cbbbbbabbb": 5486,
      "ghfdd": 5487,
      "dcccb": 5488,
      "ghggghgh": 5489,
      "ghhgeb": 5490,
      "cefeb": 5491,
      "eedddeeed": 5492,
      "geeeeff": 5493,
      "edecd": 5494,
      "cdbdbd": 5495,
      "cccbbabbb": 5496,
      "ccccccccdcd": 5497,
      "cccdddded": 5498,
      "cbceef": 5499,
      "gffggggf": 5500,
      "cdddeeff": 5501,
      "ccceeef": 5502,
      "ghhhggggh": 5503,
      "cdefeed": 5504,
      "ccccbbabb": 5505,
      "bbaaaab": 5506,
      "ggfeedd": 5507,
      "ccdeefff": 5508,
      "ccbbced": 5509,
      "eeeddedd": 5510,
      "ghhhhghgh": 5511,
      "aaabaabb": 5512,
      "cccbbbbbbbbbbbbbb": 5513,
      "cbaad": 5514,
      "eeeeeffed": 5515,
      "eefge": 5516,
      "dbebeb": 5517,
      "eefgggg": 5518,
      "dddeeed": 5519,
      "ghhhhhged": 5520,
      "ccdefe": 5521,
      "ghhghhhhhhh": 5522,
      "gggffggggf": 5523,
      "eeeeededd": 5524,
      "aaaaaaba": 5525,
      "cdedff": 5526,
      "gcdfb": 5527,
      "cecc": 5528,
      "eeffgffff": 5529,
      "ddcbcd": 5530,
      "hhhhhge": 5531,
      "ggggfffffffff": 5532,
      "eeeeeeeeeedd": 5533,
      "ghhhhhhggff": 5534,
      "cddeeeed": 5535,
      "dffff": 5536,
      "hgeb": 5537,
      "ggghgg": 5538,
      "cccceed": 5539,
      "ggggggggggg": 5540,
      "edccbb": 5541,
      "aabbba": 5542,
      "eecbd": 5543,
      "cbbbbce": 5544,
      "gghhgggg": 5545,
      "eefggg": 5546,
      "gehgh": 5547,
      "cccdccbbb": 5548,
      "gdgef": 5549,
      "edegff": 5550,
      "ghgggghhh": 5551,
      "ggfddf": 5552,
      "ggggffeed": 5553,
      "eeeffffffffffff": 5554,
      "chd": 5555,
      "dcdf": 5556,
      "efdeff": 5557,
      "ccceeedd": 5558,
      "hggghh": 5559,
      "cdeeeedd": 5560,
      "eeeeeefffffff": 5561,
      "efdccd": 5562,
      "cdccdf": 5563,
      "ghgggggggggggggggg": 5564,
      "efgfedd": 5565,
      "gdba": 5566,
      "gghhhgghhh": 5567,
      "aaaaababbb": 5568,
      "gahahahagbf": 5569,
      "caaaaaaabb": 5570,
      "eeg": 5571,
      "cddceb": 5572,
      "ghffff": 5573,
      "aabaabb": 5574,
      "cbcdeff": 5575,
      "aaaaaaaabaaab": 5576,
      "ghhhhhhhhhhhgf": 5577,
      "eghhgf": 5578,
      "deggff": 5579,
      "gfdcef": 5580,
      "gfffffgff": 5581,
      "cgbgbgbgbgcf": 5582,
      "cdddcdddd": 5583,
      "ghghhhhhhhhhhhhhh": 5584,
      "cababa": 5585,
      "cfhgf": 5586,
      "cccddcccd": 5587,
      "ccegff": 5588,
      "gghggggggh": 5589,
      "eeffgfgf": 5590,
      "ccbbaaaabb": 5591,
      "gfdcbb": 5592,
      "fgg": 5593,
      "ghhhgggggf": 5594,
      "cbbbbcef": 5595,
      "gghhgggff": 5596,
      "eeeggff": 5597,
      "gghhggghh": 5598,
      "gghhhhhhhhhhhhhhhhhhhhhhhhhhhhh": 5599,
      "ghhhhghghghgh": 5600,
      "ccbbbbcdd": 5601,
      "ccccccccddddd": 5602,
      "ccbbbcbbbb": 5603,
      "gbfcfd": 5604,
      "caac": 5605,
      "hfhfhfhgh": 5606,
      "cdcbbcd": 5607,
      "ghhhhgg": 5608,
      "gcgcgc": 5609,
      "cbcbccccb": 5610,
      "cacab": 5611,
      "dedf": 5612,
      "eddcef": 5613,
      "gehfh": 5614,
      "ghhhhhghhh": 5615,
      "dbbdf": 5616,
      "aaaaaaaaaaaaaaaaaaaaaaaaaaaaabb": 5617,
      "ghghhhhhhhhh": 5618,
      "ghhed": 5619,
      "ggfffe": 5620,
      "ggggggfgggf": 5621,
      "gghhhhhhhhhhhhhhhhhhhhhhhhhhhh": 5622,
      "hcfd": 5623,
      "eeddeeef": 5624,
      "cdcece": 5625,
      "cdddccccd": 5626,
      "ghhhhhhff": 5627,
      "eededff": 5628,
      "eecbcd": 5629,
      "abbbaaabb": 5630,
      "cdeeeddd": 5631,
      "cbbcbdb": 5632,
      "eefegf": 5633,
      "ddcbd": 5634,
      "ccbcdcb": 5635,
      "cacd": 5636,
      "gfeggf": 5637,
      "gggggggggggggggh": 5638,
      "fhhf": 5639,
      "cdbba": 5640,
      "ccaaaaaab": 5641,
      "bbbbaaab": 5642,
      "ghhgggghh": 5643,
      "eeddccbbb": 5644,
      "cccdddf": 5645,
      "cdeccd": 5646,
      "fffgggf": 5647,
      "ceged": 5648,
      "cccdcdddd": 5649,
      "gffffeed": 5650,
      "cccbccbbb": 5651,
      "ededeed": 5652,
      "ecbcdf": 5653,
      "gggggggggggggfff": 5654,
      "eedfed": 5655,
      "aaaaaaaababab": 5656,
      "eeeffgfff": 5657,
      "cccedb": 5658,
      "gggggggggggggggggggggggggggggggggggggggggggggggg": 5659,
      "cfgh": 5660,
      "gdgb": 5661,
      "effgggggf": 5662,
      "ghhhhgggg": 5663,
      "cbcbcbccd": 5664,
      "hhhhhhhhhhhhhhhhhhhhhhhhhhhhhhhhhhhhhhhhhhhhhhhhhh": 5665,
      "cccccce": 5666,
      "dbcbbb": 5667,
      "deeef": 5668,
      "edeb": 5669,
      "dcbaaaab": 5670,
      "eefefdf": 5671,
      "cbbcdff": 5672,
      "ccbbddd": 5673,
      "gcfddecfb": 5674,
      "ceedbbb": 5675,
      "egghhh": 5676,
      "hggef": 5677,
      "bbccd": 5678,
      "eeeeeeeeeeeed": 5679,
      "abbbbaaab": 5680,
      "hhhhhhhhhf": 5681,
      "gggec": 5682,
      "cbbbbcdf": 5683,
      "cccbccccb": 5684,
      "aaaaaaaaaaaaaaaaaaaaaaaaa": 5685,
      "ddedb": 5686,
      "eeefffffffffff": 5687,
      "effffffed": 5688,
      "cdcdce": 5689,
      "ddefgf": 5690,
      "cbbbcbbbbbb": 5691,
      "cccceef": 5692,
      "eeeeeeeeeeedd": 5693,
      "cbbbbba": 5694,
      "edcbaaab": 5695,
      "eeedfdf": 5696,
      "eeeedcdd": 5697,
      "ggggggggggggffff": 5698,
      "gccb": 5699,
      "hghghf": 5700,
      "bbef": 5701,
      "ddecb": 5702,
      "ccddeeef": 5703,
      "gffffffffffffffffffff": 5704,
      "ceecb": 5705,
      "gfhghgh": 5706,
      "hhhhhhhhgf": 5707,
      "ggfgggff": 5708,
      "cbbbced": 5709,
      "ddbbbbb": 5710,
      "gghd": 5711,
      "efffeefff": 5712,
      "ededee": 5713,
      "ccbbbbbabb": 5714,
      "caaabd": 5715,
      "eddcdef": 5716,
      "aaaaaaaaaaaaaaaaaaaaaaaaaaaaaaaaaaaaaaaaab": 5717,
      "ccdddeed": 5718,
      "gdfdfd": 5719,
      "cffef": 5720,
      "eddedddd": 5721,
      "ddfhh": 5722,
      "ghgfeff": 5723,
      "cbbbbcbbbb": 5724,
      "gdfe": 5725,
      "cdbbabb": 5726,
      "ceffffff": 5727,
      "acada": 5728,
      "hbhbhbhb": 5729,
      "gcdd": 5730,
      "ccdddeef": 5731,
      "eeeffe": 5732,
      "cbbcccccccc": 5733,
      "gffeeed": 5734,
      "eeeefeedd": 5735,
      "aabbbd": 5736,
      "ggggffgggf": 5737,
      "ceefgf": 5738,
      "ccbcbcd": 5739,
      "ddeeee": 5740,
      "aabbbabbb": 5741,
      "dddeee": 5742,
      "gggggggggffffff": 5743,
      "dedfff": 5744,
      "gggghghhh": 5745,
      "gegfggf": 5746,
      "hhhhhhhhhhhhhhhhhhhhhhhhhhhhhhhhhhhhhhhhhhhhhhhhhhhhhh": 5747,
      "cdcccccb": 5748,
      "cbbaaabbbb": 5749,
      "dedccd": 5750,
      "eeeefee": 5751,
      "ddefe": 5752,
      "cbbaaaabbb": 5753,
      "cdddeddd": 5754,
      "ccbbaaaaaab": 5755,
      "aaabbaaa": 5756,
      "aacc": 5757,
      "cgcgb": 5758,
      "cgdgd": 5759,
      "feb": 5760,
      "ccddeeedd": 5761,
      "eddcc": 5762,
      "ccbabbbbb": 5763,
      "ccbcce": 5764,
      "efefde": 5765,
      "ffffe": 5766,
      "aabde": 5767,
      "cdddefff": 5768,
      "gcgcgcf": 5769,
      "fde": 5770,
      "gggggfgfgf": 5771,
      "cbbbbbbbbbbbbbbbbbbb": 5772,
      "cbccccddd": 5773,
      "edddddded": 5774,
      "hfhfgf": 5775,
      "ggggggggghgh": 5776,
      "ghhhhfe": 5777,
      "gdfff": 5778,
      "gggggggffffffff": 5779,
      "ggggfeeff": 5780,
      "eeefffeff": 5781,
      "dbfb": 5782,
      "ecbccd": 5783,
      "feff": 5784,
      "gghhggfff": 5785,
      "gagagbgbf": 5786,
      "cccccee": 5787,
      "hdhdhdhe": 5788,
      "ccbbc": 5789,
      "abcd": 5790,
      "eeeeeffgf": 5791,
      "cfhhhhh": 5792,
      "ccbca": 5793,
      "eeeffeeef": 5794,
      "ccddddb": 5795,
      "aaaaaaaaaaaaaaaaaaaaaaaaaaaaaaa": 5796,
      "gghhhhhhgff": 5797,
      "hhgb": 5798,
      "eefh": 5799,
      "ccbaaaaa": 5800,
      "cccaaa": 5801,
      "efffffeed": 5802,
      "ehhhhhh": 5803,
      "eeeeeeeeeddd": 5804,
      "gefeed": 5805,
      "cbbbbbbccd": 5806,
      "dccbbb": 5807,
      "effffeeff": 5808,
      "ccdddedd": 5809,
      "gffffgfff": 5810,
      "efffgggff": 5811,
      "eeeffee": 5812,
      "eeeeegf": 5813,
      "cccbbbabb": 5814,
      "edcdeed": 5815,
      "aaaaaaaaaaaaaaaaaaaaaaaaaaaaaaabb": 5816,
      "gggghhhggf": 5817,
      "gcfdeecfb": 5818,
      "gffegf": 5819,
      "cccccccccdddd": 5820,
      "cccbaaaaab": 5821,
      "edfefd": 5822,
      "ggghgggff": 5823,
      "hche": 5824,
      "gcdf": 5825,
      "eeeefgggf": 5826,
      "edcdee": 5827,
      "ghhhhhhhhhggf": 5828,
      "aaaaaaaaaaaaaaaaaaaaaaabbb": 5829,
      "gggefe": 5830,
      "gghe": 5831,
      "gffffe": 5832,
      "gggeddf": 5833,
      "ggfffeed": 5834,
      "dfgfe": 5835,
      "gggggggghhhhhhhh": 5836,
      "ededecd": 5837,
      "gedee": 5838,
      "cbabaab": 5839,
      "eeedde": 5840,
      "ggghggghh": 5841,
      "cddcdcd": 5842,
      "ghhhhhe": 5843,
      "ebcbd": 5844,
      "eeddcbbb": 5845,
      "ccbcbccd": 5846,
      "gceddecfb": 5847,
      "eeeffeeff": 5848,
      "gcfdd": 5849,
      "cbcdeed": 5850,
      "ehgd": 5851,
      "ceggggf": 5852,
      "ghfe": 5853,
      "ccfhhh": 5854,
      "ghgfffff": 5855,
      "ggfdcd": 5856,
      "dddcbbb": 5857,
      "dedeff": 5858,
      "gggefd": 5859,
      "eedededd": 5860,
      "fdb": 5861,
      "hhghh": 5862,
      "eddegf": 5863,
      "cfeed": 5864,
      "ccbbccccd": 5865,
      "cefggff": 5866,
      "deghh": 5867,
      "aaaaaaabaaab": 5868,
      "gbgcfddf": 5869,
      "gghgee": 5870,
      "eedddeddd": 5871,
      "edeeef": 5872,
      "eeecbbb": 5873,
      "efefegf": 5874,
      "eddddee": 5875,
      "aabbbbaab": 5876,
      "ae": 5877,
      "dfefd": 5878,
      "abbbaa": 5879,
      "ccdddcd": 5880,
      "ggfedff": 5881,
      "cbbbbbcbbb": 5882,
      "gghhghh": 5883,
      "fdc": 5884,
      "cddddbb": 5885,
      "aaaaaaaaaaaaaaaaaaaaaaaaaaaabb": 5886,
      "cccbcccdd": 5887,
      "cdddddef": 5888,
      "gdh": 5889,
      "cffe": 5890,
      "ebebf": 5891,
      "cccegf": 5892,
      "edbbab": 5893,
      "ddede": 5894,
      "gghhhhgggf": 5895,
      "hehehd": 5896,
      "eaeaeaea": 5897,
      "geedb": 5898,
      "ghggee": 5899,
      "effb": 5900,
      "cbcbcbcbbb": 5901,
      "gfffeeef": 5902,
      "ecbc": 5903,
      "gggfffeff": 5904,
      "ddeded": 5905,
      "ccbdff": 5906,
      "ebad": 5907,
      "cdddccbbb": 5908,
      "gfddff": 5909,
      "ghhhgffff": 5910,
      "ggggfggggf": 5911,
      "hhhhhff": 5912,
      "ccege": 5913,
      "defee": 5914,
      "hhgghhh": 5915,
      "eddeefff": 5916,
      "gghgggghh": 5917,
      "gcgdgdf": 5918,
      "cbaabbbbbb": 5919,
      "ggghhhhhhgf": 5920,
      "cdgg": 5921,
      "cbcccccdd": 5922,
      "degfd": 5923,
      "cccbaaabb": 5924,
      "gghhgfe": 5925,
      "cddddccd": 5926,
      "gfedeef": 5927,
      "gfefgff": 5928,
      "aaaaaaaabbbbbbbb": 5929,
      "eeedccb": 5930,
      "gcbd": 5931,
      "cccbcccc": 5932,
      "cdfgd": 5933,
      "eeffffggf": 5934,
      "gggghghghghgh": 5935,
      "gggfffd": 5936,
      "gghgggggh": 5937,
      "hbhahb": 5938,
      "eddbbbb": 5939,
      "ababaaaab": 5940,
      "eadada": 5941,
      "ahahaha": 5942,
      "ggggggffef": 5943,
      "cfbeb": 5944,
      "geffgff": 5945,
      "gggggghgf": 5946,
      "ggfffffffffff": 5947,
      "dbaaaaa": 5948,
      "hhhhhhhhhhhhhhhhhhhhhhhhhhhhhhhhhhhhhhhhhhhhhhhhhhhhh": 5949,
      "cccddee": 5950,
      "dbdbdbd": 5951,
      "ghhhhhhhhhhggf": 5952,
      "ghgeed": 5953,
      "aabbbbabb": 5954,
      "cccccdff": 5955,
      "ggghhhhhggf": 5956,
      "gccf": 5957,
      "ccccccccccccdd": 5958,
      "cccbbccbb": 5959,
      "eghgd": 5960,
      "effeefff": 5961,
      "degd": 5962,
      "cccbce": 5963,
      "ghfee": 5964,
      "ddcde": 5965,
      "ccddcbbbb": 5966,
      "ghhhghhhhhhhh": 5967,
      "gghhhhhhhhhhhhhhhhhhhhhhhhhhhhhhh": 5968,
      "eddc": 5969,
      "ecgf": 5970,
      "ccegfd": 5971,
      "ccegggf": 5972,
      "dddde": 5973,
      "gfffefff": 5974,
      "cdfged": 5975,
      "ceeeb": 5976,
      "cecfc": 5977,
      "aaaaaaaababababab": 5978,
      "aaaaaaaaaaaaaabab": 5979,
      "cccdccccd": 5980,
      "ddfgff": 5981,
      "ccedff": 5982,
      "eefffffef": 5983,
      "cababaaaab": 5984,
      "feef": 5985,
      "ccccff": 5986,
      "effdcd": 5987,
      "ggggggfggf": 5988,
      "ccccccbbbbbbbbb": 5989,
      "eddefgf": 5990,
      "eeeeeeeeeeeef": 5991,
      "cbbcbab": 5992,
      "gggffgggff": 5993,
      "eddddcddd": 5994,
      "gdfcf": 5995,
      "cbaaaaaabbb": 5996,
      "effecd": 5997,
      "aaaaaaaaaaaaaaaaaaaaaaaaaaaaaaaaaaaaaaaaaaab": 5998,
      "cdbaaaab": 5999,
      "aaaaabdf": 6000,
      "gbgcee": 6001,
      "cababbbbb": 6002,
      "cacbd": 6003,
      "ggggghhhhhhhhhhhhh": 6004,
      "ccbbbccbbb": 6005,
      "eedddccd": 6006,
      "cfgge": 6007,
      "ddcdef": 6008,
      "eecab": 6009,
      "cdddcbbbb": 6010,
      "ccdddddddddd": 6011,
      "gefdfd": 6012,
      "ffffffffffffffffffffffffffffffffffffffffffffffffffffffffffffffff": 6013,
      "cccddeeff": 6014,
      "aaaaaaaaaabbbbbbb": 6015,
      "eeeccdd": 6016,
      "efefded": 6017,
      "hhhhhhggf": 6018,
      "aaaaaabbbbbbbbb": 6019,
      "acbbb": 6020,
      "ccedef": 6021,
      "eefeeeed": 6022,
      "aaaaaaaaaaaaaaaaaaaaaaaaaaaaaaaaaaaaaaaaaaaaaaaab": 6023,
      "ggedde": 6024,
      "bbbbbabb": 6025,
      "ccccccdef": 6026,
      "hee": 6027,
      "aaaaaaaaaaaabbbbbb": 6028,
      "gffefeff": 6029,
      "aabaa": 6030,
      "cefdcb": 6031,
      "edfggff": 6032,
      "eddddeded": 6033,
      "eeeeeeeeefff": 6034,
      "aaabbaa": 6035,
      "abbbbabbb": 6036,
      "eddfef": 6037,
      "gfdeef": 6038,
      "gggdcb": 6039,
      "cccdeeef": 6040,
      "gghhhhff": 6041,
      "cdbaabb": 6042,
      "edgf": 6043,
      "fba": 6044,
      "egfhf": 6045,
      "ggggffe": 6046,
      "ggggggggg": 6047,
      "gghggggfff": 6048,
      "ggfffee": 6049,
      "gfffffggf": 6050,
      "cbdded": 6051,
      "gffffefff": 6052,
      "ggggfeeef": 6053,
      "aaaaaaad": 6054,
      "gffffffef": 6055,
      "ghhhhhhhhhhhhhhhhhhhhhhhhhhhhhhhhhhhhhhhhhhh": 6056,
      "gccd": 6057,
      "ddccccd": 6058,
      "ghhggffff": 6059,
      "hhhhhhhhhhhhhhhhhhhhhhhhhhhhhhhhhhhhhhhhhhhhhhhhhhhhhhh": 6060,
      "dddeedd": 6061,
      "edcbabb": 6062,
      "bcd": 6063,
      "effeeee": 6064,
      "hhhhhhhhhhhhhhhhhhhhhhhhhhhhhhhhhhhhhhhhhhhhhhhhhhhhhhhhhhhhhhh": 6065,
      "cddede": 6066,
      "ggffeddd": 6067,
      "ccbbabbbbb": 6068,
      "ecdccb": 6069,
      "dcaaaab": 6070,
      "aaaaababab": 6071,
      "aaaaaaaaaaaaaaaaaabbbb": 6072,
      "hhhgg": 6073,
      "eddddeeed": 6074,
      "edbcd": 6075,
      "fbfbeb": 6076,
      "bbaabb": 6077,
      "edc": 6078,
      "eddccbbbb": 6079,
      "hhhgghhh": 6080,
      "dbe": 6081,
      "aaaaaababab": 6082,
      "ceggd": 6083,
      "cccccbccd": 6084,
      "gggggggfffffff": 6085,
      "eefeeedd": 6086,
      "cccdccccb": 6087,
      "ggghggggh": 6088,
      "bbbbbbbbbbbbbbbbbbbbbbbbb": 6089,
      "cddcbab": 6090,
      "ceggfd": 6091,
      "eccced": 6092,
      "cccccccbbbbbbb": 6093,
      "hhhfff": 6094,
      "dcdbbb": 6095,
      "cbacf": 6096,
      "cbbbaaaabb": 6097,
      "cbcbcccb": 6098,
      "gghhggh": 6099,
      "ecaabb": 6100,
      "ghgfggf": 6101,
      "ecdecfb": 6102,
      "gagahb": 6103,
      "aacee": 6104,
      "cccccbab": 6105,
      "cccdcccccccc": 6106,
      "hhhhhhhhhhhhhhhhhhhhhhhhhhhhhhhhhhhhhhhhhhhhhhhhhhhhhhhhhhhhh": 6107,
      "baabb": 6108,
      "hhghhh": 6109,
      "cbaaaabbbb": 6110,
      "efeggf": 6111,
      "eeeeeeeded": 6112,
      "abcf": 6113,
      "cdcdcdcccc": 6114,
      "cccbbaabb": 6115,
      "gegggf": 6116,
      "ccddeefff": 6117,
      "edfeef": 6118,
      "cdbcbb": 6119,
      "ebfcf": 6120,
      "bdf": 6121,
      "gffgfgf": 6122,
      "ceceddd": 6123,
      "cbbbcbd": 6124,
      "cededde": 6125,
      "ecbaaabb": 6126,
      "eeeeedded": 6127,
      "cbbbbccbbb": 6128,
      "ccddeded": 6129,
      "ccbbbbaaab": 6130,
      "eeeefffef": 6131,
      "eeeeeeedddddd": 6132,
      "ccdcbbbbb": 6133,
      "cdddccddd": 6134,
      "cdddde": 6135,
      "ghhhfef": 6136,
      "fgggf": 6137,
      "ghhhhhhhhghf": 6138,
      "cdedcbb": 6139,
      "gbgbhb": 6140,
      "hhhhhhhhhhhhhhhhhhhhhhhhhhhhhhhhhhhhhhhhhhhhhhhhhhhhhhhhhhh": 6141,
      "acbdb": 6142,
      "dddfe": 6143,
      "gffgggff": 6144,
      "cffdbb": 6145,
      "eaeafafa": 6146,
      "cddffff": 6147,
      "gffeffff": 6148,
      "gecef": 6149,
      "gahagbfceddecfb": 6150,
      "cbaaaaaaaaabb": 6151,
      "hhgggh": 6152,
      "ghhhhhgh": 6153,
      "ghhggghhhh": 6154,
      "efefefd": 6155,
      "gggggggggggggggff": 6156,
      "defd": 6157,
      "cdccdddd": 6158,
      "gbhahahahahahb": 6159,
      "cdeccb": 6160,
      "ccdefgf": 6161,
      "egfgd": 6162,
      "eccbbbbbb": 6163,
      "ccabbbb": 6164,
      "eceeff": 6165,
      "ddbabb": 6166,
      "aaaaabbbab": 6167,
      "hhhhhhhhhhhhhhhhhhhhhhhhhhhhhhhhhhhhhhhhhhhhhhhhhhh": 6168,
      "cdbbbbbb": 6169,
      "eeedeee": 6170,
      "gghhhhhggff": 6171,
      "ghhfed": 6172,
      "eddccccb": 6173,
      "dddccdd": 6174,
      "cdeeb": 6175,
      "cedeff": 6176,
      "gcge": 6177,
      "gcfdeedfcgbhbhb": 6178,
      "gfffeeff": 6179,
      "gghhhhhhhggf": 6180,
      "eeeeddded": 6181,
      "effedff": 6182,
      "cbbbbcbcb": 6183,
      "geccf": 6184,
      "ccceeee": 6185,
      "aaaaabbaaab": 6186,
      "abbbbbbab": 6187,
      "eddeeeef": 6188,
      "cfgfe": 6189,
      "efffeeddd": 6190,
      "aaadd": 6191,
      "edddeefff": 6192,
      "efefeeef": 6193,
      "ecdbbb": 6194,
      "ddbbab": 6195,
      "hhfff": 6196,
      "gghhgg": 6197,
      "cddeeddd": 6198,
      "cbbbbbbbabb": 6199,
      "hggg": 6200,
      "eedeffff": 6201,
      "ceedef": 6202,
      "eefffffed": 6203,
      "eeffffffffffff": 6204,
      "ccdfef": 6205,
      "hhggggf": 6206,
      "dfebb": 6207,
      "ghhhhhhhhghgh": 6208,
      "dedcbb": 6209,
      "cdddddb": 6210,
      "hhgg": 6211,
      "bbbbbaab": 6212,
      "gffffee": 6213,
      "eedcdef": 6214,
      "cdfhhhh": 6215,
      "ceeded": 6216,
      "bbbbbbbbbbbbbbbbbbbbbbbbbbbbbbbbbbbbbbbbbbbbbbbbbbbbbbbbbbbbbbbbbbbbbbbbbbbbbbbbbbbbbbbbbbbbbbbbbbbbbbbbbbbbbbbbbbbbbbbbbbbbbbbb": 6217,
      "gggggeed": 6218,
      "ggggghhhhhhhhhhhhhh": 6219,
      "ccdegf": 6220,
      "dadbdb": 6221,
      "eeeedee": 6222,
      "aaabdd": 6223,
      "ecceff": 6224,
      "cdccdb": 6225,
      "ghhhhgghhhh": 6226,
      "cbbbbbccdd": 6227,
      "ghhhhhhhhhhhhhhhhhhhhhhhhhhhhhhhhhhhhhhhhh": 6228,
      "ggghghghf": 6229,
      "cddecb": 6230,
      "ghhghghghgh": 6231,
      "cccccdeff": 6232,
      "hhggh": 6233,
      "eedeeeff": 6234,
      "cdcde": 6235,
      "eddddeeff": 6236,
      "ggffffggf": 6237,
      "ccbccccdd": 6238,
      "cccbcc": 6239,
      "gggffeeff": 6240,
      "ghhhhhhgggf": 6241,
      "eeddcdddd": 6242,
      "decab": 6243,
      "ecdcddd": 6244,
      "gggghhhhgf": 6245,
      "hhgdb": 6246,
      "aaaaabbbbbbbbbb": 6247,
      "ggcb": 6248,
      "ccccbbd": 6249,
      "ccbccdddd": 6250,
      "cccdddb": 6251,
      "eeeeeefed": 6252,
      "cbbbbbaabb": 6253,
      "eddddcccd": 6254,
      "gghhhgfd": 6255,
      "edegggf": 6256,
      "cdffef": 6257,
      "gggggggfed": 6258,
      "dddcb": 6259,
      "ccbbcc": 6260,
      "ceffdd": 6261,
      "ccccbbbbbbbbbbbb": 6262,
      "cbbcbbbbbb": 6263,
      "cbbbbbbbbbbbbbbbbbbbbbbbbbbbbbbbbbbbb": 6264,
      "aaabaaaaab": 6265,
      "ghhhhhhhhghghghgh": 6266,
      "dedbab": 6267,
      "egfgggf": 6268,
      "gffb": 6269,
      "eeedddddddddd": 6270,
      "egegef": 6271,
      "cbccbab": 6272,
      "ccccab": 6273,
      "eefb": 6274,
      "eeeeeeeeeeff": 6275,
      "cdcedf": 6276,
      "cecdddd": 6277,
      "cdbca": 6278,
      "ggggggggggggggggggf": 6279,
      "eeeeffd": 6280,
      "ghgdbb": 6281,
      "eecbab": 6282,
      "ccbbbcddd": 6283,
      "ecaaaa": 6284,
      "edddddb": 6285,
      "cececdcd": 6286,
      "eededeef": 6287,
      "effffffffffffff": 6288,
      "eeeeedeef": 6289,
      "hhhhhhhhhgf": 6290,
      "cfefd": 6291,
      "ghhgghhhhh": 6292,
      "ccccccccccbb": 6293,
      "ccfe": 6294,
      "cfebb": 6295,
      "ghhgggfff": 6296,
      "cghhf": 6297,
      "ghhhhhhhggff": 6298,
      "cddcdddd": 6299,
      "gghhhfd": 6300,
      "cbbdddd": 6301,
      "cbbbdb": 6302,
      "cdcff": 6303,
      "ghhhhggfff": 6304,
      "eeedccbb": 6305,
      "cefh": 6306,
      "hhhhhhhhhhhhhhhhhhhhhhhhhhhhhhhhhhhhhhhhhhhhhhhhhhhhhhhhhhhh": 6307,
      "eeeeeddef": 6308,
      "effedef": 6309,
      "gda": 6310,
      "ccbbbbbbab": 6311,
      "ggggghgff": 6312,
      "cdcbbd": 6313,
      "eeeeeffef": 6314,
      "gggggggggghhhh": 6315,
      "ecdeef": 6316,
      "ghhhhhhghgh": 6317,
      "ccdgf": 6318,
      "dfg": 6319,
      "eeeddcccd": 6320,
      "eeeeeeeefffff": 6321,
      "edbaabb": 6322,
      "faeaea": 6323,
      "cdcddb": 6324,
      "effffdd": 6325,
      "eeeffffgf": 6326,
      "ebecf": 6327,
      "ccddfd": 6328,
      "cefgd": 6329,
      "cddbd": 6330,
      "ggggfffef": 6331,
      "ghhhhhhhhhhghgh": 6332,
      "cdcdbbb": 6333,
      "ededbb": 6334,
      "gfffffeff": 6335,
      "gfgggggfff": 6336,
      "caabf": 6337,
      "gggeccd": 6338,
      "cccdfd": 6339,
      "gggggfeed": 6340,
      "ceffe": 6341,
      "gebaaab": 6342,
      "eedbd": 6343,
      "dddeddd": 6344,
      "cbbbcdddd": 6345,
      "ggghggh": 6346,
      "aabaaa": 6347,
      "cccbbccb": 6348,
      "efffffeef": 6349,
      "hchchchd": 6350,
      "cefffed": 6351,
      "cefecbb": 6352,
      "ggfffedd": 6353,
      "defdd": 6354,
      "edbaaa": 6355,
      "ddfe": 6356,
      "ggghhff": 6357,
      "aaccb": 6358,
      "ggggghghghgh": 6359,
      "cdddcb": 6360,
      "ecbaaa": 6361,
      "hcgb": 6362,
      "gfgggghhh": 6363,
      "cbbbf": 6364,
      "eeddeeedd": 6365,
      "eegfd": 6366,
      "ghhhhhghhhh": 6367,
      "gegefff": 6368,
      "caabbbbb": 6369,
      "cccdfgf": 6370,
      "eeffeee": 6371,
      "cdfggggf": 6372,
      "cccbbbccd": 6373,
      "aaaaaabbab": 6374,
      "cdbbd": 6375,
      "effefe": 6376,
      "gfgffd": 6377,
      "ababacaca": 6378,
      "edddcccdd": 6379,
      "ggghhhhgff": 6380,
      "egegdgd": 6381,
      "afb": 6382,
      "eedc": 6383,
      "gegfgfgf": 6384,
      "ghhghgf": 6385,
      "cbbbbbcbb": 6386,
      "eafaga": 6387,
      "ccccceed": 6388,
      "ededeeed": 6389,
      "gefgff": 6390,
      "gggggfggff": 6391,
      "cddcbd": 6392,
      "aaaaaaaaaaaaaaaaabbbb": 6393,
      "cehf": 6394,
      "eafagaga": 6395,
      "aabbbbbbbbbbbbbb": 6396,
      "ccddccccd": 6397,
      "gcfdeedfc": 6398,
      "effggh": 6399,
      "cccbddd": 6400,
      "gch": 6401,
      "cddedcb": 6402,
      "eefgffff": 6403,
      "gggggggggggfffff": 6404,
      "ghhhhghghf": 6405,
      "ghhhhhhhhhhhf": 6406,
      "cfdbb": 6407,
      "eeddeee": 6408,
      "aaaabaaaaab": 6409,
      "gefdff": 6410,
      "ccccccef": 6411,
      "ggffffd": 6412,
      "fada": 6413,
      "ggghhhggff": 6414,
      "ebdccd": 6415,
      "gdcb": 6416,
      "dfghhh": 6417,
      "fceddecfb": 6418,
      "hhhgfe": 6419,
      "ggggggggggghgh": 6420,
      "cbbbbbcccd": 6421,
      "ggeeeef": 6422,
      "eeeeeeeffffff": 6423,
      "ccbbba": 6424,
      "cbcdfff": 6425,
      "gehehe": 6426,
      "eeeffggff": 6427,
      "ggffffgff": 6428,
      "edddeeddd": 6429,
      "hhhhhhhhhhhhhhhhhhhhhhhhhhhhhhhhhhhhhhhhh": 6430,
      "efefefefefef": 6431,
      "cccccddf": 6432,
      "eefffggff": 6433,
      "hhhhhhhhhhhhhhhhhhhhhhhhhhhhhhhhhhhhhhhhhhhhhhhhhhhhhhhhhhhhhh": 6434,
      "effegd": 6435,
      "cbbcce": 6436,
      "ebcef": 6437,
      "dcbaabb": 6438,
      "dffdb": 6439,
      "cehhhh": 6440,
      "ggfffgggff": 6441,
      "eddcdb": 6442,
      "effdef": 6443,
      "deh": 6444,
      "ggghghhhh": 6445,
      "decbbb": 6446,
      "edfgggf": 6447,
      "ggghgggggf": 6448,
      "eeeefffed": 6449,
      "eeeedddf": 6450,
      "hhed": 6451,
      "ccbccdb": 6452,
      "ccccdefff": 6453,
      "aaaaaaaaaaaaaaaaaaaaaaaaaaaaa": 6454,
      "eaaa": 6455,
      "dddeeef": 6456,
      "ebac": 6457,
      "ccccbcccb": 6458,
      "ededdddddd": 6459,
      "ceeedf": 6460,
      "effeffff": 6461,
      "effggggff": 6462,
      "ggfffffgf": 6463,
      "gegehe": 6464,
      "gcfdeedfb": 6465,
      "cddefed": 6466,
      "ccbcccccd": 6467,
      "aabaaabb": 6468,
      "gghhgh": 6469,
      "hhgdd": 6470,
      "ffdf": 6471,
      "eefeeeef": 6472,
      "deghhh": 6473,
      "gfbb": 6474,
      "eedeeeed": 6475,
      "cecccd": 6476,
      "gefdfdf": 6477,
      "ceba": 6478,
      "gghhhhhhhhhhgf": 6479,
      "efgfggf": 6480,
      "ggggggggfffffff": 6481,
      "cbcbabb": 6482,
      "ghhhhhhghhh": 6483,
      "cccccedd": 6484,
      "cddeffff": 6485,
      "aaabbbbbbbbbbbb": 6486,
      "gfffdd": 6487,
      "edfefff": 6488,
      "cbccdef": 6489,
      "gefefd": 6490,
      "ababababbbb": 6491,
      "gbgcfedf": 6492,
      "gggggghhhhhhhhhhh": 6493,
      "cbbccccbb": 6494,
      "aaaaaaaaaababab": 6495,
      "eddeeeff": 6496,
      "ccbbcccdd": 6497,
      "ggdde": 6498,
      "aaababbbb": 6499,
      "dedcd": 6500,
      "cgbgbhahb": 6501,
      "eddcf": 6502,
      "dfggggf": 6503,
      "gghgfgf": 6504,
      "gdcdf": 6505,
      "abadb": 6506,
      "hchcgd": 6507,
      "ccaaaabb": 6508,
      "dbaaaaaaab": 6509,
      "ghhhhhg": 6510,
      "gahahagbfceddecfb": 6511,
      "gcaaab": 6512,
      "gggggggfef": 6513,
      "cbcccccccd": 6514,
      "ecddf": 6515,
      "cbbaaaaaaabb": 6516,
      "gggeeed": 6517,
      "eeeedfdf": 6518,
      "aabaaaaab": 6519,
      "effedddd": 6520,
      "cccbcef": 6521,
      "ggggfgggff": 6522,
      "gfdcf": 6523,
      "gggggffggf": 6524,
      "hfhfhghgh": 6525,
      "gghhhhhhhhhhhhhhhhhhhhhhhhh": 6526,
      "ggghggggff": 6527,
      "eeeeddb": 6528,
      "gggfeeed": 6529,
      "ghhggfd": 6530,
      "ccddccddd": 6531,
      "gghhgfed": 6532,
      "ccbbbbabbb": 6533,
      "eeeeffgff": 6534,
      "deebb": 6535,
      "cgchbhb": 6536,
      "ccaaaaa": 6537,
      "eddcdcdd": 6538,
      "cbcba": 6539,
      "eceeed": 6540,
      "dcbce": 6541,
      "cbabdd": 6542,
      "effdbbb": 6543,
      "dbcff": 6544,
      "cbcccbbbbb": 6545,
      "ghee": 6546,
      "ghhgged": 6547,
      "cccbaaa": 6548,
      "eeecddd": 6549,
      "eefffgfff": 6550,
      "fdgd": 6551,
      "eefhhh": 6552,
      "ccbaaaaaabb": 6553,
      "eeefefd": 6554,
      "cccccccccbbb": 6555,
      "eefffffgf": 6556,
      "aaaaaaaaaaaaaaaaaaaabbbb": 6557,
      "eeeeddddddddd": 6558,
      "ggggghhhgf": 6559,
      "cccbcdf": 6560,
      "hbha": 6561,
      "edbcf": 6562,
      "dcdfff": 6563,
      "aaaaaaabbbbbbbbb": 6564,
      "aaaaaaaaaaaaaaaaaaaaaaaaaaaaaaaaaaaaaaaa": 6565,
      "gghhgef": 6566,
      "cabaa": 6567,
      "ggggggggggggggfff": 6568,
      "aaaaaaaaaaaaaaaaaaaaaaaaaaaaaabb": 6569,
      "aeb": 6570,
      "ggeddef": 6571,
      "ggfeeed": 6572,
      "ccccccccccdddd": 6573,
      "efefeedd": 6574,
      "cccdddddddddd": 6575,
      "eeeddccd": 6576,
      "ghhhhhhhhhhhhhhhhhhhhhhhhhhhhhhhhhhhhhhhhhhhhh": 6577,
      "dfeee": 6578,
      "ceeddf": 6579,
      "ccabab": 6580,
      "ccccdeeed": 6581,
      "ghfde": 6582,
      "cccbcbcbcb": 6583,
      "edededddd": 6584,
      "ceeeeef": 6585,
      "gecbd": 6586,
      "ababababbb": 6587,
      "aabef": 6588,
      "ccbbcbbbbb": 6589,
      "cefged": 6590,
      "hahahahahahah": 6591,
      "ccbcbcbcbcb": 6592,
      "cbbbaaaaaab": 6593,
      "ebccd": 6594,
      "ghhhggggff": 6595,
      "cccccccccccddd": 6596,
      "eddeggf": 6597,
      "cdccccbbb": 6598,
      "eefgfed": 6599,
      "geffffff": 6600,
      "ceddef": 6601,
      "cdeedbb": 6602,
      "gcgbhbhb": 6603,
      "ebaaaaaab": 6604,
      "cddddcccd": 6605,
      "ddcbbbbb": 6606,
      "ggggeed": 6607,
      "dfcf": 6608,
      "gggghff": 6609,
      "ccefgff": 6610,
      "hhhhhhhhhhhhhhhhhhhhhhhhhhhhhhhhhhhhhhhhhhhhhhhhhhhhhhhhhh": 6611,
      "aabcdd": 6612,
      "dbaabbb": 6613,
      "aaabbbaabb": 6614,
      "gfeccd": 6615,
      "eddbab": 6616,
      "gghgged": 6617,
      "ebec": 6618,
      "cddddddded": 6619,
      "hhhhg": 6620,
      "gggeeeff": 6621,
      "ccbbaaaaabb": 6622,
      "ecdcf": 6623,
      "gggggffd": 6624,
      "dfddd": 6625,
      "dbcc": 6626,
      "gbha": 6627,
      "cbcccdb": 6628,
      "dbaaaabb": 6629,
      "ccddde": 6630,
      "ghfhgh": 6631,
      "eedfe": 6632,
      "dffgff": 6633,
      "dfgfff": 6634,
      "gagbgb": 6635,
      "cdeddddd": 6636,
      "gffffggff": 6637,
      "ccccddff": 6638,
      "aabbbbbab": 6639,
      "ggbb": 6640,
      "ghggghhhhh": 6641,
      "cdddfff": 6642,
      "cdedcdd": 6643,
      "hgeef": 6644,
      "eeghgf": 6645,
      "edcf": 6646,
      "cadaeaea": 6647,
      "gfdbbbb": 6648,
      "cbcddf": 6649,
      "eedddeedd": 6650,
      "ebccb": 6651,
      "edddeffff": 6652,
      "eeefeeeff": 6653,
      "ddeeedd": 6654,
      "aaaaaaaaaaaaaaaabab": 6655,
      "gggb": 6656,
      "eeffddd": 6657,
      "ccbbbcccbb": 6658,
      "gceddf": 6659,
      "ghhhhhggggf": 6660,
      "cccbbbbabb": 6661,
      "ggggghggff": 6662,
      "gggfde": 6663,
      "edddbbb": 6664,
      "edfc": 6665,
      "eedddfff": 6666,
      "ggfedbb": 6667,
      "fhgd": 6668,
      "acff": 6669,
      "eedffff": 6670,
      "eedddefff": 6671,
      "cbcabab": 6672,
      "abbbbbbbbbbbbbbbbb": 6673,
      "gcgdfeefd": 6674,
      "eeffffeff": 6675,
      "ddddeff": 6676,
      "aabcbb": 6677,
      "gghhhhhhhhggf": 6678,
      "ccccddddddddd": 6679,
      "eeeeefefef": 6680,
      "eedcbbbbb": 6681,
      "ceceded": 6682,
      "dfgge": 6683,
      "ccbcbbbbbbb": 6684,
      "eeefgggff": 6685,
      "gggggffeff": 6686,
      "cfffd": 6687,
      "cbcbbcd": 6688,
      "cecab": 6689,
      "cccdeeedd": 6690,
      "ghhhd": 6691,
      "aaaababbb": 6692,
      "ccdddcddd": 6693,
      "egegdf": 6694,
      "ggggffeedd": 6695,
      "aaaaaaaaaaaaaaaaaaaaaaaaaaaaaa": 6696,
      "gghhhhhhhhhhhhhhhhhhhhhhhhhhhhhh": 6697,
      "gghhhggfff": 6698,
      "cbbbabbbbb": 6699,
      "hdh": 6700,
      "ababbbbbbbbbb": 6701,
      "gggffffed": 6702,
      "cgbhahaha": 6703,
      "ghgffgf": 6704,
      "cegggg": 6705,
      "gghggghhhh": 6706,
      "gedeef": 6707,
      "ggffffeff": 6708,
      "bbbbbbbbbbbbbbbbbbbbbbbbbb": 6709,
      "cdccccbbbb": 6710,
      "dfedb": 6711,
      "dfhhf": 6712,
      "dcbcdd": 6713,
      "eccee": 6714,
      "ececeb": 6715,
      "geddddd": 6716,
      "ddeffff": 6717,
      "edddccbb": 6718,
      "edddcdcd": 6719,
      "cdcdddddddd": 6720,
      "acdf": 6721,
      "eddec": 6722,
      "eeeeeeeeddddd": 6723,
      "ggggfffed": 6724,
      "eedcdddd": 6725,
      "gfgfgfgfff": 6726,
      "eeegfff": 6727,
      "egefff": 6728,
      "ggggghhhhhhhhhhhhhhhh": 6729,
      "gghhggghhh": 6730,
      "ccccccded": 6731,
      "ccbcdb": 6732,
      "cbdcf": 6733,
      "cdeeeeed": 6734,
      "eeeeeeddddddd": 6735,
      "ccccbaaab": 6736,
      "ghgghhhhhh": 6737,
      "gggedcd": 6738,
      "ccbcdff": 6739,
      "gghghhhhhhhhhh": 6740,
      "defgggf": 6741,
      "ggfdeff": 6742,
      "cdeeddddd": 6743,
      "cbaabab": 6744,
      "ggebab": 6745,
      "cddccbbbb": 6746,
      "dbed": 6747,
      "bbbcef": 6748,
      "cbbccccdd": 6749,
      "ccddedddd": 6750,
      "ghhhgggggggg": 6751,
      "gfhggf": 6752,
      "ddab": 6753,
      "eddeeeed": 6754,
      "ghhhhgggff": 6755,
      "eeece": 6756,
      "cccccdcccd": 6757,
      "efggfgf": 6758,
      "ccdecd": 6759,
      "ecbde": 6760,
      "cceefd": 6761,
      "cddefd": 6762,
      "cccccccccccccccd": 6763,
      "cccbcbd": 6764,
      "cbbbbaabbb": 6765,
      "ghhhgge": 6766,
      "cccddeeed": 6767,
      "aaaabbbaab": 6768,
      "ccaabbb": 6769,
      "ggggggggggggggggff": 6770,
      "hgggff": 6771,
      "aaef": 6772,
      "ggffggfff": 6773,
      "ghhhgdb": 6774,
      "bbbcdf": 6775,
      "ccdfgff": 6776,
      "cdddddded": 6777,
      "ghggfed": 6778,
      "dedecd": 6779,
      "fbfbfbf": 6780,
      "fg": 6781,
      "dddcddd": 6782,
      "ccccccccbbbbbb": 6783,
      "cbbdfff": 6784,
      "cefffd": 6785,
      "ceeedb": 6786,
      "gggggghhhhhhhhhhhh": 6787,
      "bbbcbbb": 6788,
      "dfgh": 6789,
      "dfdcb": 6790,
      "cccdefed": 6791,
      "dfc": 6792,
      "ghhhhgfef": 6793,
      "fcfb": 6794,
      "fffffd": 6795,
      "ahahahahahah": 6796,
      "bbbcf": 6797,
      "dfghh": 6798,
      "ccbbbbbd": 6799,
      "effgfed": 6800,
      "gfdcdd": 6801,
      "ccad": 6802,
      "edab": 6803,
      "ccdcbab": 6804,
      "efffffgggf": 6805,
      "ggggggfeef": 6806,
      "aaaaabbd": 6807,
      "cbaaabd": 6808,
      "accb": 6809,
      "hhgeef": 6810,
      "eeedede": 6811,
      "eeeddddef": 6812,
      "gggggggggggghhh": 6813,
      "ggfffffef": 6814,
      "hhghf": 6815,
      "eeggh": 6816,
      "dbdff": 6817,
      "efffeeeef": 6818,
      "gbgcgd": 6819,
      "dedeeef": 6820,
      "ccbbccccb": 6821,
      "ggghgghhh": 6822,
      "gddgbhahahahaha": 6823,
      "hhgfef": 6824,
      "cccdfe": 6825,
      "ecbabbb": 6826,
      "gghhhhhhhhhgh": 6827,
      "dceee": 6828,
      "gggddd": 6829,
      "cedcbbb": 6830,
      "gefge": 6831,
      "ggedeff": 6832,
      "gfg": 6833,
      "eddcccbb": 6834,
      "aaaaaac": 6835,
      "cfcfcfcfcfd": 6836,
      "aacdb": 6837,
      "cccfd": 6838,
      "edddeeeed": 6839,
      "eefffeeed": 6840,
      "aaaaaaaaaaaaaaabbbbb": 6841,
      "ccccddeef": 6842,
      "eedecfb": 6843,
      "cccccbbbbbbbbbbb": 6844,
      "bbdff": 6845,
      "ccccceef": 6846,
      "eedeeddd": 6847,
      "aaabbbabbb": 6848,
      "cfcgc": 6849,
      "ghhgggggff": 6850,
      "aaaabaabb": 6851,
      "cdccbd": 6852,
      "gggecc": 6853,
      "cccbcccbbb": 6854,
      "cdcbcdd": 6855,
      "ecfcgbgb": 6856,
      "cbbaaaaaaaaab": 6857,
      "cbbbbcccbb": 6858,
      "aababab": 6859,
      "cefgfff": 6860,
      "ccdddbbb": 6861,
      "eedefgf": 6862,
      "gdeef": 6863,
      "ccccdfff": 6864,
      "gggghgggggggg": 6865,
      "gggfffggff": 6866,
      "ecddef": 6867,
      "ddcab": 6868,
      "eecde": 6869,
      "ghggfef": 6870,
      "cedece": 6871,
      "aaaacd": 6872,
      "cbaaabbbbb": 6873,
      "ccdeeeff": 6874,
      "eededdddd": 6875,
      "gghggfed": 6876,
      "efffeeedd": 6877,
      "cddddcdcd": 6878,
      "egfeff": 6879,
      "hahagbfceddecfb": 6880,
      "heb": 6881,
      "eeeeggf": 6882,
      "eeefffgff": 6883,
      "cfhg": 6884,
      "cedcdd": 6885,
      "cefeff": 6886,
      "ggggfeedd": 6887,
      "cdfdbb": 6888,
      "gghhhhhhhhhggf": 6889,
      "dcbaaa": 6890,
      "ggeefgf": 6891,
      "ccdecbb": 6892,
      "cbbbbaa": 6893,
      "cedeb": 6894,
      "cdfgfed": 6895,
      "aaabbaaaaab": 6896,
      "ecbaaaaaab": 6897,
      "eedddcccd": 6898,
      "cdefeff": 6899,
      "gbgcfdeed": 6900,
      "cecbbb": 6901,
      "ghhgeff": 6902,
      "eeeffffed": 6903,
      "ghhfdd": 6904,
      "cccccccccccccb": 6905,
      "eeffffeef": 6906,
      "cebfafa": 6907,
      "geeedf": 6908,
      "aabccb": 6909,
      "ccbbaaabbb": 6910,
      "ccccdeedd": 6911,
      "gggfffgfff": 6912,
      "efffffffgf": 6913,
      "ccdcbcd": 6914,
      "eeffeeeff": 6915,
      "ededeff": 6916,
      "cbabbab": 6917,
      "cbbaaaaaaaaaaaaaaaaaaaaaaaaaaaaaaaa": 6918,
      "eeefddd": 6919,
      "eccbbbb": 6920,
      "dbddd": 6921,
      "egfhgh": 6922,
      "ccccbcccd": 6923,
      "cffdd": 6924,
      "gagagbfceddecfb": 6925,
      "bbaa": 6926,
      "ccccbcb": 6927,
      "ghghhhhhhhhhhhhhhhh": 6928,
      "cbbddb": 6929,
      "gdhe": 6930,
      "eeefeee": 6931,
      "gghhghhhh": 6932,
      "ggfdcdf": 6933,
      "hgfgf": 6934,
      "gegefd": 6935,
      "hgghhh": 6936,
      "dfecbb": 6937,
      "eeeddeeed": 6938,
      "cdcbbbbbbb": 6939,
      "cecee": 6940,
      "ccddccbbb": 6941,
      "gghhgggggf": 6942,
      "ghhhhhhhff": 6943,
      "ghgddf": 6944,
      "ccbccccbb": 6945,
      "efefdfdf": 6946,
      "gfdcb": 6947,
      "gggfffeef": 6948,
      "aaaabbaabb": 6949,
      "hhhfef": 6950,
      "ffffffffffffffffff": 6951,
      "ghgghgf": 6952,
      "edbaaaaab": 6953,
      "ccdcf": 6954,
      "cbcddbb": 6955,
      "eefdfd": 6956,
      "gggfgggggf": 6957,
      "aaabaa": 6958,
      "ggggfgffff": 6959,
      "cccbbcccd": 6960,
      "cdecdd": 6961,
      "ccecdb": 6962,
      "dccdb": 6963,
      "gecbbb": 6964,
      "eeedfe": 6965,
      "eeeeeeeeeeeeed": 6966,
      "cdcaaa": 6967,
      "aaaabbbbbbbbbbb": 6968,
      "ghghhgf": 6969,
      "gbaa": 6970,
      "cdfeef": 6971,
      "ababbbbbbbbbbb": 6972,
      "caaaaabbb": 6973,
      "cbbbbabbbbb": 6974,
      "ccbceff": 6975,
      "ccbbccddd": 6976,
      "gedddf": 6977,
      "eeeeeeeeee": 6978,
      "abacab": 6979,
      "dcfff": 6980,
      "hdhdhdhd": 6981,
      "cccbdf": 6982,
      "eeeddcddd": 6983,
      "ceebbb": 6984,
      "cceedddd": 6985,
      "cccccccccbb": 6986,
      "hchdf": 6987,
      "fecgahahahahaha": 6988,
      "cgge": 6989,
      "ghhgfgggg": 6990,
      "cccdddcdd": 6991,
      "edcdfff": 6992,
      "abbbabbbbb": 6993,
      "cececeb": 6994,
      "cddba": 6995,
      "cddbbbbb": 6996,
      "cccddcbb": 6997,
      "eeeddee": 6998,
      "aaabba": 6999,
      "ecbf": 7000,
      "hgdf": 7001,
      "eedefed": 7002,
      "cccccccccccccdd": 7003,
      "eddddbb": 7004,
      "aaaaaaaabd": 7005,
      "cfcgcf": 7006,
      "ccccccddddddd": 7007,
      "ghhhhggh": 7008,
      "gfffggfff": 7009,
      "cccddccdd": 7010,
      "dffggf": 7011,
      "gghhhhhhhgff": 7012,
      "ffdbb": 7013,
      "cdccf": 7014,
      "cegfed": 7015,
      "gggghghgggg": 7016,
      "ggghhggggf": 7017,
      "geffefd": 7018,
      "cceegf": 7019,
      "cdddeee": 7020,
      "cefggggf": 7021,
      "cdcbaa": 7022,
      "ecddcebfb": 7023,
      "ggffeee": 7024,
      "efecdd": 7025,
      "efefefeff": 7026,
      "hhhhhhgff": 7027,
      "cccbbbbbbbbbbbbbbb": 7028,
      "cbcfff": 7029,
      "cbfd": 7030,
      "ddddeef": 7031,
      "ccbbcded": 7032,
      "deggg": 7033,
      "aaaaabaaaaab": 7034,
      "cdeddb": 7035,
      "ededeeff": 7036,
      "efebbb": 7037,
      "ghhhggg": 7038,
      "cbbbbbabbbb": 7039,
      "gghhhgggff": 7040,
      "gghhhhhgggf": 7041,
      "gbfdeedfb": 7042,
      "bc": 7043,
      "egc": 7044,
      "cdcaa": 7045,
      "ghebb": 7046,
      "gfgfhf": 7047,
      "gfdfff": 7048,
      "eddddefff": 7049,
      "ceffee": 7050,
      "cbbbbaaaaab": 7051,
      "cdddcccb": 7052,
      "gghhhhge": 7053,
      "ccdddccdd": 7054,
      "ccceeddd": 7055,
      "ghhhhhhhhhgff": 7056,
      "ghggfffff": 7057,
      "cdbcbbb": 7058,
      "gggggfffffffff": 7059,
      "aabce": 7060,
      "cacbcb": 7061,
      "dddfgf": 7062,
      "cgchb": 7063,
      "hhhghh": 7064,
      "ccbaaaaaaaaab": 7065,
      "ffffffffffffff": 7066,
      "ghhhhhghh": 7067,
      "hchchb": 7068,
      "aaaaaaaaaaabbbbbbb": 7069,
      "gggfffffffffff": 7070,
      "ccaaaaaaab": 7071,
      "cdeeefff": 7072,
      "edddcbbb": 7073,
      "ccbbcccbbb": 7074,
      "cedeeef": 7075,
      "cbcdedd": 7076,
      "ggfdccd": 7077,
      "ddcccbb": 7078,
      "dfefff": 7079,
      "ghhhhgef": 7080,
      "aaade": 7081,
      "ggffeeed": 7082,
      "ccbbaaaaaaab": 7083,
      "cedeeff": 7084,
      "ggggffee": 7085,
      "ddccccb": 7086,
      "ccccedd": 7087,
      "ffffeff": 7088,
      "dfggg": 7089,
      "gegfgggg": 7090,
      "ceegff": 7091,
      "ehg": 7092,
      "bcf": 7093,
      "eeffffeed": 7094,
      "geffggf": 7095,
      "dda": 7096,
      "eefefffff": 7097,
      "ccbddf": 7098,
      "cccbc": 7099,
      "hfed": 7100,
      "eeecdf": 7101,
      "gcgcfd": 7102,
      "ggghhgfff": 7103,
      "abacbd": 7104,
      "caaabab": 7105,
      "aaaaaaaaaaaaaaaaaaabbbb": 7106,
      "ccbaaaabbb": 7107,
      "aaaaace": 7108,
      "eddddddf": 7109,
      "abbbbbbbbbbbbbbbbbbbbbbbbbbbbbbbb": 7110,
      "cbegf": 7111,
      "ccbcdcd": 7112,
      "aaabaaaaaab": 7113,
      "ccbbded": 7114,
      "ccccccccccbbb": 7115,
      "eeebbb": 7116,
      "ghhhhhgfed": 7117,
      "aaaaaaabbab": 7118,
      "hhhghf": 7119,
      "ababacb": 7120,
      "aaabbabbb": 7121,
      "eeeffefff": 7122,
      "cebebfb": 7123,
      "ghhhhhhgfff": 7124,
      "cbbababbb": 7125,
      "cbddff": 7126,
      "cbbacb": 7127,
      "dbad": 7128,
      "dbcdb": 7129,
      "cbbbbbcbbbb": 7130,
      "gbfdeecfb": 7131,
      "aaaabf": 7132,
      "cbcdbbb": 7133,
      "effffggggf": 7134,
      "cbcbcdd": 7135,
      "ghhhhhhhgggf": 7136,
      "ghhgfeef": 7137,
      "ehhgf": 7138,
      "ccbbccbbbb": 7139,
      "cdecbbb": 7140,
      "cccccdeed": 7141,
      "aaaaaaaaaaaaaaaaaaaaaaaabbb": 7142,
      "gggggggfgff": 7143,
      "cbaaaaaaaaaaaab": 7144,
      "eeddccccd": 7145,
      "eeffeefff": 7146,
      "ghhhfb": 7147,
      "daeb": 7148,
      "cbbaaaaaaaaaab": 7149,
      "eeedeefff": 7150,
      "gghhhgg": 7151,
      "deefffff": 7152,
      "ebcdf": 7153,
      "cefecd": 7154,
      "cddddee": 7155,
      "eeedddff": 7156,
      "ccefffff": 7157,
      "gbgdf": 7158,
      "cefedb": 7159,
      "cbbbbbbabbb": 7160,
      "gegfhf": 7161,
      "cccefed": 7162,
      "eefeefff": 7163,
      "cfedb": 7164,
      "cccbbbcdd": 7165,
      "cccccddef": 7166,
      "hghhhhhhhh": 7167,
      "cdddeded": 7168,
      "ggghhhgggf": 7169,
      "ebdcdd": 7170,
      "geeeedd": 7171,
      "ccdedcd": 7172,
      "bbaaabb": 7173,
      "cdebbb": 7174,
      "caabab": 7175,
      "gfffffffef": 7176,
      "dedeeff": 7177,
      "cccbbcccb": 7178,
      "ehge": 7179,
      "cfcgcgcf": 7180,
      "cdccbbbbbb": 7181,
      "aaacdd": 7182,
      "ggffde": 7183,
      "edfgg": 7184,
      "ggfffggggf": 7185,
      "ghhhhhhfd": 7186,
      "ececdd": 7187,
      "ddedcb": 7188,
      "effeeeed": 7189,
      "ccdcddddd": 7190,
      "cbcbba": 7191,
      "cccbbbaab": 7192,
      "dfgggg": 7193,
      "gebaa": 7194,
      "hggfgf": 7195,
      "gghhhged": 7196,
      "eebaa": 7197,
      "eeefeeeed": 7198,
      "cggg": 7199,
      "ghgghhhhhhh": 7200,
      "efdcdf": 7201,
      "efedcdd": 7202,
      "ggggghhggf": 7203,
      "eccccb": 7204,
      "cdcccbbbb": 7205,
      "ggggggfgfff": 7206,
      "aaaabbbabb": 7207,
      "cccdcccb": 7208,
      "efedeef": 7209,
      "cccfgf": 7210,
      "cfghf": 7211,
      "cbbbbcdef": 7212,
      "cefebb": 7213,
      "gghhhghh": 7214,
      "hhhhhhhhhhf": 7215,
      "cedbbbb": 7216,
      "ggggfefff": 7217,
      "eeffffffed": 7218,
      "eehhh": 7219,
      "cbccbbbbbb": 7220,
      "cefgfe": 7221,
      "aaaabaaabb": 7222,
      "ghhhhhgfe": 7223,
      "cdcbaabb": 7224,
      "ddccddd": 7225,
      "cfddd": 7226,
      "ccbdddd": 7227,
      "cbbbaaaaaaab": 7228,
      "ghhhghhhhhhh": 7229,
      "ghhhghgggg": 7230,
      "ebebebdb": 7231,
      "edfh": 7232,
      "ccccdccdd": 7233,
      "ccacb": 7234,
      "cbbaaaaabbb": 7235,
      "gggfdcb": 7236,
      "cccccccccbbbb": 7237,
      "ccceefff": 7238,
      "gad": 7239,
      "cccefgf": 7240,
      "ghgggffff": 7241,
      "dbdbb": 7242,
      "eeedcccdd": 7243,
      "hhhhhgd": 7244,
      "hehehehe": 7245,
      "cededddd": 7246,
      "ededfff": 7247,
      "gghhhghhhh": 7248,
      "geeeeef": 7249,
      "egggggf": 7250,
      "ccabd": 7251,
      "abbf": 7252,
      "gedfff": 7253,
      "ccbbbbccdd": 7254,
      "efecdf": 7255,
      "ccbbbbbaab": 7256,
      "ggggggghggf": 7257,
      "gefffgf": 7258,
      "cbbdcd": 7259,
      "gggefgf": 7260,
      "gggfdb": 7261,
      "eedfggf": 7262,
      "ccccccdddddddd": 7263,
      "ghhhhhhhhhhhhhhhhhhhhhhhhhhhhhhhhhhhhhhhhhhhhhhhhhh": 7264,
      "gegcf": 7265,
      "gegfe": 7266,
      "efefgff": 7267,
      "aaaabaaa": 7268,
      "cecececed": 7269,
      "cbddbb": 7270,
      "ggggghhhhhhhhhhhhhhhhhhhhhhhhhhhhhhhhhhhhhhhhhhhhhhhhhhhhhhhhhhhhhhhh": 7271,
      "cedbaab": 7272,
      "hgggggf": 7273,
      "cdca": 7274,
      "eeeeecb": 7275,
      "eefghh": 7276,
      "efffgffff": 7277,
      "eeeefggff": 7278,
      "ceddede": 7279,
      "aaaaaaaaaaaaaaaaaaaaaaaaaaaaaaaaaaaaaaaaaaaaaaaaaab": 7280,
      "gggghhhhhhhhhhhhhhhhhh": 7281,
      "eddcde": 7282,
      "cbbbceff": 7283,
      "eddddeddd": 7284,
      "gggfgggggggg": 7285,
      "ghhhhhghhhhh": 7286,
      "abacabab": 7287,
      "eefefeed": 7288,
      "ggggggffed": 7289,
      "fhg": 7290,
      "ggggggghhhhhhhhh": 7291,
      "cbbbaaaaabb": 7292,
      "ebcdd": 7293,
      "gghhgfef": 7294,
      "edbce": 7295,
      "eeeffffef": 7296,
      "che": 7297,
      "hhhghhhh": 7298,
      "ccdffed": 7299,
      "gdedf": 7300,
      "cdddedf": 7301,
      "ccbbcbcb": 7302,
      "gggggggggggggggggf": 7303,
      "gfgggghhhh": 7304,
      "ecddff": 7305,
      "ccffed": 7306,
      "ghghhhf": 7307,
      "dfgfed": 7308,
      "ccbcccccb": 7309,
      "cefddd": 7310,
      "eeeddeedd": 7311,
      "ccceffd": 7312,
      "dcbdb": 7313,
      "cbccded": 7314,
      "cdcaaab": 7315,
      "gchbhbhbhb": 7316,
      "gggfgef": 7317,
      "dedcdd": 7318,
      "edddddedd": 7319,
      "cgbhbhbhb": 7320,
      "ghhhhhhhhhhhhhhhhhhhhhhhhhhhhhhhhhhhhhhhhhhhhhhhhhhhh": 7321,
      "eeefeeddd": 7322,
      "cccbaaaaaab": 7323,
      "edddddddded": 7324,
      "ggggggghhhhhhhhhh": 7325,
      "cccddeddd": 7326,
      "cdfgfe": 7327,
      "fbgbgb": 7328,
      "fdeed": 7329,
      "cccbbccdd": 7330,
      "fbfbfbfb": 7331,
      "bbbbcdd": 7332,
      "gegee": 7333,
      "ccbbabab": 7334,
      "gghhggggh": 7335,
      "dbbaaab": 7336,
      "dfefdf": 7337,
      "ebaaabb": 7338,
      "ccbbbaaaab": 7339,
      "ccccbcbbbb": 7340,
      "ghhgfee": 7341,
      "aaaaaaaaaababb": 7342,
      "egggh": 7343,
      "ddccdf": 7344,
      "eeffggfff": 7345,
      "eeffgggggf": 7346,
      "cccbbaaaab": 7347,
      "gdfdfdf": 7348,
      "cdcbaaaab": 7349,
      "eefgggggf": 7350,
      "cedede": 7351,
      "gghhhhgfff": 7352,
      "gghhfe": 7353,
      "cbbabaab": 7354,
      "efffeeeed": 7355,
      "edfhhh": 7356,
      "acacacaca": 7357,
      "ddddee": 7358,
      "cccdeffff": 7359,
      "ggggffggff": 7360,
      "baaaaab": 7361,
      "cbeff": 7362,
      "ccbbbbaabb": 7363,
      "abababababb": 7364,
      "ddcdddd": 7365,
      "gghhhgd": 7366,
      "dffee": 7367,
      "ddffd": 7368,
      "dfhgf": 7369,
      "gecce": 7370,
      "ggggffedd": 7371,
      "abbbbbaab": 7372,
      "ccdcdf": 7373,
      "dehhh": 7374,
      "cccbbaaabb": 7375,
      "cdddddcdd": 7376,
      "cddbaaab": 7377,
      "cbcbbbbbbbbbbb": 7378,
      "ecbcb": 7379,
      "cfedd": 7380,
      "cfeef": 7381,
      "ghhhhhhhhhhhhhhhhhhhhhhhhhhhhhhhhhhhhhhhhhhhhhhh": 7382,
      "ghgeee": 7383,
      "ccccccbbbbbbbbbb": 7384,
      "ggghhhhhhhhhhhhhhhhhhhhhhhhhhhhhhhhhhhhhhhhhhhhhhhhhhhhhhhhhhhhhhhhhhhhhhhhhhhhhhhhhhhhhhhhhhhhhhhhhhhhhhhhhhhhhhhhhhhhhhhhhhhhhhhh": 7385,
      "gfhff": 7386,
      "acacaca": 7387,
      "gghhgggggggg": 7388,
      "cffgff": 7389,
      "ghhfee": 7390,
      "ececdb": 7391,
      "cbceee": 7392,
      "hgfed": 7393,
      "ccdeded": 7394,
      "ccbccf": 7395,
      "cbbbcdff": 7396,
      "eeedcbbbb": 7397,
      "eeddddb": 7398,
      "hghe": 7399,
      "ghggggggff": 7400,
      "gggghhhgff": 7401,
      "dfegef": 7402,
      "cbccce": 7403,
      "eeeffeedd": 7404,
      "efg": 7405,
      "cccccced": 7406,
      "gggfggfff": 7407,
      "ghhhgeef": 7408,
      "cfbfbf": 7409,
      "ghggfgff": 7410,
      "ggghhhhhhhgf": 7411,
      "eedcded": 7412,
      "gghhhghgh": 7413,
      "cbbabbbbbbb": 7414,
      "ghhhhggghh": 7415,
      "eeeeeeeeded": 7416,
      "eeeeeeeeedddd": 7417,
      "abbbbaabb": 7418,
      "aaaaaaaaabbbbbbbb": 7419,
      "cdcccccdd": 7420,
      "cehhf": 7421,
      "gecdd": 7422,
      "ceebab": 7423,
      "edddddeef": 7424,
      "gegfgfff": 7425,
      "eeeeffffffffff": 7426,
      "cbbcccccd": 7427,
      "dfedf": 7428,
      "gggggfggggf": 7429,
      "eedddddded": 7430,
      "aaabbbaaaab": 7431,
      "cacbdb": 7432,
      "cddfggf": 7433,
      "cbbcdbbb": 7434,
      "gggedcb": 7435,
      "cccddbbb": 7436,
      "ededede": 7437,
      "efdcdd": 7438,
      "cbbbbbbcdd": 7439,
      "dddbbbb": 7440,
      "gggfghh": 7441,
      "aaacff": 7442,
      "eeedeeeef": 7443,
      "ccbbcdddd": 7444,
      "eeeeefffffffff": 7445,
      "cbcbdbd": 7446,
      "gfgfe": 7447,
      "gfgfgfffff": 7448,
      "cccaaaab": 7449,
      "cbcdeef": 7450,
      "cbabbd": 7451,
      "cbbcedd": 7452,
      "ggggggggggffffff": 7453,
      "edddeeeef": 7454,
      "hfhh": 7455,
      "cdeeeeff": 7456,
      "ccdcccddd": 7457,
      "decccd": 7458,
      "ddfee": 7459,
      "cfbgagaga": 7460,
      "ecefff": 7461,
      "eecbabb": 7462,
      "ggeegf": 7463,
      "cecbab": 7464,
      "eeefffeef": 7465,
      "bbced": 7466,
      "cdddbbbb": 7467,
      "decbab": 7468,
      "ccbbbaaabb": 7469,
      "cdefeef": 7470,
      "cccbaabbb": 7471,
      "gghhgghhhh": 7472,
      "aaaaabbabb": 7473,
      "cbcbbbbbbbbbbbb": 7474,
      "eddefe": 7475,
      "gghgggggggggggg": 7476,
      "hfgef": 7477,
      "gghhhhhhhhf": 7478,
      "abaaaaaab": 7479,
      "dfghgf": 7480,
      "gggfedf": 7481,
      "ccbbbabbbb": 7482,
      "ggffffeef": 7483,
      "ccfgff": 7484,
      "ccdeeeef": 7485,
      "dddccbb": 7486,
      "cdcdcccccccc": 7487,
      "cdfeff": 7488,
      "efffffffffffffff": 7489,
      "eddcbbbbb": 7490,
      "ccbcccbbbb": 7491,
      "eeeededddd": 7492,
      "gfggggffff": 7493,
      "dfdff": 7494,
      "dbac": 7495,
      "gghggd": 7496,
      "aaacc": 7497,
      "ecaaabb": 7498,
      "eafafafafa": 7499,
      "dddddddddddddddddddddddddddddddddddddddddddddddddddddddddddddddddddddddddddddddddddddddddddddddddddddddddddddddddddddddddddddddd": 7500,
      "eeeeeeeeeeddd": 7501,
      "geeggf": 7502,
      "ffdbbb": 7503,
      "gfeeef": 7504,
      "ghghhf": 7505,
      "cbbbcdcb": 7506,
      "gggghgggff": 7507,
      "ggghhgggh": 7508,
      "hghd": 7509,
      "eafafafaea": 7510,
      "aaaaaaaaaaaaaaaabbbbb": 7511,
      "gggeefff": 7512,
      "aaaaaaaaaaaaaabbbbbb": 7513,
      "hdhb": 7514,
      "ccccbbaab": 7515,
      "aaaaaaaaaaaaaaaaaaaaaaaaabbb": 7516,
      "cdghh": 7517,
      "hhhfb": 7518,
      "eeefffggf": 7519,
      "eeeeefeed": 7520,
      "edeedd": 7521,
      "cbbccbbbbb": 7522,
      "ccbdcb": 7523,
      "aaacb": 7524,
      "cccedddd": 7525,
      "edcdeef": 7526,
      "aaaaaaaaaaaaaaaaaaaaaaaaaaaaaaaaaaaaaaaaaaaaaaaaaaaab": 7527,
      "aabbbaa": 7528,
      "aaaaaacf": 7529,
      "aaaaaaaaaabaaab": 7530,
      "cedfde": 7531,
      "ghgffef": 7532,
      "gggfgggg": 7533,
      "edddeeeff": 7534,
      "ghhhhhghgh": 7535,
      "ggffffffffffff": 7536,
      "ddeefff": 7537,
      "eeccdf": 7538,
      "ccdcccccd": 7539,
      "ggecc": 7540,
      "eeedddeef": 7541,
      "aaaaaabbaab": 7542,
      "efged": 7543,
      "cegged": 7544,
      "gggfdbb": 7545,
      "ggffghh": 7546,
      "ccccdcdb": 7547,
      "cbbbbcbbbbb": 7548,
      "gffffeeef": 7549,
      "dedeedf": 7550,
      "hheb": 7551,
      "efgggff": 7552,
      "eddcddddd": 7553,
      "ghhhhggghhh": 7554,
      "eeeedeedd": 7555,
      "cgbgbgbgbf": 7556,
      "gggghhhhhhhhhhhhhhhhhhhh": 7557,
      "cddedb": 7558,
      "eefegd": 7559,
      "ccbbcccc": 7560,
      "efefefe": 7561,
      "aabbbaaaab": 7562,
      "cebdbd": 7563,
      "gbgcfdee": 7564,
      "ccddfe": 7565,
      "gfffeedd": 7566,
      "eeeefdf": 7567,
      "ggeccf": 7568,
      "edddddeff": 7569,
      "eddccccdd": 7570,
      "cccbbdd": 7571,
      "dcbcf": 7572,
      "eeeeededed": 7573,
      "ggggggggghhhhhh": 7574,
      "cbbbcee": 7575,
      "cccccccccddddd": 7576,
      "cddddcddd": 7577,
      "cdcddff": 7578,
      "aaaaaabbbab": 7579,
      "cecececd": 7580,
      "ggc": 7581,
      "hhhe": 7582,
      "cddddeddd": 7583,
      "cabdd": 7584,
      "cbcdcbb": 7585,
      "eddfgff": 7586,
      "aaaaaaaabaab": 7587,
      "edcef": 7588,
      "effede": 7589,
      "ecbdff": 7590,
      "dcdeed": 7591,
      "ghhhhhhhhhhhhgf": 7592,
      "cccdcbbbb": 7593,
      "gagahaha": 7594,
      "gggggfffgf": 7595,
      "ccdede": 7596,
      "ghfbb": 7597,
      "eeffffffgf": 7598,
      "ghhhhhhhhhhhhghgh": 7599,
      "effffgffff": 7600,
      "hchcgdf": 7601,
      "eddeb": 7602,
      "eddcded": 7603,
      "effgfd": 7604,
      "eddddccdd": 7605,
      "gegegegef": 7606,
      "hhgggg": 7607,
      "gggeeee": 7608,
      "ccbbbdf": 7609,
      "ccccdbbb": 7610,
      "eeefffeed": 7611,
      "ccdbaab": 7612,
      "cbbcbda": 7613,
      "gffgd": 7614,
      "eeegd": 7615,
      "fdbbb": 7616,
      "cccbbcbb": 7617,
      "gghhhhhhhhhf": 7618,
      "edbdf": 7619,
      "aaca": 7620,
      "ghggghhhhhh": 7621,
      "effgfgff": 7622,
      "ghhhhfff": 7623,
      "gghggghgh": 7624,
      "ebddd": 7625,
      "eeefde": 7626,
      "gghhhggghh": 7627,
      "eedfcgbhahahb": 7628,
      "hghghghgh": 7629,
      "gggefggf": 7630,
      "gehfhf": 7631,
      "cccbcbbbbbb": 7632,
      "ggghggggggf": 7633,
      "ffffffef": 7634,
      "gghggfd": 7635,
      "ecaaaaaab": 7636,
      "fgfd": 7637,
      "cfggd": 7638,
      "ceghhhhh": 7639,
      "cbbbaaabbb": 7640,
      "eeeccbb": 7641,
      "aabbbaaabb": 7642,
      "dbdbdcd": 7643,
      "eecdef": 7644,
      "ccdedf": 7645,
      "cccbcded": 7646,
      "efffffefff": 7647,
      "ddbaaa": 7648,
      "egeff": 7649,
      "hhgdf": 7650,
      "hhhhged": 7651,
      "eddcccccccc": 7652,
      "ccdcdccb": 7653,
      "aaaabbbaaab": 7654,
      "caaaaaaaabb": 7655,
      "bbbbbbbbbbbbbbbbbbbbbbbbbbbb": 7656,
      "hdhchchchd": 7657,
      "cghgf": 7658,
      "ccbceed": 7659,
      "dcbdf": 7660,
      "gggggffgff": 7661,
      "ccbef": 7662,
      "cdddede": 7663,
      "daf": 7664,
      "ghhhhhhhge": 7665,
      "ddedbb": 7666,
      "ggded": 7667,
      "ffffeef": 7668,
      "effffeddd": 7669,
      "cccdccddd": 7670,
      "eeeeffggf": 7671,
      "cccefd": 7672,
      "cceeffff": 7673,
      "eeeeedddddddd": 7674,
      "ghhggfed": 7675,
      "ccfgd": 7676,
      "ccbcbcbbb": 7677,
      "ghhggef": 7678,
      "ccddbbbb": 7679,
      "aabbaaaaab": 7680,
      "eeeegff": 7681,
      "cfghgf": 7682,
      "ggggfeddd": 7683,
      "eeeddbb": 7684,
      "eeeeeeeeeeeeef": 7685,
      "ggghgfd": 7686,
      "eeeededf": 7687,
      "cceeeddd": 7688,
      "cceddcd": 7689,
      "ccbcccddd": 7690,
      "ghhgedf": 7691,
      "eeffgggg": 7692,
      "eeefggfff": 7693,
      "cdcdee": 7694,
      "eefffeddd": 7695,
      "cccbbabbbb": 7696,
      "dffdbb": 7697,
      "egegfgf": 7698,
      "cbaaaaaaabbb": 7699,
      "cccccbbab": 7700,
      "effgfe": 7701,
      "gggfgfgff": 7702,
      "gghhggggff": 7703,
      "ggghggghhh": 7704,
      "cccbbcddd": 7705,
      "gggghggfff": 7706,
      "cececdb": 7707,
      "ddcee": 7708,
      "gfedf": 7709,
      "cbbaabbbbb": 7710,
      "ghhgc": 7711,
      "ghhghggf": 7712,
      "efffdf": 7713,
      "gedded": 7714,
      "aced": 7715,
      "ggeeddd": 7716,
      "abce": 7717,
      "gegffgf": 7718,
      "aaaaaaaaaaaaaaaaaaaaaaaaaaaaaaaaabb": 7719,
      "gghgggghhh": 7720,
      "cedddf": 7721,
      "abbbbbbabb": 7722,
      "abababaab": 7723,
      "hahahahagbf": 7724,
      "cccccccbbbbbbbb": 7725,
      "eeeffgggff": 7726,
      "acadb": 7727,
      "eghhhf": 7728,
      "cdceed": 7729,
      "ggghgfe": 7730,
      "cddedff": 7731,
      "ccddddddddddd": 7732,
      "abde": 7733,
      "effgggfff": 7734,
      "efecbbb": 7735,
      "cccddddef": 7736,
      "ccccdeeff": 7737,
      "cceggff": 7738,
      "aaaaaabbbbbbbbbb": 7739,
      "aacb": 7740,
      "effffeeed": 7741,
      "cefhhh": 7742,
      "dbef": 7743,
      "eeeddefff": 7744,
      "ghfhe": 7745,
      "ggghhge": 7746,
      "gfedee": 7747,
      "eeeeefggf": 7748,
      "cdceddd": 7749,
      "fbfced": 7750,
      "cfcfcfdfd": 7751,
      "effg": 7752,
      "ghhgghhhhhh": 7753,
      "ghhhggghhhh": 7754,
      "ghhhhhhgfd": 7755,
      "hehehehfh": 7756,
      "eefgfe": 7757,
      "deghgf": 7758,
      "cccbabbbb": 7759,
      "eeeffdd": 7760,
      "ggecbbb": 7761,
      "baaaa": 7762,
      "degh": 7763,
      "aaaababab": 7764,
      "eddddddef": 7765,
      "eeeeeddf": 7766,
      "cadf": 7767,
      "ccccbdb": 7768,
      "efffffedd": 7769,
      "effedbb": 7770,
      "cbbdbb": 7771,
      "ccdccccdd": 7772,
      "ghhef": 7773,
      "edbcdd": 7774,
      "gggghgfff": 7775,
      "cdceff": 7776,
      "abef": 7777,
      "eedcbcd": 7778,
      "gghggggggff": 7779,
      "ffedff": 7780,
      "cgfd": 7781,
      "effgg": 7782,
      "ccdbbbbb": 7783,
      "cfgeb": 7784,
      "ggffdf": 7785,
      "eeege": 7786,
      "eddddeedd": 7787,
      "dcbdd": 7788,
      "ccfhf": 7789,
      "dffdd": 7790,
      "gggdef": 7791,
      "ccbcff": 7792,
      "ghghff": 7793,
      "cddddeeed": 7794,
      "gggggfgffff": 7795,
      "edddddcdd": 7796,
      "cdcddef": 7797,
      "cbcbaaab": 7798,
      "ggege": 7799,
      "fbfcedd": 7800,
      "ccbbbbbbbbbbbbbbbbb": 7801,
      "gggeffff": 7802,
      "ccdccbbbbb": 7803,
      "edfddd": 7804,
      "eeeedcccd": 7805,
      "gbbb": 7806,
      "efffggfff": 7807,
      "ghhhhhhgd": 7808,
      "gddbb": 7809,
      "aaabbbbabb": 7810,
      "gfddd": 7811,
      "gefhh": 7812,
      "gefeffff": 7813,
      "hhhhhhhggf": 7814,
      "hhhhfe": 7815,
      "ccdcef": 7816,
      "ccbbcdef": 7817,
      "ghfdf": 7818,
      "eeddddeff": 7819,
      "dceddd": 7820,
      "ccccddded": 7821,
      "bcb": 7822,
      "cdeefed": 7823,
      "eeeeeefd": 7824,
      "eefghhh": 7825,
      "ccbbcdcb": 7826,
      "eeefeeeef": 7827,
      "cdfgfff": 7828,
      "gefeefd": 7829,
      "cccbbcbbb": 7830,
      "cccaabb": 7831,
      "bbbbbbbbbbbbbbbbbbbbbbbbbbb": 7832,
      "efgfeeff": 7833,
      "ccccccbd": 7834,
      "ccdcbd": 7835,
      "aaaaaaaaaaaaaaaaaaaaaaaaaaaaaaaaaaaaaaaaaaaaaaab": 7836,
      "cccdce": 7837,
      "eeeddeeff": 7838,
      "cccbbccbbb": 7839,
      "hbf": 7840,
      "geefef": 7841,
      "fffefff": 7842,
      "cccdbd": 7843,
      "cdcdcddddd": 7844,
      "cdege": 7845,
      "cdffe": 7846,
      "eeeedddef": 7847,
      "ccdddee": 7848,
      "ghhhhhgghhh": 7849,
      "aaaaabbbbbbbbbbb": 7850,
      "cfcfcfd": 7851,
      "gghgghhhhh": 7852,
      "cedededd": 7853,
      "eeeeeeeeeefff": 7854,
      "edddddff": 7855,
      "cdfedb": 7856,
      "aaaababababab": 7857,
      "ccccdcccdd": 7858,
      "eeddddeef": 7859,
      "ghgffd": 7860,
      "eeeeeeeefef": 7861,
      "ggfdee": 7862,
      "ghhhhhhhhhhhhf": 7863,
      "eeedfef": 7864,
      "eeeeeedddddddd": 7865,
      "cceefed": 7866,
      "cefeddd": 7867,
      "edcbcdd": 7868,
      "cbbcdeff": 7869,
      "effedeff": 7870,
      "ccbaaaaaa": 7871,
      "aaabce": 7872,
      "aabbbbbbbbbbbbbbb": 7873,
      "aaaaaaaaaaaaaaaaaaaaabbbb": 7874,
      "cbbaaaaaaaabb": 7875,
      "gffeddd": 7876,
      "ebdbb": 7877,
      "eeeffggggf": 7878,
      "cdffdd": 7879,
      "cabbab": 7880,
      "eghfd": 7881,
      "ddccbbbb": 7882,
      "ghgghf": 7883,
      "ggfgffff": 7884,
      "eeefefe": 7885,
      "eeeefeeed": 7886,
      "edeggff": 7887,
      "ccefedd": 7888,
      "dcaabb": 7889,
      "cbccccbbbb": 7890,
      "ehff": 7891,
      "ggcab": 7892,
      "cceffe": 7893,
      "eedcccbb": 7894,
      "aaaaabaaabb": 7895,
      "efedbbb": 7896,
      "dceeff": 7897,
      "eghff": 7898,
      "gahahahahagb": 7899,
      "cdcdeff": 7900,
      "eeeecdd": 7901,
      "cbbbdcb": 7902,
      "aaabcdd": 7903,
      "eeddccbbbb": 7904,
      "aaaaaaaaaaaaabbbbbb": 7905,
      "cabaaa": 7906,
      "cebaab": 7907,
      "dcdeef": 7908,
      "ggfedeff": 7909,
      "edcbbbb": 7910,
      "cbbccdb": 7911,
      "cbbaaaaaa": 7912,
      "ghhhgfgf": 7913,
      "ccbbcde": 7914,
      "abbbabab": 7915,
      "gegegegfgf": 7916,
      "ebebdbd": 7917,
      "ggggghggggf": 7918,
      "daeada": 7919,
      "cccdeeddd": 7920,
      "eeddeeddd": 7921,
      "efffffgfgf": 7922,
      "eegfe": 7923,
      "ccdcdcccc": 7924,
      "ccbaaaaaaabb": 7925,
      "ghhhgghhhhh": 7926,
      "edfgfd": 7927,
      "aaaaaaaaaaaaaaaaaaaaaaaaaaaaaaaaaaaaaaaaaaaaaaaaaaaaaaab": 7928,
      "aaaaaaaabbd": 7929,
      "hhhhhhhhhhgf": 7930,
      "cbbccc": 7931,
      "cbbcbcd": 7932,
      "hhhggggf": 7933,
      "gggghgggggf": 7934,
      "dddce": 7935,
      "gghhhhggggf": 7936,
      "ggghhhff": 7937,
      "cfcfdfd": 7938,
      "effffgggff": 7939,
      "eecccc": 7940,
      "hhhhggff": 7941,
      "edcddd": 7942,
      "gggddf": 7943,
      "cbbbaaaa": 7944,
      "ggghhgghh": 7945,
      "eeedddeff": 7946,
      "gghhhhhhggff": 7947,
      "cbac": 7948,
      "ghhghgggg": 7949,
      "cdfeb": 7950,
      "gedcdd": 7951,
      "eeedddedd": 7952,
      "ccccbbbab": 7953,
      "gfgfgfgffff": 7954,
      "cfhhgf": 7955,
      "eeeedcd": 7956,
      "ghhhhhhggggf": 7957,
      "ggeggf": 7958,
      "egebb": 7959,
      "ggggggggfgfgf": 7960,
      "ddddcdd": 7961,
      "cdcdccccd": 7962,
      "cccddcddd": 7963,
      "ccdfgggf": 7964,
      "gdfdeedf": 7965,
      "ccbaaabbbb": 7966,
      "edfcfb": 7967,
      "cdedccdd": 7968,
      "caace": 7969,
      "acgf": 7970,
      "ggggggggfd": 7971,
      "eddddddded": 7972,
      "gggggghghgh": 7973,
      "ccbbaabbbb": 7974,
      "ccfgfd": 7975,
      "ccccddedd": 7976,
      "hhhhhhhhhhhhhhhhhhhhhhhhhhhhhhhhhhhhhhhhhhhhhhhhh": 7977,
      "cbcbbd": 7978,
      "eedcde": 7979,
      "aaaaaaaaaaaaaaaaaaaaaaaaaaaaaaaaaaaaaaaaaaaaab": 7980,
      "eedddddef": 7981,
      "cgcgcf": 7982,
      "eeeeedb": 7983,
      "aaabbbd": 7984,
      "ggegd": 7985,
      "cccccdcddd": 7986,
      "eedededf": 7987,
      "ggggfffgff": 7988,
      "cbace": 7989,
      "bce": 7990,
      "caaaaaaaaaaab": 7991,
      "eedccccb": 7992,
      "abbcdd": 7993,
      "ghhgdbb": 7994,
      "bbbbabbb": 7995,
      "cfdff": 7996,
      "cbbbaabbbb": 7997,
      "ghhhhgee": 7998,
      "cbcbcccccccc": 7999,
      "aaaaaaaaaaaabbbbbbb": 8000,
      "defedd": 8001,
      "eeeeddcdd": 8002,
      "fffddd": 8003,
      "ccdcccbbb": 8004,
      "cabbbbbbb": 8005,
      "gghhhgggg": 8006,
      "aabbaabbb": 8007,
      "cebebf": 8008,
      "cffee": 8009,
      "ghhhhhhhhhhhhhhhhhhhhhhhhhhhhhhhhhhhhhhhhhhhhhhhhhhhhhhh": 8010,
      "eeeeecbb": 8011,
      "cccdcdcdd": 8012,
      "ghhhgedd": 8013,
      "eeefeefff": 8014,
      "cefgfed": 8015,
      "gfefggff": 8016,
      "effgfggf": 8017,
      "effgfgfff": 8018,
      "gggfdf": 8019,
      "egfedd": 8020,
      "faeada": 8021,
      "hhhgee": 8022,
      "dbcee": 8023,
      "eeedcdf": 8024,
      "efffffgfff": 8025,
      "ggggggffgf": 8026,
      "ecccbb": 8027,
      "ccddcccb": 8028,
      "gbgced": 8029,
      "gghhghhhhh": 8030,
      "cddbaa": 8031,
      "gcfdefd": 8032,
      "cccccbbbbbbbbbbbb": 8033,
      "ffffee": 8034,
      "cccdced": 8035,
      "eeedeeeeeeee": 8036,
      "abbbaabbb": 8037,
      "aaaaaaaaaabbbbbbbb": 8038,
      "bbbbcd": 8039,
      "ccbbaaaaaabb": 8040,
      "eeecf": 8041,
      "gghhhgfe": 8042,
      "ggdce": 8043,
      "hegfggf": 8044,
      "bbaaa": 8045,
      "cdbcd": 8046,
      "dfdeded": 8047,
      "fhhhhh": 8048,
      "ggdee": 8049,
      "effgfffff": 8050,
      "cdefggff": 8051,
      "gggghgggg": 8052,
      "ggfecb": 8053,
      "cccccccccccbb": 8054,
      "defeed": 8055,
      "cgbhbhb": 8056,
      "ebdbccb": 8057,
      "ggcd": 8058,
      "ghffd": 8059,
      "cabbbab": 8060,
      "eefffffffffffff": 8061,
      "ghhhhhhhhhhhhhhhhhhhhhhhhhhhhhhhhhhhhhhhhhhhhhhhhhhhhhh": 8062,
      "decaab": 8063,
      "cbbed": 8064,
      "eeedcb": 8065,
      "fafbfb": 8066,
      "cdedcd": 8067,
      "defeef": 8068,
      "fffffffffffffffffff": 8069,
      "gbgcfdef": 8070,
      "cbbbbaaa": 8071,
      "gggfedef": 8072,
      "gdaa": 8073,
      "hfe": 8074,
      "dedcb": 8075,
      "ceeddddd": 8076,
      "hcgcgd": 8077,
      "cccdbdb": 8078,
      "aaaadf": 8079,
      "aaaaaaaaaaaaaaaaaaaaaabbbb": 8080,
      "aababbbb": 8081,
      "ghhgb": 8082,
      "eeeefdd": 8083,
      "efedee": 8084,
      "edcbaaaab": 8085,
      "hgedf": 8086,
      "gggedbb": 8087,
      "gffgegd": 8088,
      "ccbdee": 8089,
      "ccbcced": 8090,
      "eeedeeeed": 8091,
      "cdfdcb": 8092,
      "gafafa": 8093,
      "eceded": 8094,
      "ddfbgb": 8095,
      "ggfffeeef": 8096,
      "eeeefeeff": 8097,
      "hdhehf": 8098,
      "cccccbcbcbcb": 8099,
      "cfced": 8100,
      "abbcd": 8101,
      "ebabbb": 8102,
      "ccddeeeed": 8103,
      "ccbbababb": 8104,
      "ccbbbce": 8105,
      "fagb": 8106,
      "aaaaaaabaaaab": 8107,
      "bbaaaaab": 8108,
      "cccdcb": 8109,
      "gegegdgd": 8110,
      "cacadada": 8111,
      "hfhfhfhfh": 8112,
      "cfbgbhb": 8113,
      "cbbcccbbbb": 8114,
      "cbbbbccccd": 8115,
      "efedcd": 8116,
      "ggghghggf": 8117,
      "effgggggggg": 8118,
      "cbbceef": 8119,
      "eedefd": 8120,
      "cfhhhf": 8121,
      "efffde": 8122,
      "eeeeddff": 8123,
      "cccdefd": 8124,
      "eedddeeef": 8125,
      "ecabd": 8126,
      "ccfee": 8127,
      "efedccd": 8128,
      "eeeeecdd": 8129,
      "dbced": 8130,
      "eeddccddd": 8131,
      "ceddcdd": 8132,
      "ghhfde": 8133,
      "edddffff": 8134,
      "ccbbbddd": 8135,
      "aaaaaaaabababab": 8136,
      "ggdbab": 8137,
      "gfddf": 8138,
      "efffefffff": 8139,
      "hhhhhhge": 8140,
      "dffb": 8141,
      "ceeedddd": 8142,
      "feed": 8143,
      "cecedddd": 8144,
      "gggfgfgggg": 8145,
      "aaaaaaaaaaaaaaaaaaaaaaaaaaaaaaaaaaabb": 8146,
      "cccccccddddddd": 8147,
      "egdd": 8148,
      "ccccccdcdcd": 8149,
      "hghhhhhhhhhhhhhhhhhhhhhhhhhhhhhhhhhhhhhhhhhhhhhhhhhhhhhhhhhhhhhhhh": 8150,
      "eddcccddd": 8151,
      "cbbbef": 8152,
      "cdddccccb": 8153,
      "ccbbbcbbbbb": 8154,
      "eeddddcdd": 8155,
      "ddebb": 8156,
      "aaaaaaaaac": 8157,
      "cccdeeeed": 8158,
      "gffffeeff": 8159,
      "cdfgggg": 8160,
      "gggggfgggff": 8161,
      "cabde": 8162,
      "cddfee": 8163,
      "gbgbgcfddf": 8164,
      "ccccdbdb": 8165,
      "cccbccccdd": 8166,
      "abbbba": 8167,
      "ccceedb": 8168,
      "ghhhhhggfff": 8169,
      "abbbbbbbab": 8170,
      "abababababababababababababababab": 8171,
      "dcef": 8172,
      "hhgc": 8173,
      "ghhghhhhhhhh": 8174,
      "ghhggfgf": 8175,
[...]
